{
  "version": "1.0",
  "truncation": null,
  "padding": null,
  "added_tokens": [
    {
      "id": 0,
      "content": "[PAD]",
      "single_word": false,
      "lstrip": false,
      "rstrip": false,
      "normalized": false,
      "special": true
    },
    {
      "id": 1,
      "content": "[UNK]",
      "single_word": false,
      "lstrip": false,
      "rstrip": false,
      "normalized": false,
      "special": true
    },
    {
      "id": 2,
      "content": "[CLS]",
      "single_word": false,
      "lstrip": false,
      "rstrip": false,
      "normalized": false,
      "special": true
    },
    {
      "id": 3,
      "content": "[SEP]",
      "single_word": false,
      "lstrip": false,
      "rstrip": false,
      "normalized": false,
      "special": true
    },
    {
      "id": 4,
      "content": "[MASK]",
      "single_word": false,
      "lstrip": false,
      "rstrip": false,
      "normalized": false,
      "special": true
    }
  ],
  "normalizer": {
    "type": "BertNormalizer",
    "clean_text": true,
    "handle_chinese_chars": true,
    "strip_accents": null,
    "lowercase": false
  },
  "pre_tokenizer": {
    "type": "BertPreTokenizer"
  },
  "post_processor": {
    "type": "TemplateProcessing",
    "single": [
      {
        "SpecialToken": {
          "id": "[CLS]",
          "type_id": 0
        }
      },
      {
        "Sequence": {
          "id": "A",
          "type_id": 0
        }
      },
      {
        "SpecialToken": {
          "id": "[SEP]",
          "type_id": 0
        }
      }
    ],
    "pair": [
      {
        "SpecialToken": {
          "id": "[CLS]",
          "type_id": 0
        }
      },
      {
        "Sequence": {
          "id": "A",
          "type_id": 0
        }
      },
      {
        "SpecialToken": {
          "id": "[SEP]",
          "type_id": 0
        }
      },
      {
        "Sequence": {
          "id": "B",
          "type_id": 1
        }
      },
      {
        "SpecialToken": {
          "id": "[SEP]",
          "type_id": 1
        }
      }
    ],
    "special_tokens": {
      "[CLS]": {
        "id": "[CLS]",
        "ids": [
          2
        ],
        "tokens": [
          "[CLS]"
        ]
      },
      "[MASK]": {
        "id": "[MASK]",
        "ids": [
          4
        ],
        "tokens": [
          "[MASK]"
        ]
      },
      "[PAD]": {
        "id": "[PAD]",
        "ids": [
          0
        ],
        "tokens": [
          "[PAD]"
        ]
      },
      "[SEP]": {
        "id": "[SEP]",
        "ids": [
          3
        ],
        "tokens": [
          "[SEP]"
        ]
      },
      "[UNK]": {
        "id": "[UNK]",
        "ids": [
          1
        ],
        "tokens": [
          "[UNK]"
        ]
      }
    }
  },
  "decoder": {
    "type": "WordPiece",
    "prefix": "##",
    "cleanup": true
  },
  "model": {
    "type": "WordPiece",
    "unk_token": "[UNK]",
    "continuing_subword_prefix": "##",
    "max_input_chars_per_word": 100,
    "vocab": {
      "[PAD]": 0,
      "[UNK]": 1,
      "[CLS]": 2,
      "[SEP]": 3,
      "[MASK]": 4,
      "!": 5,
      "\"": 6,
      "$": 7,
      "%": 8,
      "&": 9,
      "'": 10,
      "(": 11,
      ")": 12,
      "*": 13,
      "+": 14,
      ",": 15,
      "-": 16,
      ".": 17,
      "/": 18,
      "0": 19,
      "1": 20,
      "2": 21,
      "3": 22,
      "4": 23,
      "5": 24,
      "6": 25,
      "7": 26,
      "8": 27,
      "9": 28,
      ":": 29,
      ";": 30,
      "<": 31,
      "=": 32,
      ">": 33,
      "?": 34,
      "A": 35,
      "B": 36,
      "C": 37,
      "D": 38,
      "E": 39,
      "F": 40,
      "G": 41,
      "H": 42,
      "I": 43,
      "J": 44,
      "K": 45,
      "L": 46,
      "M": 47,
      "N": 48,
      "O": 49,
      "P": 50,
      "Q": 51,
      "R": 52,
      "S": 53,
      "T": 54,
      "U": 55,
      "V": 56,
      "W": 57,
      "X": 58,
      "Y": 59,
      "Z": 60,
      "[": 61,
      "\\": 62,
      "]": 63,
      "^": 64,
      "_": 65,
      "`": 66,
      "a": 67,
      "b": 68,
      "c": 69,
      "d": 70,
      "e": 71,
      "f": 72,
      "g": 73,
      "h": 74,
      "i": 75,
      "j": 76,
      "k": 77,
      "l": 78,
      "m": 79,
      "n": 80,
      "o": 81,
      "p": 82,
      "q": 83,
      "r": 84,
      "s": 85,
      "t": 86,
      "u": 87,
      "v": 88,
      "w": 89,
      "x": 90,
      "y": 91,
      "z": 92,
      "{": 93,
      "|": 94,
      "}": 95,
      "~": 96,
      "«": 97,
      "Á": 98,
      "È": 99,
      "É": 100,
      "Ó": 101,
      "Ö": 102,
      "à": 103,
      "á": 104,
      "â": 105,
      "ã": 106,
      "ç": 107,
      "è": 108,
      "é": 109,
      "ê": 110,
      "ë": 111,
      "ì": 112,
      "í": 113,
      "î": 114,
      "ï": 115,
      "ñ": 116,
      "ò": 117,
      "ó": 118,
      "ô": 119,
      "ý": 120,
      "Š": 121,
      "‑": 122,
      "—": 123,
      "‘": 124,
      "’": 125,
      "“": 126,
      "”": 127,
      "##l": 128,
      "##e": 129,
      "##a": 130,
      "##s": 131,
      "##2": 132,
      "##0": 133,
      "##u": 134,
      "##i": 135,
      "##d": 136,
      "##o": 137,
      "##k": 138,
      "##b": 139,
      "##c": 140,
      "##h": 141,
      "##C": 142,
      "##r": 143,
      "##m": 144,
      "##t": 145,
      "##1": 146,
      "##6": 147,
      "##F": 148,
      "##w": 149,
      "##8": 150,
      "##I": 151,
      "##n": 152,
      "##y": 153,
      "##g": 154,
      "##p": 155,
      "##B": 156,
      "##v": 157,
      "##5": 158,
      "##S": 159,
      "##E": 160,
      "##W": 161,
      "##4": 162,
      "##O": 163,
      "##x": 164,
      "##R": 165,
      "##L": 166,
      "##9": 167,
      "##3": 168,
      "##M": 169,
      "##N": 170,
      "##f": 171,
      "##Q": 172,
      "##q": 173,
      "##P": 174,
      "##U": 175,
      "##T": 176,
      "##A": 177,
      "##V": 178,
      "##Z": 179,
      "##D": 180,
      "##j": 181,
      "##Y": 182,
      "##G": 183,
      "##H": 184,
      "##7": 185,
      "##z": 186,
      "##J": 187,
      "##K": 188,
      "##X": 189,
      "##è": 190,
      "##é": 191,
      "##á": 192,
      "##ç": 193,
      "##î": 194,
      "##í": 195,
      "##ó": 196,
      "##Ö": 197,
      "##ã": 198,
      "##ê": 199,
      "##ý": 200,
      "##à": 201,
      "##ò": 202,
      "##ñ": 203,
      "##â": 204,
      "##ë": 205,
      "##ô": 206,
      "##ì": 207,
      "##ï": 208,
      "th": 209,
      "the": 210,
      "##er": 211,
      "##at": 212,
      "##en": 213,
      "##on": 214,
      "##in": 215,
      "##es": 216,
      "##or": 217,
      "##nd": 218,
      "##ar": 219,
      "to": 220,
      "##is": 221,
      "of": 222,
      "##ed": 223,
      "in": 224,
      "##it": 225,
      "##an": 226,
      "##ent": 227,
      "##ion": 228,
      "##al": 229,
      "##ou": 230,
      "##ing": 231,
      "##re": 232,
      "and": 233,
      "##ic": 234,
      "##il": 235,
      "that": 236,
      "##as": 237,
      "##om": 238,
      "##ment": 239,
      "be": 240,
      "is": 241,
      "##le": 242,
      "##ve": 243,
      "re": 244,
      "##ot": 245,
      "##ct": 246,
      "##st": 247,
      "##ro": 248,
      "for": 249,
      "wh": 250,
      "##ut": 251,
      "##ation": 252,
      "##ly": 253,
      "Th": 254,
      "##se": 255,
      "on": 256,
      "##ill": 257,
      "##ur": 258,
      "##ter": 259,
      "ha": 260,
      "##ce": 261,
      "##ver": 262,
      "20": 263,
      "##id": 264,
      "##et": 265,
      "##li": 266,
      "it": 267,
      "##ld": 268,
      "##ch": 269,
      "##ow": 270,
      "con": 271,
      "##ay": 272,
      "we": 273,
      "are": 274,
      "##ir": 275,
      "as": 276,
      "not": 277,
      "##ad": 278,
      "pro": 279,
      "have": 280,
      "##th": 281,
      "##ll": 282,
      "##ate": 283,
      "de": 284,
      "##ith": 285,
      "##gh": 286,
      "The": 287,
      "##im": 288,
      "##ers": 289,
      "##pp": 290,
      "an": 291,
      "st": 292,
      "will": 293,
      "with": 294,
      "##em": 295,
      "##ould": 296,
      "su": 297,
      "##ol": 298,
      "##ort": 299,
      "##ess": 300,
      "##ak": 301,
      "com": 302,
      "01": 303,
      "##ul": 304,
      "this": 305,
      "##est": 306,
      "201": 307,
      "##op": 308,
      "##am": 309,
      "19": 310,
      "##arli": 311,
      "##ament": 312,
      "##ri": 313,
      "##ity": 314,
      "##arliament": 315,
      "##and": 316,
      "##ab": 317,
      "he": 318,
      "##ect": 319,
      "##art": 320,
      "##ere": 321,
      "##ge": 322,
      "##ust": 323,
      "ex": 324,
      "##ich": 325,
      "##ant": 326,
      "##ish": 327,
      "by": 328,
      "##over": 329,
      "has": 330,
      "##Parliament": 331,
      "##end": 332,
      "sh": 333,
      "##ies": 334,
      "ne": 335,
      "##os": 336,
      "was": 337,
      "##ain": 338,
      "##oun": 339,
      "##ive": 340,
      "or": 341,
      "at": 342,
      "do": 343,
      "##overn": 344,
      "##ff": 345,
      "##mp": 346,
      "##ard": 347,
      "##rom": 348,
      "##inis": 349,
      "##overnment": 350,
      "##ep": 351,
      "which": 352,
      "##ght": 353,
      "ab": 354,
      "##ber": 355,
      "##our": 356,
      "##oc": 357,
      "##pe": 358,
      "##inister": 359,
      "se": 360,
      "##ac": 361,
      "Mr": 362,
      "##iv": 363,
      "##ore": 364,
      "##un": 365,
      "##us": 366,
      "en": 367,
      "ch": 368,
      "from": 369,
      "##ear": 370,
      "wor": 371,
      "they": 372,
      "all": 373,
      "##ure": 374,
      "##ome": 375,
      "##ue": 376,
      "pr": 377,
      "##ions": 378,
      "##out": 379,
      "would": 380,
      "pe": 381,
      "##od": 382,
      "Minister": 383,
      "##ist": 384,
      "res": 385,
      "##ial": 386,
      "le": 387,
      "al": 388,
      "been": 389,
      "##um": 390,
      "am": 391,
      "who": 392,
      "##ry": 393,
      "ag": 394,
      "##ople": 395,
      "It": 396,
      "##ose": 397,
      "We": 398,
      "##ud": 399,
      "##ount": 400,
      "##ig": 401,
      "##ight": 402,
      "there": 403,
      "##ew": 404,
      "##ary": 405,
      "people": 406,
      "imp": 407,
      "200": 408,
      "##ice": 409,
      "their": 410,
      "can": 411,
      "me": 412,
      "but": 413,
      "our": 414,
      "comm": 415,
      "##ake": 416,
      "part": 417,
      "##ra": 418,
      "##ous": 419,
      "ad": 420,
      "##ans": 421,
      "##all": 422,
      "inc": 423,
      "Ir": 424,
      "Government": 425,
      "##ime": 426,
      "##ther": 427,
      "##ast": 428,
      "##ations": 429,
      "about": 430,
      "Irish": 431,
      "year": 432,
      "cont": 433,
      "##able": 434,
      "ac": 435,
      "app": 436,
      "##ance": 437,
      "##rou": 438,
      "##ence": 439,
      "my": 440,
      "go": 441,
      "##el": 442,
      "##qu": 443,
      "##if": 444,
      "##au": 445,
      "int": 446,
      "##ost": 447,
      "In": 448,
      "un": 449,
      "##erv": 450,
      "work": 451,
      "##act": 452,
      "##her": 453,
      "Dep": 454,
      "out": 455,
      "##one": 456,
      "qu": 457,
      "##nder": 458,
      "##age": 459,
      "IrishParliament": 460,
      "pl": 461,
      "if": 462,
      "##itt": 463,
      "##ition": 464,
      "hon": 465,
      "should": 466,
      "##lic": 467,
      "comp": 468,
      "##arl": 469,
      "so": 470,
      "##ult": 471,
      "##per": 472,
      "what": 473,
      "prov": 474,
      "tr": 475,
      "under": 476,
      "##ib": 477,
      "rec": 478,
      "##ub": 479,
      "##pport": 480,
      "man": 481,
      "reg": 482,
      "##EE": 483,
      "##ated": 484,
      "dis": 485,
      "##du": 486,
      "##ade": 487,
      "per": 488,
      "Parl": 489,
      "ParlEE": 490,
      "##omm": 491,
      "11": 492,
      "##ause": 493,
      "rep": 494,
      "##ments": 495,
      "##cess": 496,
      "St": 497,
      "were": 498,
      "##ip": 499,
      "ind": 500,
      "##ember": 501,
      "cons": 502,
      "more": 503,
      "##ag": 504,
      "one": 505,
      "##are": 506,
      "##ally": 507,
      "bec": 508,
      "any": 509,
      "those": 510,
      "up": 511,
      "06": 512,
      "inter": 513,
      "##ach": 514,
      "##ouse": 515,
      "sa": 516,
      "some": 517,
      "##ong": 518,
      "count": 519,
      "##ise": 520,
      "##ational": 521,
      "##ery": 522,
      "05": 523,
      "##ons": 524,
      "di": 525,
      "##ree": 526,
      "##vel": 527,
      "##oin": 528,
      "us": 529,
      "##for": 530,
      "his": 531,
      "time": 532,
      "##ities": 533,
      "them": 534,
      "##ail": 535,
      "##lo": 536,
      "other": 537,
      "03": 538,
      "##ke": 539,
      "need": 540,
      "##ens": 541,
      "##ack": 542,
      "##ild": 543,
      "no": 544,
      "That": 545,
      "than": 546,
      "02": 547,
      "##ase": 548,
      "##con": 549,
      "##pt": 550,
      "10": 551,
      "##ction": 552,
      "##ace": 553,
      "##now": 554,
      "when": 555,
      "##land": 556,
      "##gr": 557,
      "##so": 558,
      "exp": 559,
      "very": 560,
      "Can": 561,
      "off": 562,
      "##ru": 563,
      "##enc": 564,
      "Wh": 565,
      "pol": 566,
      "##eal": 567,
      "##oint": 568,
      "right": 569,
      "##bers": 570,
      "had": 571,
      "##ide": 572,
      "12": 573,
      "House": 574,
      "resp": 575,
      "199": 576,
      "UK": 577,
      "##ine": 578,
      "also": 579,
      "##reat": 580,
      "mat": 581,
      "its": 582,
      "##ap": 583,
      "because": 584,
      "##ef": 585,
      "sch": 586,
      "##ec": 587,
      "say": 588,
      "serv": 589,
      "government": 590,
      "cl": 591,
      "over": 592,
      "Canad": 593,
      "spe": 594,
      "know": 595,
      "pre": 596,
      "make": 597,
      "Comm": 598,
      "made": 599,
      "##ind": 600,
      "##ia": 601,
      "support": 602,
      "ar": 603,
      "##uty": 604,
      "##embers": 605,
      "iss": 606,
      "##ign": 607,
      "##ee": 608,
      "##air": 609,
      "##ric": 610,
      "##ok": 611,
      "inv": 612,
      "##ious": 613,
      "ask": 614,
      "pos": 615,
      "##ral": 616,
      "##form": 617,
      "Bill": 618,
      "##und": 619,
      "Ch": 620,
      "matter": 621,
      "##ublic": 622,
      "##anc": 623,
      "##ical": 624,
      "li": 625,
      "##res": 626,
      "UKParliament": 627,
      "07": 628,
      "years": 629,
      "new": 630,
      "dec": 631,
      "##ink": 632,
      "##ord": 633,
      "want": 634,
      "##lem": 635,
      "such": 636,
      "being": 637,
      "##ates": 638,
      "conc": 639,
      "04": 640,
      "these": 641,
      "sp": 642,
      "you": 643,
      "This": 644,
      "##ire": 645,
      "##ax": 646,
      "Deputy": 647,
      "import": 648,
      "##ven": 649,
      "##get": 650,
      "cr": 651,
      "now": 652,
      "##ices": 653,
      "There": 654,
      "##iss": 655,
      "into": 656,
      "##00": 657,
      "country": 658,
      "te": 659,
      "##ility": 660,
      "198": 661,
      "##og": 662,
      "get": 663,
      "##unity": 664,
      "As": 665,
      "##ame": 666,
      "quest": 667,
      "##duc": 668,
      "way": 669,
      "leg": 670,
      "sub": 671,
      "ref": 672,
      "##ject": 673,
      "must": 674,
      "##loy": 675,
      "many": 676,
      "##ents": 677,
      "##ern": 678,
      "##wn": 679,
      "##lect": 680,
      "##fore": 681,
      "ass": 682,
      "said": 683,
      "only": 684,
      "##ian": 685,
      "eff": 686,
      "point": 687,
      "##ings": 688,
      "##velop": 689,
      "##ider": 690,
      "##der": 691,
      "see": 692,
      "##lation": 693,
      "Spe": 694,
      "bill": 695,
      "##rough": 696,
      "bet": 697,
      "deb": 698,
      "##ie": 699,
      "##ob": 700,
      "num": 701,
      "##ite": 702,
      "##ounc": 703,
      "##tain": 704,
      "##igh": 705,
      "rem": 706,
      "pers": 707,
      "take": 708,
      "just": 709,
      "##iew": 710,
      "like": 711,
      "##aker": 712,
      "act": 713,
      "##lud": 714,
      "##ass": 715,
      "##conom": 716,
      "prop": 717,
      "Aust": 718,
      "New": 719,
      "##stit": 720,
      "public": 721,
      "##ittee": 722,
      "add": 723,
      "think": 724,
      "##very": 725,
      "##ang": 726,
      "##ocal": 727,
      "tax": 728,
      "Un": 729,
      "ter": 730,
      "partic": 731,
      "09": 732,
      "could": 733,
      "##ative": 734,
      "##ible": 735,
      "##uth": 736,
      "Austral": 737,
      "through": 738,
      "##ren": 739,
      "##ision": 740,
      "lo": 741,
      "##ific": 742,
      "##ular": 743,
      "##ark": 744,
      "Sc": 745,
      "##als": 746,
      "pay": 747,
      "1900": 748,
      "##rib": 749,
      "##ved": 750,
      "##ution": 751,
      "acc": 752,
      "##ret": 753,
      "how": 754,
      "Speaker": 755,
      "##ress": 756,
      "##ving": 757,
      "diff": 758,
      "##artment": 759,
      "##ange": 760,
      "##irst": 761,
      "##ention": 762,
      "##ener": 763,
      "incre": 764,
      "Canada": 765,
      "##ited": 766,
      "consider": 767,
      "report": 768,
      "important": 769,
      "where": 770,
      "##ised": 771,
      "progr": 772,
      "##ool": 773,
      "econom": 774,
      "member": 775,
      "put": 776,
      "##ues": 777,
      "sy": 778,
      "fund": 779,
      "cent": 780,
      "state": 781,
      "##aw": 782,
      "##oll": 783,
      "develop": 784,
      "tak": 785,
      "prob": 786,
      "##uch": 787,
      "question": 788,
      "again": 789,
      "fact": 790,
      "##ors": 791,
      "##day": 792,
      "##ory": 793,
      "may": 794,
      "number": 795,
      "emp": 796,
      "child": 797,
      "##ward": 798,
      "##ne": 799,
      "Scot": 800,
      "##wo": 801,
      "If": 802,
      "concern": 803,
      "members": 804,
      "##lear": 805,
      "##iz": 806,
      "They": 807,
      "##we": 808,
      "##riend": 809,
      "att": 810,
      "appro": 811,
      "contin": 812,
      "ens": 813,
      "local": 814,
      "sect": 815,
      "##uthor": 816,
      "##ever": 817,
      "##ful": 818,
      "##stem": 819,
      "requ": 820,
      "includ": 821,
      "##ouncil": 822,
      "does": 823,
      "##ission": 824,
      "##ives": 825,
      "Tr": 826,
      "##ures": 827,
      "##ealand": 828,
      "##ency": 829,
      "system": 830,
      "far": 831,
      "ext": 832,
      "pres": 833,
      "asked": 834,
      "fin": 835,
      "every": 836,
      "##ks": 837,
      "well": 838,
      "Department": 839,
      "amend": 840,
      "cour": 841,
      "How": 842,
      "disc": 843,
      "propos": 844,
      "legis": 845,
      "##ased": 846,
      "##iness": 847,
      "##av": 848,
      "particular": 849,
      "mill": 850,
      "ob": 851,
      "agree": 852,
      "great": 853,
      "##alth": 854,
      "##ile": 855,
      "polic": 856,
      "two": 857,
      "good": 858,
      "last": 859,
      "Br": 860,
      "State": 861,
      "bus": 862,
      "person": 863,
      "deal": 864,
      "conf": 865,
      "##way": 866,
      "##ough": 867,
      "##ating": 868,
      "##own": 869,
      "##cept": 870,
      "pri": 871,
      "did": 872,
      "problem": 873,
      "school": 874,
      "issue": 875,
      "first": 876,
      "##ently": 877,
      "He": 878,
      "2012": 879,
      "cost": 880,
      "##cial": 881,
      "##uring": 882,
      "before": 883,
      "##amp": 884,
      "high": 885,
      "interest": 886,
      "ro": 887,
      "##ms": 888,
      "##urr": 889,
      "debate": 890,
      "author": 891,
      "provid": 892,
      "much": 893,
      "##lish": 894,
      "##sel": 895,
      "Sec": 896,
      "##ss": 897,
      "##ning": 898,
      "look": 899,
      "Friend": 900,
      "indust": 901,
      "bu": 902,
      "##outh": 903,
      "day": 904,
      "soc": 905,
      "health": 906,
      "employ": 907,
      "##led": 908,
      "giv": 909,
      "##hing": 910,
      "invest": 911,
      "place": 912,
      "regard": 913,
      "long": 914,
      "back": 915,
      "clear": 916,
      "million": 917,
      "##oney": 918,
      "##hip": 919,
      "##lement": 920,
      "set": 921,
      "##ute": 922,
      "gr": 923,
      "##lie": 924,
      "##amil": 925,
      "##not": 926,
      "Act": 927,
      "##ting": 928,
      "Member": 929,
      "des": 930,
      "business": 931,
      "No": 932,
      "##ual": 933,
      "going": 934,
      "adv": 935,
      "##uro": 936,
      "services": 937,
      "legislation": 938,
      "own": 939,
      "##xt": 940,
      "##fter": 941,
      "rel": 942,
      "most": 943,
      "allow": 944,
      "inform": 945,
      "2018": 946,
      "ensure": 947,
      "mon": 948,
      "##ppos": 949,
      "trans": 950,
      "av": 951,
      "##ty": 952,
      "her": 953,
      "##ether": 954,
      "him": 955,
      "##row": 956,
      "money": 957,
      "ben": 958,
      "car": 959,
      "2010": 960,
      "give": 961,
      "case": 962,
      "care": 963,
      "##ts": 964,
      "co": 965,
      "red": 966,
      "##ertain": 967,
      "oper": 968,
      "end": 969,
      "refer": 970,
      "order": 971,
      "##ael": 972,
      "2011": 973,
      "belie": 974,
      "##ween": 975,
      "##ound": 976,
      "effect": 977,
      "##gan": 978,
      "sec": 979,
      "2009": 980,
      "Australia": 981,
      "Jo": 982,
      "she": 983,
      "##mer": 984,
      "est": 985,
      "##me": 986,
      "##stand": 987,
      "process": 988,
      "##ond": 989,
      "job": 990,
      "##ady": 991,
      "##ital": 992,
      "##lp": 993,
      "mo": 994,
      "program": 995,
      "str": 996,
      "Euro": 997,
      "##uss": 998,
      "##oth": 999,
      "2017": 1000,
      "between": 1001,
      "##ces": 1002,
      "##ope": 1003,
      "##old": 1004,
      "happ": 1005,
      "help": 1006,
      "whether": 1007,
      "schem": 1008,
      "Pr": 1009,
      "##rect": 1010,
      "poss": 1011,
      "wee": 1012,
      "##round": 1013,
      "08": 1014,
      "here": 1015,
      "##ath": 1016,
      "##ank": 1017,
      "2013": 1018,
      "def": 1019,
      "col": 1020,
      "Mich": 1021,
      "cannot": 1022,
      "ev": 1023,
      "2019": 1024,
      "sit": 1025,
      "##urther": 1026,
      "benef": 1027,
      "come": 1028,
      "gener": 1029,
      "reas": 1030,
      "Lab": 1031,
      "##aking": 1032,
      "##icult": 1033,
      "sc": 1034,
      "dep": 1035,
      "##alk": 1036,
      "famil": 1037,
      "##ducation": 1038,
      "##ries": 1039,
      "Europe": 1040,
      "call": 1041,
      "##ians": 1042,
      "br": 1043,
      "##udget": 1044,
      "national": 1045,
      "rece": 1046,
      "stand": 1047,
      "even": 1048,
      "community": 1049,
      "after": 1050,
      "Re": 1051,
      "Scotland": 1052,
      "respons": 1053,
      "opport": 1054,
      "bo": 1055,
      "2015": 1056,
      "##ater": 1057,
      "ra": 1058,
      "United": 1059,
      "policy": 1060,
      "law": 1061,
      "##retary": 1062,
      "today": 1063,
      "meet": 1064,
      "prev": 1065,
      "##otect": 1066,
      "##its": 1067,
      "##gg": 1068,
      "view": 1069,
      "##ince": 1070,
      "Parliament": 1071,
      "pur": 1072,
      "##ick": 1073,
      "service": 1074,
      "##ident": 1075,
      "constit": 1076,
      "real": 1077,
      "why": 1078,
      "sign": 1079,
      "##ural": 1080,
      "children": 1081,
      "##ied": 1082,
      "Se": 1083,
      "##lin": 1084,
      "Council": 1085,
      "done": 1086,
      "##urity": 1087,
      "Committee": 1088,
      "level": 1089,
      "##red": 1090,
      "##ower": 1091,
      "South": 1092,
      "given": 1093,
      "respect": 1094,
      "use": 1095,
      "certain": 1096,
      "same": 1097,
      "intern": 1098,
      "##resent": 1099,
      "However": 1100,
      "dem": 1101,
      "statement": 1102,
      "2014": 1103,
      "curr": 1104,
      "##uation": 1105,
      "2016": 1106,
      "plan": 1107,
      "##ood": 1108,
      "area": 1109,
      "En": 1110,
      "further": 1111,
      "then": 1112,
      "##ollow": 1113,
      "##uture": 1114,
      "wel": 1115,
      "avail": 1116,
      "polit": 1117,
      "believe": 1118,
      "##les": 1119,
      "elect": 1120,
      "##urn": 1121,
      "197": 1122,
      "provide": 1123,
      "##ety": 1124,
      "Is": 1125,
      "ser": 1126,
      "aff": 1127,
      "##ross": 1128,
      "##te": 1129,
      "ins": 1130,
      "taken": 1131,
      "sm": 1132,
      "##port": 1133,
      "Michael": 1134,
      "##ote": 1135,
      "##ict": 1136,
      "present": 1137,
      "understand": 1138,
      "rev": 1139,
      "down": 1140,
      "##vers": 1141,
      "##cond": 1142,
      "What": 1143,
      "hope": 1144,
      "future": 1145,
      "##cc": 1146,
      "discuss": 1147,
      "Members": 1148,
      "development": 1149,
      "world": 1150,
      "against": 1151,
      "ke": 1152,
      "Secretary": 1153,
      "##ced": 1154,
      "lead": 1155,
      "differ": 1156,
      "##ism": 1157,
      "issues": 1158,
      "ent": 1159,
      "economic": 1160,
      "cap": 1161,
      "protect": 1162,
      "industry": 1163,
      "##pect": 1164,
      "##he": 1165,
      "##roup": 1166,
      "##ruct": 1167,
      "det": 1168,
      "meas": 1169,
      "redu": 1170,
      "##other": 1171,
      "##ves": 1172,
      "fe": 1173,
      "##aj": 1174,
      "sim": 1175,
      "supp": 1176,
      "result": 1177,
      "position": 1178,
      "month": 1179,
      "##omet": 1180,
      "compan": 1181,
      "##gy": 1182,
      "CanadaParliament": 1183,
      "##ases": 1184,
      "##ants": 1185,
      "##ately": 1186,
      "##ibility": 1187,
      "Ire": 1188,
      "Ireland": 1189,
      "follow": 1190,
      "impro": 1191,
      "De": 1192,
      "For": 1193,
      "ann": 1194,
      "Nor": 1195,
      "##Zealand": 1196,
      "NewZealand": 1197,
      "NewZealandParliament": 1198,
      "##tern": 1199,
      "talk": 1200,
      "deli": 1201,
      "able": 1202,
      "##ather": 1203,
      "represent": 1204,
      "##ork": 1205,
      "might": 1206,
      "##man": 1207,
      "##fric": 1208,
      "mark": 1209,
      "An": 1210,
      "areas": 1211,
      "including": 1212,
      "##ability": 1213,
      "##ull": 1214,
      "##hn": 1215,
      "contrib": 1216,
      "intro": 1217,
      "available": 1218,
      "##ances": 1219,
      "information": 1220,
      "priv": 1221,
      "scheme": 1222,
      "##reed": 1223,
      "13": 1224,
      "invol": 1225,
      "continue": 1226,
      "op": 1227,
      "id": 1228,
      "fac": 1229,
      "##ph": 1230,
      "True": 1231,
      "difficult": 1232,
      "min": 1233,
      "main": 1234,
      "##ted": 1235,
      "My": 1236,
      "build": 1237,
      "##ave": 1238,
      "Con": 1239,
      "15": 1240,
      "offic": 1241,
      "aw": 1242,
      "social": 1243,
      "committee": 1244,
      "John": 1245,
      "Mc": 1246,
      "##unities": 1247,
      "On": 1248,
      "14": 1249,
      "18": 1250,
      "within": 1251,
      "ret": 1252,
      "three": 1253,
      "accept": 1254,
      "course": 1255,
      "Part": 1256,
      "16": 1257,
      "17": 1258,
      "25": 1259,
      "find": 1260,
      "bas": 1261,
      "address": 1262,
      "hous": 1263,
      "possible": 1264,
      "comple": 1265,
      "##entlem": 1266,
      "##ajor": 1267,
      "reason": 1268,
      "international": 1269,
      "both": 1270,
      "##isions": 1271,
      "increase": 1272,
      "par": 1273,
      "somet": 1274,
      "Le": 1275,
      "chang": 1276,
      "Al": 1277,
      "27": 1278,
      "week": 1279,
      "prom": 1280,
      "change": 1281,
      "inf": 1282,
      "direct": 1283,
      "24": 1284,
      "cor": 1285,
      "necess": 1286,
      "exper": 1287,
      "sure": 1288,
      "##ready": 1289,
      "constitu": 1290,
      "produ": 1291,
      "wr": 1292,
      "budget": 1293,
      "opportunity": 1294,
      "organ": 1295,
      "proper": 1296,
      "Brit": 1297,
      "##arge": 1298,
      "26": 1299,
      "##ock": 1300,
      "Fin": 1301,
      "##imes": 1302,
      "##idence": 1303,
      "group": 1304,
      "##sw": 1305,
      "##entleman": 1306,
      "##lig": 1307,
      "##ealth": 1308,
      "##ody": 1309,
      "already": 1310,
      "##come": 1311,
      "##han": 1312,
      "28": 1313,
      "##uman": 1314,
      "##pr": 1315,
      "working": 1316,
      "amendment": 1317,
      "colle": 1318,
      "countries": 1319,
      "Prime": 1320,
      "##min": 1321,
      "##gin": 1322,
      "better": 1323,
      "Will": 1324,
      "##onment": 1325,
      "##ablish": 1326,
      "##aid": 1327,
      "situation": 1328,
      "21": 1329,
      "needs": 1330,
      "##ising": 1331,
      "Commission": 1332,
      "23": 1333,
      "sector": 1334,
      "forward": 1335,
      "Gentleman": 1336,
      "22": 1337,
      "happen": 1338,
      "##ancial": 1339,
      "funding": 1340,
      "##ards": 1341,
      "next": 1342,
      "still": 1343,
      "##ogn": 1344,
      "pass": 1345,
      "education": 1346,
      "project": 1347,
      "establish": 1348,
      "##vir": 1349,
      "market": 1350,
      "##ivid": 1351,
      "##pposition": 1352,
      "without": 1353,
      "##ually": 1354,
      "small": 1355,
      "##ional": 1356,
      "European": 1357,
      "party": 1358,
      "##mm": 1359,
      "land": 1360,
      "wom": 1361,
      "##ft": 1362,
      "mot": 1363,
      "major": 1364,
      "val": 1365,
      "sur": 1366,
      "list": 1367,
      "##ential": 1368,
      "##inc": 1369,
      "##emp": 1370,
      "gu": 1371,
      "decision": 1372,
      "##vironment": 1373,
      "making": 1374,
      "review": 1375,
      "##ggest": 1376,
      "##ges": 1377,
      "since": 1378,
      "recogn": 1379,
      "National": 1380,
      "##oung": 1381,
      "med": 1382,
      "suggest": 1383,
      "another": 1384,
      "applic": 1385,
      "##ese": 1386,
      "serious": 1387,
      "##orts": 1388,
      "When": 1389,
      "doing": 1390,
      "move": 1391,
      "account": 1392,
      "occ": 1393,
      "##par": 1394,
      "grow": 1395,
      "minister": 1396,
      "answ": 1397,
      "past": 1398,
      "Labour": 1399,
      "tra": 1400,
      "try": 1401,
      "##ality": 1402,
      "##iod": 1403,
      "detail": 1404,
      "beh": 1405,
      "##aff": 1406,
      "political": 1407,
      "during": 1408,
      "inst": 1409,
      "addition": 1410,
      "196": 1411,
      "having": 1412,
      "##ience": 1413,
      "##ired": 1414,
      "202": 1415,
      "##ife": 1416,
      "economy": 1417,
      "things": 1418,
      "equ": 1419,
      "rest": 1420,
      "Li": 1421,
      "##ract": 1422,
      "examp": 1423,
      "Or": 1424,
      "stud": 1425,
      "authorities": 1426,
      "exist": 1427,
      "##chie": 1428,
      "cre": 1429,
      "shall": 1430,
      "##olog": 1431,
      "terms": 1432,
      "assist": 1433,
      "29": 1434,
      "too": 1435,
      "##ration": 1436,
      "##ending": 1437,
      "##utions": 1438,
      "bring": 1439,
      "##ness": 1440,
      "##atives": 1441,
      "let": 1442,
      "##ech": 1443,
      "wish": 1444,
      "30": 1445,
      "##ER": 1446,
      "fr": 1447,
      "saf": 1448,
      "Do": 1449,
      "period": 1450,
      "concerned": 1451,
      "second": 1452,
      "spec": 1453,
      "pract": 1454,
      "something": 1455,
      "financial": 1456,
      "But": 1457,
      "Pro": 1458,
      "##aining": 1459,
      "young": 1460,
      "achie": 1461,
      "ear": 1462,
      "cond": 1463,
      "Cons": 1464,
      "suc": 1465,
      "So": 1466,
      "implement": 1467,
      "amount": 1468,
      "##ived": 1469,
      "regul": 1470,
      "peace": 1471,
      "action": 1472,
      "##ences": 1473,
      "particularly": 1474,
      "best": 1475,
      "thank": 1476,
      "each": 1477,
      "home": 1478,
      "##mb": 1479,
      "##ix": 1480,
      "Zealand": 1481,
      "##ient": 1482,
      "##osp": 1483,
      "access": 1484,
      "##ought": 1485,
      "cut": 1486,
      "commit": 1487,
      "few": 1488,
      "simp": 1489,
      "##irc": 1490,
      "aware": 1491,
      "form": 1492,
      "##olution": 1493,
      "##self": 1494,
      "benefit": 1495,
      "human": 1496,
      "##ner": 1497,
      "rights": 1498,
      "across": 1499,
      "Ind": 1500,
      "signific": 1501,
      "women": 1502,
      "##ten": 1503,
      "schools": 1504,
      "full": 1505,
      "security": 1506,
      "provided": 1507,
      "##ources": 1508,
      "power": 1509,
      "At": 1510,
      "individ": 1511,
      "consult": 1512,
      "##ension": 1513,
      "##ways": 1514,
      "dist": 1515,
      "means": 1516,
      "necessary": 1517,
      "##acy": 1518,
      "Health": 1519,
      "used": 1520,
      "answer": 1521,
      "expect": 1522,
      "word": 1523,
      "around": 1524,
      "##isation": 1525,
      "##ages": 1526,
      "##gu": 1527,
      "##itions": 1528,
      "jobs": 1529,
      "##agement": 1530,
      "##ilities": 1531,
      "##ansard": 1532,
      "months": 1533,
      "provision": 1534,
      "Party": 1535,
      "Ar": 1536,
      "hand": 1537,
      "##allen": 1538,
      "##ended": 1539,
      "##frica": 1540,
      "programme": 1541,
      "##alf": 1542,
      "cla": 1543,
      "farm": 1544,
      "##itted": 1545,
      "start": 1546,
      "##less": 1547,
      "##ocr": 1548,
      "stat": 1549,
      "##ably": 1550,
      "dra": 1551,
      "less": 1552,
      "##ton": 1553,
      "improve": 1554,
      "different": 1555,
      "colleag": 1556,
      "Off": 1557,
      "Mar": 1558,
      "nor": 1559,
      "##aps": 1560,
      "Pe": 1561,
      "##oy": 1562,
      "##gether": 1563,
      "##lus": 1564,
      "ple": 1565,
      "billion": 1566,
      "war": 1567,
      "rate": 1568,
      "example": 1569,
      "measures": 1570,
      "fig": 1571,
      "approach": 1572,
      "prof": 1573,
      "##ics": 1574,
      "problems": 1575,
      "show": 1576,
      "significant": 1577,
      "##Hansard": 1578,
      "ele": 1579,
      "recomm": 1580,
      "AustraliaHansard": 1581,
      "current": 1582,
      "adm": 1583,
      "neg": 1584,
      "##pri": 1585,
      "Gener": 1586,
      "##rol": 1587,
      "private": 1588,
      "section": 1589,
      "mention": 1590,
      "Pres": 1591,
      "##ley": 1592,
      "fail": 1593,
      "housing": 1594,
      "##ling": 1595,
      "##imin": 1596,
      "previous": 1597,
      "progress": 1598,
      "##uc": 1599,
      "##incip": 1600,
      "Qu": 1601,
      "tell": 1602,
      "arr": 1603,
      "open": 1604,
      "read": 1605,
      "195": 1606,
      "staff": 1607,
      "##omes": 1608,
      "whole": 1609,
      "ph": 1610,
      "ur": 1611,
      "require": 1612,
      "Fr": 1613,
      "##ale": 1614,
      "##ged": 1615,
      "rele": 1616,
      "##inist": 1617,
      "##ises": 1618,
      "##chn": 1619,
      "##thing": 1620,
      "while": 1621,
      "##fer": 1622,
      "short": 1623,
      "role": 1624,
      "cases": 1625,
      "##atic": 1626,
      "##ified": 1627,
      "Ex": 1628,
      "##iety": 1629,
      "##ont": 1630,
      "success": 1631,
      "crit": 1632,
      "basis": 1633,
      "Conserv": 1634,
      "hear": 1635,
      "##oss": 1636,
      "abs": 1637,
      "welcome": 1638,
      "##ceed": 1639,
      "princip": 1640,
      "General": 1641,
      "authority": 1642,
      "general": 1643,
      "income": 1644,
      "char": 1645,
      "##ao": 1646,
      "fair": 1647,
      "##iation": 1648,
      "##wh": 1649,
      "challen": 1650,
      "life": 1651,
      "families": 1652,
      "Hon": 1653,
      "##ivers": 1654,
      "tot": 1655,
      "strong": 1656,
      "recent": 1657,
      "speak": 1658,
      "purp": 1659,
      "investment": 1660,
      "claim": 1661,
      "##ify": 1662,
      "##ann": 1663,
      "remain": 1664,
      "##ys": 1665,
      "agreement": 1666,
      "employment": 1667,
      "init": 1668,
      "impact": 1669,
      "speech": 1670,
      "circ": 1671,
      "##ters": 1672,
      "ago": 1673,
      "##selves": 1674,
      "together": 1675,
      "##oub": 1676,
      "involved": 1677,
      "##eed": 1678,
      "##duced": 1679,
      "council": 1680,
      "enc": 1681,
      "##ried": 1682,
      "taking": 1683,
      "##ership": 1684,
      "And": 1685,
      "##up": 1686,
      "Nations": 1687,
      "record": 1688,
      "received": 1689,
      "term": 1690,
      "road": 1691,
      "paid": 1692,
      "motion": 1693,
      "##ilit": 1694,
      "##enn": 1695,
      "prior": 1696,
      "British": 1697,
      "subject": 1698,
      "responsibility": 1699,
      "workers": 1700,
      "never": 1701,
      "##til": 1702,
      "vi": 1703,
      "your": 1704,
      "These": 1705,
      "##road": 1706,
      "##eral": 1707,
      "##irm": 1708,
      "##iving": 1709,
      "met": 1710,
      "suff": 1711,
      "trade": 1712,
      "deter": 1713,
      "matters": 1714,
      "bl": 1715,
      "eng": 1716,
      "always": 1717,
      "Opposition": 1718,
      "changes": 1719,
      "agreed": 1720,
      "sen": 1721,
      "vis": 1722,
      "imm": 1723,
      "##airs": 1724,
      "##lied": 1725,
      "##loyment": 1726,
      "rather": 1727,
      "Canadians": 1728,
      "2006": 1729,
      "proposed": 1730,
      "seem": 1731,
      "relation": 1732,
      "quite": 1733,
      "effective": 1734,
      "tar": 1735,
      "##hold": 1736,
      "family": 1737,
      "saying": 1738,
      "193": 1739,
      "##wards": 1740,
      "2008": 1741,
      "##lain": 1742,
      "##ames": 1743,
      "communities": 1744,
      "const": 1745,
      "compet": 1746,
      "To": 1747,
      "##epend": 1748,
      "special": 1749,
      "seek": 1750,
      "##haps": 1751,
      "mod": 1752,
      "pat": 1753,
      "keep": 1754,
      "free": 1755,
      "Pat": 1756,
      "ve": 1757,
      "four": 1758,
      "treat": 1759,
      "##ees": 1760,
      "Rep": 1761,
      "##ergy": 1762,
      "based": 1763,
      "##aged": 1764,
      "Liber": 1765,
      "specific": 1766,
      "hosp": 1767,
      "thing": 1768,
      "##ittle": 1769,
      "States": 1770,
      "##itive": 1771,
      "##iting": 1772,
      "##ird": 1773,
      "heard": 1774,
      "Serv": 1775,
      "Man": 1776,
      "raised": 1777,
      "indic": 1778,
      "##itor": 1779,
      "found": 1780,
      "ris": 1781,
      "##used": 1782,
      "deliver": 1783,
      "appropri": 1784,
      "resources": 1785,
      "environment": 1786,
      "Scott": 1787,
      "lot": 1788,
      "One": 1789,
      "Count": 1790,
      "##ell": 1791,
      "##ison": 1792,
      "seen": 1793,
      "##ily": 1794,
      "strate": 1795,
      "large": 1796,
      "##vant": 1797,
      "##iate": 1798,
      "object": 1799,
      "companies": 1800,
      "grant": 1801,
      "line": 1802,
      "old": 1803,
      "var": 1804,
      "play": 1805,
      "lim": 1806,
      "President": 1807,
      "Co": 1808,
      "##though": 1809,
      "##ivil": 1810,
      "step": 1811,
      "terr": 1812,
      "May": 1813,
      "questions": 1814,
      "##ued": 1815,
      "costs": 1816,
      "really": 1817,
      "techn": 1818,
      "run": 1819,
      "##mber": 1820,
      "reform": 1821,
      "Ag": 1822,
      "Ad": 1823,
      "##ully": 1824,
      "office": 1825,
      "2005": 1826,
      "five": 1827,
      "2003": 1828,
      "activ": 1829,
      "therefore": 1830,
      "little": 1831,
      "affect": 1832,
      "##empt": 1833,
      "recommend": 1834,
      "##sequ": 1835,
      "election": 1836,
      "EU": 1837,
      "##thern": 1838,
      "encour": 1839,
      "doub": 1840,
      "referred": 1841,
      "post": 1842,
      "parliament": 1843,
      "##ned": 1844,
      "disp": 1845,
      "proposals": 1846,
      "2004": 1847,
      "##thers": 1848,
      "following": 1849,
      "police": 1850,
      "##gth": 1851,
      "hard": 1852,
      "##ructure": 1853,
      "2000": 1854,
      "All": 1855,
      "yet": 1856,
      "##leg": 1857,
      "nothing": 1858,
      "required": 1859,
      "evidence": 1860,
      "got": 1861,
      "##lan": 1862,
      "194": 1863,
      "arrange": 1864,
      "prepar": 1865,
      "least": 1866,
      "commitment": 1867,
      "##body": 1868,
      "parties": 1869,
      "press": 1870,
      "unemp": 1871,
      "Australian": 1872,
      "##cu": 1873,
      "ca": 1874,
      "##hana": 1875,
      "##line": 1876,
      "instit": 1877,
      "##ON": 1878,
      "hold": 1879,
      "others": 1880,
      "told": 1881,
      "lear": 1882,
      "Chair": 1883,
      "2007": 1884,
      "##ensive": 1885,
      "increased": 1886,
      "Finance": 1887,
      "amendments": 1888,
      "cred": 1889,
      "meeting": 1890,
      "kind": 1891,
      "Dub": 1892,
      "##ulation": 1893,
      "##ury": 1894,
      "argu": 1895,
      "times": 1896,
      "teach": 1897,
      "date": 1898,
      "additional": 1899,
      "##ines": 1900,
      "County": 1901,
      "appoint": 1902,
      "Ms": 1903,
      "##asing": 1904,
      "building": 1905,
      "##akes": 1906,
      "mean": 1907,
      "##ert": 1908,
      "##rought": 1909,
      "##uge": 1910,
      "independ": 1911,
      "control": 1912,
      "##ov": 1913,
      "Does": 1914,
      "Scottish": 1915,
      "product": 1916,
      "Just": 1917,
      "jud": 1918,
      "Sh": 1919,
      "##onse": 1920,
      "board": 1921,
      "big": 1922,
      "2001": 1923,
      "##uties": 1924,
      "appropriate": 1925,
      "Dr": 1926,
      "viol": 1927,
      "##ah": 1928,
      "Dublin": 1929,
      "exam": 1930,
      "##arm": 1931,
      "es": 1932,
      "company": 1933,
      "North": 1934,
      "Pa": 1935,
      "Ghana": 1936,
      "actually": 1937,
      "##olute": 1938,
      "vote": 1939,
      "##stances": 1940,
      "Cl": 1941,
      "assess": 1942,
      "circum": 1943,
      "side": 1944,
      "##ists": 1945,
      "##equ": 1946,
      "bre": 1947,
      "nat": 1948,
      "el": 1949,
      "cover": 1950,
      "response": 1951,
      "express": 1952,
      "legal": 1953,
      "##rast": 1954,
      "pension": 1955,
      "non": 1956,
      "called": 1957,
      "##itiz": 1958,
      "feel": 1959,
      "leave": 1960,
      "simply": 1961,
      "mentioned": 1962,
      "##fare": 1963,
      "mind": 1964,
      "##ours": 1965,
      "ScotlandParliament": 1966,
      "Quest": 1967,
      "West": 1968,
      "target": 1969,
      "##orate": 1970,
      "until": 1971,
      "enough": 1972,
      "Order": 1973,
      "##ering": 1974,
      "dri": 1975,
      "certainly": 1976,
      "management": 1977,
      "fl": 1978,
      "days": 1979,
      "##earch": 1980,
      "mar": 1981,
      "official": 1982,
      "water": 1983,
      "businesses": 1984,
      "house": 1985,
      "##ession": 1986,
      "concerns": 1987,
      "vot": 1988,
      "##side": 1989,
      "details": 1990,
      "##sh": 1991,
      "away": 1992,
      "Let": 1993,
      "##rict": 1994,
      "plac": 1995,
      "##ither": 1996,
      "initi": 1997,
      "##ney": 1998,
      "##urance": 1999,
      "pub": 2000,
      "ide": 2001,
      "rul": 2002,
      "training": 2003,
      "coming": 2004,
      "##unic": 2005,
      "With": 2006,
      "constituency": 2007,
      "brought": 2008,
      "contract": 2009,
      "particip": 2010,
      "##light": 2011,
      "society": 2012,
      "live": 2013,
      "Union": 2014,
      "become": 2015,
      "absolute": 2016,
      "growth": 2017,
      "##ically": 2018,
      "enter": 2019,
      "total": 2020,
      "2002": 2021,
      "capital": 2022,
      "efforts": 2023,
      "hist": 2024,
      "##ledge": 2025,
      "attention": 2026,
      "civil": 2027,
      "Ministers": 2028,
      "foc": 2029,
      "circumstances": 2030,
      "trying": 2031,
      "##by": 2032,
      "Bo": 2033,
      "##aoise": 2034,
      "Bar": 2035,
      "##vention": 2036,
      "often": 2037,
      "Eng": 2038,
      "democr": 2039,
      "##ober": 2040,
      "negot": 2041,
      "##omp": 2042,
      "close": 2043,
      "Am": 2044,
      "ident": 2045,
      "getting": 2046,
      "wa": 2047,
      "Dav": 2048,
      "##encies": 2049,
      "came": 2050,
      "wrong": 2051,
      "achieve": 2052,
      "themselves": 2053,
      "##ecut": 2054,
      "introduced": 2055,
      "##app": 2056,
      "provisions": 2057,
      "conditions": 2058,
      "says": 2059,
      "Canadian": 2060,
      "Que": 2061,
      "##ield": 2062,
      "return": 2063,
      "due": 2064,
      "considered": 2065,
      "##aoiseach": 2066,
      "test": 2067,
      "Soc": 2068,
      "Taoiseach": 2069,
      "pot": 2070,
      "subm": 2071,
      "accord": 2072,
      "##kill": 2073,
      "##reen": 2074,
      "##rick": 2075,
      "head": 2076,
      "thought": 2077,
      "low": 2078,
      "rates": 2079,
      "##fact": 2080,
      "sol": 2081,
      "##ingle": 2082,
      "##rupt": 2083,
      "##urs": 2084,
      "##owers": 2085,
      "operation": 2086,
      "##son": 2087,
      "pop": 2088,
      "relations": 2089,
      "regional": 2090,
      "prim": 2091,
      "Office": 2092,
      "adop": 2093,
      "oppos": 2094,
      "age": 2095,
      "##na": 2096,
      "stage": 2097,
      "##arlier": 2098,
      "currently": 2099,
      "towards": 2100,
      "living": 2101,
      "##eign": 2102,
      "publish": 2103,
      "price": 2104,
      "extra": 2105,
      "turn": 2106,
      "##ier": 2107,
      "reach": 2108,
      "camp": 2109,
      "assistance": 2110,
      "energy": 2111,
      "##lay": 2112,
      "value": 2113,
      "individual": 2114,
      "clos": 2115,
      "commission": 2116,
      "introdu": 2117,
      "##ept": 2118,
      "First": 2119,
      "##rial": 2120,
      "mom": 2121,
      "broad": 2122,
      "talking": 2123,
      "citiz": 2124,
      "##iture": 2125,
      "conflic": 2126,
      "consideration": 2127,
      "decisions": 2128,
      "subst": 2129,
      "interests": 2130,
      "farmers": 2131,
      "investig": 2132,
      "listen": 2133,
      "complete": 2134,
      "##att": 2135,
      "words": 2136,
      "ord": 2137,
      "##most": 2138,
      "greater": 2139,
      "benefits": 2140,
      "sat": 2141,
      "##ection": 2142,
      "docu": 2143,
      "##ured": 2144,
      "third": 2145,
      "apply": 2146,
      "nation": 2147,
      "alloc": 2148,
      "cho": 2149,
      "protection": 2150,
      "ty": 2151,
      "1998": 2152,
      "among": 2153,
      "##ands": 2154,
      "po": 2155,
      "##ext": 2156,
      "opt": 2157,
      "risk": 2158,
      "1999": 2159,
      "##ental": 2160,
      "##ule": 2161,
      "key": 2162,
      "##be": 2163,
      "clause": 2164,
      "experience": 2165,
      "early": 2166,
      "took": 2167,
      "recently": 2168,
      "##ash": 2169,
      "##isis": 2170,
      "##ology": 2171,
      "figures": 2172,
      "Security": 2173,
      "request": 2174,
      "clearly": 2175,
      "proceed": 2176,
      "application": 2177,
      "sent": 2178,
      "##use": 2179,
      "31": 2180,
      "##ided": 2181,
      "share": 2182,
      "sever": 2183,
      "fish": 2184,
      "plans": 2185,
      "comes": 2186,
      "##ester": 2187,
      "##know": 2188,
      "air": 2189,
      "force": 2190,
      "else": 2191,
      "purpose": 2192,
      "entit": 2193,
      "Reg": 2194,
      "six": 2195,
      "undert": 2196,
      "Res": 2197,
      "various": 2198,
      "##ecutive": 2199,
      "crisis": 2200,
      "contribution": 2201,
      "left": 2202,
      "##rec": 2203,
      "##enditure": 2204,
      "Education": 2205,
      "UN": 2206,
      "##fort": 2207,
      "upon": 2208,
      "transport": 2209,
      "##rown": 2210,
      "##ize": 2211,
      "Our": 2212,
      "region": 2213,
      "existing": 2214,
      "face": 2215,
      "##ales": 2216,
      "research": 2217,
      "responsible": 2218,
      "earlier": 2219,
      "##cially": 2220,
      "Conservative": 2221,
      "safety": 2222,
      "design": 2223,
      "potential": 2224,
      "vol": 2225,
      "East": 2226,
      "importance": 2227,
      "##reme": 2228,
      "##tic": 2229,
      "fully": 2230,
      "maintain": 2231,
      "She": 2232,
      "projects": 2233,
      "##ham": 2234,
      "won": 2235,
      "Cent": 2236,
      "##ey": 2237,
      "name": 2238,
      "##io": 2239,
      "partn": 2240,
      "offer": 2241,
      "moment": 2242,
      "Aff": 2243,
      "fun": 2244,
      "##utes": 2245,
      "##oke": 2246,
      "payment": 2247,
      "points": 2248,
      "food": 2249,
      "King": 2250,
      "makes": 2251,
      "perhaps": 2252,
      "James": 2253,
      "Service": 2254,
      "##duct": 2255,
      "Those": 2256,
      "##ared": 2257,
      "##rug": 2258,
      "Cor": 2259,
      "ever": 2260,
      "ten": 2261,
      "192": 2262,
      "threat": 2263,
      "##EA": 2264,
      "Northern": 2265,
      "committed": 2266,
      "##rength": 2267,
      "quality": 2268,
      "mor": 2269,
      "##ug": 2270,
      "Affairs": 2271,
      "context": 2272,
      "##arda": 2273,
      "ess": 2274,
      "##ederal": 2275,
      "bri": 2276,
      "Sch": 2277,
      "##imum": 2278,
      "bank": 2279,
      "rural": 2280,
      "higher": 2281,
      "weeks": 2282,
      "GhanaParliament": 2283,
      "##ctions": 2284,
      "##uly": 2285,
      "court": 2286,
      "##án": 2287,
      "##raph": 2288,
      "Cour": 2289,
      "appear": 2290,
      "however": 2291,
      "acknow": 2292,
      "men": 2293,
      "##ruction": 2294,
      "provides": 2295,
      "##ici": 2296,
      "##ator": 2297,
      "##lim": 2298,
      "Justice": 2299,
      "##ove": 2300,
      "entire": 2301,
      "lives": 2302,
      "Tre": 2303,
      "##rastructure": 2304,
      "bal": 2305,
      "single": 2306,
      "##ger": 2307,
      "strength": 2308,
      "once": 2309,
      "##acity": 2310,
      "held": 2311,
      "include": 2312,
      "class": 2313,
      "powers": 2314,
      "increasing": 2315,
      "##crib": 2316,
      "##iminal": 2317,
      "##ained": 2318,
      "groups": 2319,
      "##icient": 2320,
      "##une": 2321,
      "##vious": 2322,
      "Why": 2323,
      "crime": 2324,
      "emer": 2325,
      "prepared": 2326,
      "relevant": 2327,
      "needed": 2328,
      "ban": 2329,
      "##ev": 2330,
      "mis": 2331,
      "Bri": 2332,
      "##quir": 2333,
      "Some": 2334,
      "states": 2335,
      "persons": 2336,
      "anything": 2337,
      "sust": 2338,
      "hospital": 2339,
      "prevent": 2340,
      "defin": 2341,
      "parents": 2342,
      "##pecially": 2343,
      "##avour": 2344,
      "providing": 2345,
      "Kitt": 2346,
      "##ium": 2347,
      "raise": 2348,
      "arrangements": 2349,
      "##atch": 2350,
      "##ump": 2351,
      "##aign": 2352,
      "##Africa": 2353,
      "Mart": 2354,
      "trad": 2355,
      "determin": 2356,
      "Ass": 2357,
      "proposal": 2358,
      "unemployment": 2359,
      "SouthAfrica": 2360,
      "##ides": 2361,
      "although": 2362,
      "established": 2363,
      "former": 2364,
      "looking": 2365,
      "appeal": 2366,
      "##atory": 2367,
      "went": 2368,
      "longer": 2369,
      "satis": 2370,
      "##co": 2371,
      "##den": 2372,
      "planning": 2373,
      "colleagues": 2374,
      "almost": 2375,
      "David": 2376,
      "##fully": 2377,
      "##bal": 2378,
      "especially": 2379,
      "##iding": 2380,
      "glo": 2381,
      "eas": 2382,
      "policies": 2383,
      "##oration": 2384,
      "Deputies": 2385,
      "dev": 2386,
      "net": 2387,
      "substant": 2388,
      "organis": 2389,
      "absolutely": 2390,
      "##lies": 2391,
      "Africa": 2392,
      "throughout": 2393,
      "advice": 2394,
      "dealing": 2395,
      "Liberal": 2396,
      "justice": 2397,
      "Jan": 2398,
      "campaign": 2399,
      "##ulture": 2400,
      "Per": 2401,
      "respond": 2402,
      "citizens": 2403,
      "##the": 2404,
      "McG": 2405,
      "credit": 2406,
      "##ford": 2407,
      "univers": 2408,
      "##issions": 2409,
      "Social": 2410,
      "##dom": 2411,
      "##ars": 2412,
      "##ination": 2413,
      "Chr": 2414,
      "expenditure": 2415,
      "begin": 2416,
      "##spect": 2417,
      "trust": 2418,
      "Martin": 2419,
      "##ead": 2420,
      "proced": 2421,
      "Seán": 2422,
      "giving": 2423,
      "strategy": 2424,
      "spending": 2425,
      "##cise": 2426,
      "negoti": 2427,
      "announc": 2428,
      "safe": 2429,
      "medical": 2430,
      "ground": 2431,
      "##bec": 2432,
      "Mad": 2433,
      "primary": 2434,
      "##ification": 2435,
      "either": 2436,
      "agric": 2437,
      "reasons": 2438,
      "##ony": 2439,
      "doubt": 2440,
      "##cent": 2441,
      "bor": 2442,
      "behalf": 2443,
      "lack": 2444,
      "Budget": 2445,
      "consequ": 2446,
      "##tion": 2447,
      "Rich": 2448,
      "estim": 2449,
      "knows": 2450,
      "students": 2451,
      "##pay": 2452,
      "occas": 2453,
      "receive": 2454,
      "later": 2455,
      "colleague": 2456,
      "reflect": 2457,
      "lic": 2458,
      "focus": 2459,
      "drug": 2460,
      "##ilar": 2461,
      "##ators": 2462,
      "##iven": 2463,
      "##venue": 2464,
      "essential": 2465,
      "sense": 2466,
      "You": 2467,
      "skill": 2468,
      "Court": 2469,
      "recommendations": 2470,
      "create": 2471,
      "##itting": 2472,
      "Col": 2473,
      "seems": 2474,
      "##cell": 2475,
      "capacity": 2476,
      "Labor": 2477,
      "##force": 2478,
      "Dece": 2479,
      "Public": 2480,
      "infrastructure": 2481,
      "independent": 2482,
      "##gency": 2483,
      "carry": 2484,
      "Question": 2485,
      "##eration": 2486,
      "Amend": 2487,
      "afford": 2488,
      "lab": 2489,
      "standards": 2490,
      "##ister": 2491,
      "##dra": 2492,
      "reduce": 2493,
      "poor": 2494,
      "terror": 2495,
      "qual": 2496,
      "1990": 2497,
      "outside": 2498,
      "##ims": 2499,
      "##ins": 2500,
      "apprec": 2501,
      "Trans": 2502,
      "##AT": 2503,
      "range": 2504,
      "##go": 2505,
      "practice": 2506,
      "immed": 2507,
      "spent": 2508,
      "consultation": 2509,
      "##ulate": 2510,
      "welfare": 2511,
      "Don": 2512,
      "organisations": 2513,
      "half": 2514,
      "1991": 2515,
      "itself": 2516,
      "Def": 2517,
      "note": 2518,
      "Of": 2519,
      "Lead": 2520,
      "##lex": 2521,
      "federal": 2522,
      "##enny": 2523,
      "##lief": 2524,
      "schemes": 2525,
      "##orm": 2526,
      "measure": 2527,
      "debt": 2528,
      "constituents": 2529,
      "announced": 2530,
      "oblig": 2531,
      "Har": 2532,
      "implementation": 2533,
      "##ief": 2534,
      "chair": 2535,
      "Mor": 2536,
      "whom": 2537,
      "brief": 2538,
      "payments": 2539,
      "conflict": 2540,
      "##ends": 2541,
      "opportunities": 2542,
      "vict": 2543,
      "Local": 2544,
      "happened": 2545,
      "dom": 2546,
      "sett": 2547,
      "funds": 2548,
      "1993": 2549,
      "While": 2550,
      "common": 2551,
      "lost": 2552,
      "views": 2553,
      "##velopment": 2554,
      "inquir": 2555,
      "published": 2556,
      "regarding": 2557,
      "rise": 2558,
      "allowed": 2559,
      "1988": 2560,
      "##anding": 2561,
      "near": 2562,
      "correct": 2563,
      "##egr": 2564,
      "aver": 2565,
      "indeed": 2566,
      "final": 2567,
      "Garda": 2568,
      "##limate": 2569,
      "Inter": 2570,
      "levels": 2571,
      "##ondon": 2572,
      "integr": 2573,
      "aspect": 2574,
      "majority": 2575,
      "population": 2576,
      "repe": 2577,
      "goes": 2578,
      "tre": 2579,
      "##aging": 2580,
      "extreme": 2581,
      "March": 2582,
      "##ats": 2583,
      "London": 2584,
      "bad": 2585,
      "Defence": 2586,
      "personal": 2587,
      "stated": 2588,
      "##ultural": 2589,
      "##erve": 2590,
      "##NP": 2591,
      "dr": 2592,
      "Child": 2593,
      "violence": 2594,
      "Board": 2595,
      "resolution": 2596,
      "positive": 2597,
      "assoc": 2598,
      "##sp": 2599,
      "Madam": 2600,
      "##inary": 2601,
      "city": 2602,
      "1996": 2603,
      "##ients": 2604,
      "##amber": 2605,
      "regulations": 2606,
      "administ": 2607,
      "##artments": 2608,
      "##lling": 2609,
      "Patrick": 2610,
      "##uses": 2611,
      "##head": 2612,
      "true": 2613,
      "Britain": 2614,
      "em": 2615,
      "##rew": 2616,
      "##fortun": 2617,
      "##unt": 2618,
      "##arant": 2619,
      "Quebec": 2620,
      "##AR": 2621,
      "congr": 2622,
      "##uel": 2623,
      "##com": 2624,
      "##esterday": 2625,
      "##acht": 2626,
      "##amew": 2627,
      "Afric": 2628,
      "##where": 2629,
      "along": 2630,
      "1989": 2631,
      "pleased": 2632,
      "Mac": 2633,
      "conduct": 2634,
      "activities": 2635,
      "foreign": 2636,
      "rules": 2637,
      "##ging": 2638,
      "Kingdom": 2639,
      "exc": 2640,
      "ce": 2641,
      "##uals": 2642,
      "duty": 2643,
      "hours": 2644,
      "department": 2645,
      "consum": 2646,
      "1995": 2647,
      "##erson": 2648,
      "##lusion": 2649,
      "Ger": 2650,
      "delay": 2651,
      "supply": 2652,
      "##af": 2653,
      "##az": 2654,
      "wants": 2655,
      "loss": 2656,
      "Sy": 2657,
      "##ender": 2658,
      "conv": 2659,
      "perform": 2660,
      "challenges": 2661,
      "##oud": 2662,
      "light": 2663,
      "facilities": 2664,
      "##ior": 2665,
      "##ively": 2666,
      "friend": 2667,
      "milit": 2668,
      "substantial": 2669,
      "Amendment": 2670,
      "fall": 2671,
      "institutions": 2672,
      "huge": 2673,
      "congrat": 2674,
      "carried": 2675,
      "global": 2676,
      "wonder": 2677,
      "##imately": 2678,
      "history": 2679,
      "ill": 2680,
      "##ains": 2681,
      "##prise": 2682,
      "##oses": 2683,
      "Sm": 2684,
      "##lands": 2685,
      "mid": 2686,
      "ori": 2687,
      "reply": 2688,
      "reports": 2689,
      "worth": 2690,
      "1997": 2691,
      "Many": 2692,
      "##abled": 2693,
      "soon": 2694,
      "##yn": 2695,
      "SP": 2696,
      "sustain": 2697,
      "recognise": 2698,
      "percent": 2699,
      "Second": 2700,
      "perm": 2701,
      "comments": 2702,
      "similar": 2703,
      "top": 2704,
      "town": 2705,
      "subs": 2706,
      "homes": 2707,
      "attack": 2708,
      "aid": 2709,
      "likely": 2710,
      "attempt": 2711,
      "average": 2712,
      "remember": 2713,
      "principle": 2714,
      "##meric": 2715,
      "1994": 2716,
      "purs": 2717,
      "supplied": 2718,
      "confidence": 2719,
      "Governments": 2720,
      "related": 2721,
      "##uary": 2722,
      "##ata": 2723,
      "Leader": 2724,
      "numbers": 2725,
      "##reh": 2726,
      "treatment": 2727,
      "Americ": 2728,
      "##onst": 2729,
      "trib": 2730,
      "##rate": 2731,
      "Development": 2732,
      "Richard": 2733,
      "December": 2734,
      "##ets": 2735,
      "##amework": 2736,
      "##pite": 2737,
      "property": 2738,
      "exact": 2739,
      "explain": 2740,
      "June": 2741,
      "##ban": 2742,
      "confirm": 2743,
      "##overty": 2744,
      "individuals": 2745,
      "don": 2746,
      "Environment": 2747,
      "##uing": 2748,
      "1992": 2749,
      "conn": 2750,
      "App": 2751,
      "decided": 2752,
      "prices": 2753,
      "remark": 2754,
      "resol": 2755,
      "SNP": 2756,
      "Under": 2757,
      "led": 2758,
      "##arian": 2759,
      "officers": 2760,
      "tele": 2761,
      "idea": 2762,
      "encourage": 2763,
      "bar": 2764,
      "favour": 2765,
      "##SE": 2766,
      "document": 2767,
      "##ask": 2768,
      "gone": 2769,
      "provin": 2770,
      "Bl": 2771,
      "honour": 2772,
      "##eb": 2773,
      "dam": 2774,
      "##inn": 2775,
      "##gest": 2776,
      "dang": 2777,
      "passed": 2778,
      "##KER": 2779,
      "industrial": 2780,
      "Mary": 2781,
      "parliamentary": 2782,
      "##utory": 2783,
      "##rection": 2784,
      "opposition": 2785,
      "##arily": 2786,
      "##idents": 2787,
      "##angu": 2788,
      "##ization": 2789,
      "Su": 2790,
      "ren": 2791,
      "##itable": 2792,
      "join": 2793,
      "##sec": 2794,
      "stop": 2795,
      "##ined": 2796,
      "steps": 2797,
      "sl": 2798,
      "##atever": 2799,
      "##osed": 2800,
      "##isc": 2801,
      "##aper": 2802,
      "dest": 2803,
      "ensuring": 2804,
      "prison": 2805,
      "taxpay": 2806,
      "bit": 2807,
      "asse": 2808,
      "forces": 2809,
      "##ron": 2810,
      "##ude": 2811,
      "Community": 2812,
      "nature": 2813,
      "##lace": 2814,
      "comment": 2815,
      "##oup": 2816,
      "county": 2817,
      "insurance": 2818,
      "guarant": 2819,
      "body": 2820,
      "reduction": 2821,
      "coal": 2822,
      "##aving": 2823,
      "##IN": 2824,
      "obvious": 2825,
      "##ghan": 2826,
      "##ina": 2827,
      "loc": 2828,
      "##work": 2829,
      "cuts": 2830,
      "places": 2831,
      "transfer": 2832,
      "probably": 2833,
      "discussion": 2834,
      "quick": 2835,
      "collect": 2836,
      "##ustom": 2837,
      "gave": 2838,
      "remind": 2839,
      "Wor": 2840,
      "##ized": 2841,
      "difficulties": 2842,
      "ways": 2843,
      "entitled": 2844,
      "figure": 2845,
      "affected": 2846,
      "##IS": 2847,
      "##med": 2848,
      "parts": 2849,
      "climate": 2850,
      "sum": 2851,
      "##uck": 2852,
      "fundament": 2853,
      "mult": 2854,
      "poverty": 2855,
      "houses": 2856,
      "##ommod": 2857,
      "known": 2858,
      "whose": 2859,
      "Not": 2860,
      "Intern": 2861,
      "military": 2862,
      "origin": 2863,
      "Te": 2864,
      "##igration": 2865,
      "January": 2866,
      "##ufact": 2867,
      "extent": 2868,
      "##anced": 2869,
      "directly": 2870,
      "officials": 2871,
      "except": 2872,
      "happy": 2873,
      "legisl": 2874,
      "govern": 2875,
      "withdra": 2876,
      "SPEA": 2877,
      "##aries": 2878,
      "SPEAKER": 2879,
      "works": 2880,
      "supported": 2881,
      "buy": 2882,
      "adj": 2883,
      "promot": 2884,
      "opin": 2885,
      "##ilt": 2886,
      "spoke": 2887,
      "##ring": 2888,
      "##odies": 2889,
      "##eptember": 2890,
      "##reedom": 2891,
      "rail": 2892,
      "1986": 2893,
      "##ource": 2894,
      "enable": 2895,
      "event": 2896,
      "register": 2897,
      "discussions": 2898,
      "priority": 2899,
      "September": 2900,
      "##inet": 2901,
      "##ID": 2902,
      "bur": 2903,
      "charge": 2904,
      "Bur": 2905,
      "several": 2906,
      "##mes": 2907,
      "accommod": 2908,
      "pet": 2909,
      "##ensions": 2910,
      "##ume": 2911,
      "creat": 2912,
      "People": 2913,
      "Wales": 2914,
      "commer": 2915,
      "using": 2916,
      "##stitution": 2917,
      "fight": 2918,
      "Christ": 2919,
      "1984": 2920,
      "##ires": 2921,
      "relationship": 2922,
      "wide": 2923,
      "criminal": 2924,
      "##arter": 2925,
      "prem": 2926,
      "balance": 2927,
      "agencies": 2928,
      "1985": 2929,
      "heart": 2930,
      "Law": 2931,
      "inn": 2932,
      "ap": 2933,
      "den": 2934,
      "flo": 2935,
      "yesterday": 2936,
      "solution": 2937,
      "demand": 2938,
      "someone": 2939,
      "mand": 2940,
      "defence": 2941,
      "Brian": 2942,
      "000": 2943,
      "sort": 2944,
      "##AN": 2945,
      "##gricult": 2946,
      "putting": 2947,
      "experi": 2948,
      "##imate": 2949,
      "Bank": 2950,
      "By": 2951,
      "##oot": 2952,
      "framework": 2953,
      "Apr": 2954,
      "assessment": 2955,
      "everyone": 2956,
      "##my": 2957,
      "argument": 2958,
      "##iet": 2959,
      "Agricult": 2960,
      "expected": 2961,
      "April": 2962,
      "Treas": 2963,
      "norm": 2964,
      "##of": 2965,
      "ability": 2966,
      "Dil": 2967,
      "##ounce": 2968,
      "type": 2969,
      "Pol": 2970,
      "tour": 2971,
      "manufact": 2972,
      "gl": 2973,
      "Ge": 2974,
      "behind": 2975,
      "##itz": 2976,
      "bodies": 2977,
      "banks": 2978,
      "centre": 2979,
      "select": 2980,
      "div": 2981,
      "##eries": 2982,
      "Ab": 2983,
      "##ler": 2984,
      "##abinet": 2985,
      "##order": 2986,
      "purch": 2987,
      "extremely": 2988,
      "electorate": 2989,
      "everything": 2990,
      "guid": 2991,
      "##ctober": 2992,
      "##pped": 2993,
      "High": 2994,
      "teachers": 2995,
      "langu": 2996,
      "death": 2997,
      "##lf": 2998,
      "Thank": 2999,
      "describ": 3000,
      "deep": 3001,
      "dealt": 3002,
      "coup": 3003,
      "October": 3004,
      "##bour": 3005,
      "gen": 3006,
      "##enced": 3007,
      "##ading": 3008,
      "##icial": 3009,
      "corp": 3010,
      "strengthen": 3011,
      "Sen": 3012,
      "inquiry": 3013,
      "consist": 3014,
      "reasonable": 3015,
      "link": 3016,
      "considerable": 3017,
      "table": 3018,
      "Fore": 3019,
      "Australians": 3020,
      "Central": 3021,
      "Executive": 3022,
      "##EN": 3023,
      "2020": 3024,
      "##amb": 3025,
      "included": 3026,
      "##uclear": 3027,
      "thous": 3028,
      "Her": 3029,
      "July": 3030,
      "informed": 3031,
      "wanted": 3032,
      "central": 3033,
      "Fil": 3034,
      "##mbly": 3035,
      "difference": 3036,
      "supporting": 3037,
      "1980": 3038,
      "exer": 3039,
      "##augh": 3040,
      "danger": 3041,
      "##nel": 3042,
      "##rath": 3043,
      "Foreign": 3044,
      "##rop": 3045,
      "compreh": 3046,
      "clar": 3047,
      "proud": 3048,
      "emb": 3049,
      "Therefore": 3050,
      "conclud": 3051,
      "draw": 3052,
      "self": 3053,
      "night": 3054,
      "African": 3055,
      "though": 3056,
      "worked": 3057,
      "Author": 3058,
      "##vember": 3059,
      "Mon": 3060,
      "tack": 3061,
      "labour": 3062,
      "patients": 3063,
      "##itarian": 3064,
      "properly": 3065,
      "November": 3066,
      "Peter": 3067,
      "acknowledge": 3068,
      "whatever": 3069,
      "##aster": 3070,
      "##gn": 3071,
      "exactly": 3072,
      "union": 3073,
      "##ortion": 3074,
      "##bon": 3075,
      "##enda": 3076,
      "elected": 3077,
      "##pping": 3078,
      "mess": 3079,
      "##ibly": 3080,
      "1983": 3081,
      "Paul": 3082,
      "successful": 3083,
      "Now": 3084,
      "propose": 3085,
      "programmes": 3086,
      "##estic": 3087,
      "stre": 3088,
      "Sim": 3089,
      "##liance": 3090,
      "inspect": 3091,
      "##EC": 3092,
      "##erial": 3093,
      "##hic": 3094,
      "lower": 3095,
      "Progr": 3096,
      "challenge": 3097,
      "na": 3098,
      "##ense": 3099,
      "introduce": 3100,
      "actions": 3101,
      "demonst": 3102,
      "##ished": 3103,
      "applications": 3104,
      "##DP": 3105,
      "pack": 3106,
      "annual": 3107,
      "notice": 3108,
      "skills": 3109,
      "production": 3110,
      "allowance": 3111,
      "pen": 3112,
      "satisf": 3113,
      "cause": 3114,
      "representatives": 3115,
      "Thom": 3116,
      "##uted": 3117,
      "##dle": 3118,
      "Acc": 3119,
      "##ories": 3120,
      "standard": 3121,
      "fire": 3122,
      "team": 3123,
      "##ti": 3124,
      "intention": 3125,
      "san": 3126,
      "reality": 3127,
      "Transport": 3128,
      "Af": 3129,
      "##rain": 3130,
      "Yes": 3131,
      "critical": 3132,
      "avo": 3133,
      "##epar": 3134,
      "##going": 3135,
      "remains": 3136,
      "spend": 3137,
      "created": 3138,
      "vital": 3139,
      "waiting": 3140,
      "AN": 3141,
      "##istic": 3142,
      "sens": 3143,
      "sal": 3144,
      "visit": 3145,
      "##vey": 3146,
      "requirements": 3147,
      "subsid": 3148,
      "Bus": 3149,
      "##HS": 3150,
      "opinion": 3151,
      "##iated": 3152,
      "##estern": 3153,
      "1987": 3154,
      "asking": 3155,
      "failed": 3156,
      "takes": 3157,
      "announce": 3158,
      "ton": 3159,
      "sex": 3160,
      "comprehensive": 3161,
      "decl": 3162,
      "super": 3163,
      "Republic": 3164,
      "##cing": 3165,
      "statutory": 3166,
      "##yond": 3167,
      "effort": 3168,
      "aut": 3169,
      "Asse": 3170,
      "employees": 3171,
      "reference": 3172,
      "Ben": 3173,
      "##ape": 3174,
      "beyond": 3175,
      "fa": 3176,
      "altern": 3177,
      "letter": 3178,
      "bel": 3179,
      "separ": 3180,
      "##ties": 3181,
      "##has": 3182,
      "built": 3183,
      "direction": 3184,
      "Wel": 3185,
      "comb": 3186,
      "##to": 3187,
      "overall": 3188,
      "Kenny": 3189,
      "adequ": 3190,
      "England": 3191,
      "mass": 3192,
      "##chan": 3193,
      "##ik": 3194,
      "Conservatives": 3195,
      "##ris": 3196,
      "Standing": 3197,
      "##iter": 3198,
      "purposes": 3199,
      "data": 3200,
      "freedom": 3201,
      "initiative": 3202,
      "study": 3203,
      "complain": 3204,
      "limit": 3205,
      "aim": 3206,
      "compens": 3207,
      "paying": 3208,
      "break": 3209,
      "##aly": 3210,
      "opposite": 3211,
      "##fortunately": 3212,
      "Agriculture": 3213,
      "Parliamentary": 3214,
      "##vert": 3215,
      "McGrath": 3216,
      "Fitz": 3217,
      "democracy": 3218,
      "negotiations": 3219,
      "issued": 3220,
      "developing": 3221,
      "##ateful": 3222,
      "Ph": 3223,
      "stri": 3224,
      "mechan": 3225,
      "excell": 3226,
      "pred": 3227,
      "morning": 3228,
      "vehic": 3229,
      "hop": 3230,
      "coun": 3231,
      "grants": 3232,
      "victims": 3233,
      "fear": 3234,
      "results": 3235,
      "quot": 3236,
      "increases": 3237,
      "reduced": 3238,
      "nuclear": 3239,
      "changed": 3240,
      "critic": 3241,
      "##iction": 3242,
      "##lined": 3243,
      "Fund": 3244,
      "##la": 3245,
      "##gic": 3246,
      "alone": 3247,
      "Thomas": 3248,
      "ahead": 3249,
      "##unch": 3250,
      "congratulate": 3251,
      "##aken": 3252,
      "happening": 3253,
      "##ebru": 3254,
      "recover": 3255,
      "##itals": 3256,
      "technology": 3257,
      "continues": 3258,
      "minutes": 3259,
      "Est": 3260,
      "indicated": 3261,
      "addressed": 3262,
      "Isra": 3263,
      "completed": 3264,
      "oil": 3265,
      "interested": 3266,
      "relating": 3267,
      "##ones": 3268,
      "##que": 3269,
      "depend": 3270,
      "products": 3271,
      "grateful": 3272,
      "commercial": 3273,
      "##ebruary": 3274,
      "Gl": 3275,
      "Cr": 3276,
      "##ott": 3277,
      "##icit": 3278,
      "completely": 3279,
      "##ingly": 3280,
      "unf": 3281,
      "Ed": 3282,
      "##itude": 3283,
      "modern": 3284,
      "Home": 3285,
      "occup": 3286,
      "manner": 3287,
      "seeking": 3288,
      "und": 3289,
      "leader": 3290,
      "leadership": 3291,
      "obtain": 3292,
      "##IC": 3293,
      "##reg": 3294,
      "item": 3295,
      "1981": 3296,
      "Authority": 3297,
      "status": 3298,
      "##more": 3299,
      "developed": 3300,
      "humanitarian": 3301,
      "appreciate": 3302,
      "Smith": 3303,
      "emergency": 3304,
      "##standing": 3305,
      "understanding": 3306,
      "expressed": 3307,
      "fundamental": 3308,
      "Dem": 3309,
      "February": 3310,
      "principles": 3311,
      "Pal": 3312,
      "gas": 3313,
      "courts": 3314,
      "environmental": 3315,
      "officer": 3316,
      "relief": 3317,
      "domestic": 3318,
      "##rett": 3319,
      "##ulner": 3320,
      "saw": 3321,
      "Children": 3322,
      "organisation": 3323,
      "##amon": 3324,
      "##HA": 3325,
      "rent": 3326,
      "highlight": 3327,
      "front": 3328,
      "lar": 3329,
      "##inistry": 3330,
      "Gael": 3331,
      "moved": 3332,
      "la": 3333,
      "##aring": 3334,
      "NHS": 3335,
      "north": 3336,
      "##itch": 3337,
      "Lord": 3338,
      "bringing": 3339,
      "##gent": 3340,
      "Indust": 3341,
      "cross": 3342,
      "quickly": 3343,
      "Paper": 3344,
      "##SC": 3345,
      "Gr": 3346,
      "partnership": 3347,
      "##ode": 3348,
      "##istics": 3349,
      "MP": 3350,
      "stru": 3351,
      "International": 3352,
      "Jim": 3353,
      "Mal": 3354,
      "approved": 3355,
      "disapp": 3356,
      "traff": 3357,
      "Sean": 3358,
      "custom": 3359,
      "spok": 3360,
      "growing": 3361,
      "vulner": 3362,
      "himself": 3363,
      "Section": 3364,
      "achieved": 3365,
      "Ma": 3366,
      "##lu": 3367,
      "mental": 3368,
      "suffer": 3369,
      "##itional": 3370,
      "educ": 3371,
      "renew": 3372,
      "rule": 3373,
      "##uine": 3374,
      "interesting": 3375,
      "##ruption": 3376,
      "enh": 3377,
      "##ane": 3378,
      "##iday": 3379,
      "suggested": 3380,
      "##ugh": 3381,
      "regime": 3382,
      "seriously": 3383,
      "Ro": 3384,
      "democratic": 3385,
      "##loyed": 3386,
      "fix": 3387,
      "English": 3388,
      "##ittees": 3389,
      "##iam": 3390,
      "##ianna": 3391,
      "operations": 3392,
      "im": 3393,
      "fuel": 3394,
      "Assembly": 3395,
      "taxes": 3396,
      "accommodation": 3397,
      "continued": 3398,
      "contact": 3399,
      "supports": 3400,
      "page": 3401,
      "complex": 3402,
      "Fianna": 3403,
      "failure": 3404,
      "Des": 3405,
      "claims": 3406,
      "effectively": 3407,
      "Common": 3408,
      "sustainable": 3409,
      "1982": 3410,
      "produc": 3411,
      "choice": 3412,
      "anyone": 3413,
      "thousands": 3414,
      "secure": 3415,
      "minimum": 3416,
      "Indeed": 3417,
      "Lady": 3418,
      "generally": 3419,
      "commend": 3420,
      "Report": 3421,
      "##wise": 3422,
      "rad": 3423,
      "abuse": 3424,
      "##ush": 3425,
      "learned": 3426,
      "max": 3427,
      "export": 3428,
      "Rober": 3429,
      "kn": 3430,
      "shows": 3431,
      "##oral": 3432,
      "knowledge": 3433,
      "vac": 3434,
      "Since": 3435,
      "weap": 3436,
      "Assoc": 3437,
      "##bit": 3438,
      "agenda": 3439,
      "##lt": 3440,
      "##iff": 3441,
      "inj": 3442,
      "##yan": 3443,
      "establishment": 3444,
      "advant": 3445,
      "material": 3446,
      "Departments": 3447,
      "accordance": 3448,
      "activity": 3449,
      "withdraw": 3450,
      "basic": 3451,
      "discussed": 3452,
      "simple": 3453,
      "gives": 3454,
      "Green": 3455,
      "monitor": 3456,
      "Ira": 3457,
      "adopted": 3458,
      "involve": 3459,
      "Trade": 3460,
      "ir": 3461,
      "contributions": 3462,
      "pressure": 3463,
      "Iraq": 3464,
      "penal": 3465,
      "operate": 3466,
      "coll": 3467,
      "##uild": 3468,
      "Democr": 3469,
      "travel": 3470,
      "construction": 3471,
      "Constitution": 3472,
      "roads": 3473,
      "Every": 3474,
      "Reform": 3475,
      "employed": 3476,
      "task": 3477,
      "hospitals": 3478,
      "ongoing": 3479,
      "Brend": 3480,
      "entirely": 3481,
      "##val": 3482,
      "media": 3483,
      "electric": 3484,
      "accepted": 3485,
      "poll": 3486,
      "Brendan": 3487,
      "##rave": 3488,
      "Comp": 3489,
      "##LL": 3490,
      "emphas": 3491,
      "##ticle": 3492,
      "language": 3493,
      "##ibilities": 3494,
      "employers": 3495,
      "late": 3496,
      "US": 3497,
      "produce": 3498,
      "doct": 3499,
      "book": 3500,
      "industries": 3501,
      "constitution": 3502,
      "mer": 3503,
      "events": 3504,
      "volunt": 3505,
      "nurs": 3506,
      "includes": 3507,
      "##unications": 3508,
      "facilit": 3509,
      "Perhaps": 3510,
      "Mark": 3511,
      "obs": 3512,
      "##ored": 3513,
      "Liberals": 3514,
      "##holders": 3515,
      "##ald": 3516,
      "##person": 3517,
      "supplement": 3518,
      "limited": 3519,
      "reported": 3520,
      "##eth": 3521,
      "speaking": 3522,
      "sav": 3523,
      "above": 3524,
      "Mrs": 3525,
      "##atter": 3526,
      "laws": 3527,
      "Equ": 3528,
      "sought": 3529,
      "Emp": 3530,
      "End": 3531,
      "vulnerable": 3532,
      "##ourn": 3533,
      "Work": 3534,
      "site": 3535,
      "##llor": 3536,
      "systems": 3537,
      "Stage": 3538,
      "sold": 3539,
      "##ches": 3540,
      "appointed": 3541,
      "##yc": 3542,
      "Although": 3543,
      "##joy": 3544,
      "delivery": 3545,
      "inflation": 3546,
      "instead": 3547,
      "seven": 3548,
      "difficulty": 3549,
      "Cork": 3550,
      "##verse": 3551,
      "despite": 3552,
      "##hod": 3553,
      "elections": 3554,
      "applied": 3555,
      "##set": 3556,
      "chance": 3557,
      "minor": 3558,
      "##ancy": 3559,
      "doll": 3560,
      "youth": 3561,
      "##vent": 3562,
      "##ades": 3563,
      "##lac": 3564,
      "intended": 3565,
      "##edic": 3566,
      "intervention": 3567,
      "scale": 3568,
      "##EP": 3569,
      "##umb": 3570,
      "##lled": 3571,
      "agricultural": 3572,
      "##istan": 3573,
      "##itten": 3574,
      "##int": 3575,
      "##OR": 3576,
      "tal": 3577,
      "confer": 3578,
      "decide": 3579,
      "##ex": 3580,
      "Com": 3581,
      "enforce": 3582,
      "couple": 3583,
      "standing": 3584,
      "##lean": 3585,
      "profess": 3586,
      "##rated": 3587,
      "Mur": 3588,
      "promote": 3589,
      "remarks": 3590,
      "west": 3591,
      "anal": 3592,
      "##mine": 3593,
      "continuing": 3594,
      "##read": 3595,
      "miss": 3596,
      "technical": 3597,
      "consequences": 3598,
      "##IR": 3599,
      "##ously": 3600,
      "avoid": 3601,
      "##agraph": 3602,
      "Andrew": 3603,
      "alternative": 3604,
      "##emic": 3605,
      "excellent": 3606,
      "learn": 3607,
      "initiatives": 3608,
      "mil": 3609,
      "##endum": 3610,
      "performance": 3611,
      "introduction": 3612,
      "eight": 3613,
      "governments": 3614,
      "Chamber": 3615,
      "carbon": 3616,
      "##iately": 3617,
      "conclusion": 3618,
      "dise": 3619,
      "contribute": 3620,
      "##eng": 3621,
      "Program": 3622,
      "councils": 3623,
      "Palest": 3624,
      "che": 3625,
      "##roy": 3626,
      "Chance": 3627,
      "charges": 3628,
      "##ivity": 3629,
      "##irect": 3630,
      "ign": 3631,
      "unless": 3632,
      "Geor": 3633,
      "nations": 3634,
      "##itage": 3635,
      "Services": 3636,
      "##van": 3637,
      "moving": 3638,
      "2021": 3639,
      "revenue": 3640,
      "partners": 3641,
      "##ster": 3642,
      "aspects": 3643,
      "elig": 3644,
      "##ancing": 3645,
      "goods": 3646,
      "Even": 3647,
      "foot": 3648,
      "started": 3649,
      "##ST": 3650,
      "Association": 3651,
      "sufficient": 3652,
      "designed": 3653,
      "taxation": 3654,
      "##abilities": 3655,
      "sw": 3656,
      "talked": 3657,
      "satisfied": 3658,
      "stay": 3659,
      "sides": 3660,
      "##avi": 3661,
      "##idential": 3662,
      "enjoy": 3663,
      "##manent": 3664,
      "innov": 3665,
      "improvement": 3666,
      "instance": 3667,
      "coop": 3668,
      "regular": 3669,
      "finance": 3670,
      "lif": 3671,
      "Afghan": 3672,
      "Business": 3673,
      "##ulated": 3674,
      "serve": 3675,
      "regulation": 3676,
      "sitting": 3677,
      "Chancellor": 3678,
      "##aught": 3679,
      "markets": 3680,
      "competition": 3681,
      "effici": 3682,
      "model": 3683,
      "##erald": 3684,
      "chief": 3685,
      "transpar": 3686,
      "##rary": 3687,
      "mort": 3688,
      "expert": 3689,
      "immediately": 3690,
      "beginning": 3691,
      "facts": 3692,
      "##ck": 3693,
      "waste": 3694,
      "Enda": 3695,
      "overse": 3696,
      "##SON": 3697,
      "specifically": 3698,
      "win": 3699,
      "CO": 3700,
      "function": 3701,
      "Where": 3702,
      "savings": 3703,
      "requires": 3704,
      "urge": 3705,
      "##elt": 3706,
      "Ke": 3707,
      "il": 3708,
      "household": 3709,
      "occasion": 3710,
      "deleg": 3711,
      "##eria": 3712,
      "kill": 3713,
      "##ops": 3714,
      "##illy": 3715,
      "compensation": 3716,
      "caused": 3717,
      "cal": 3718,
      "field": 3719,
      "##undred": 3720,
      "running": 3721,
      "meetings": 3722,
      "reached": 3723,
      "port": 3724,
      "investigation": 3725,
      "##bs": 3726,
      "Joe": 3727,
      "earn": 3728,
      "considering": 3729,
      "Ministry": 3730,
      "paper": 3731,
      "har": 3732,
      "pointed": 3733,
      "##riv": 3734,
      "##hood": 3735,
      "written": 3736,
      "cru": 3737,
      "guarantee": 3738,
      "William": 3739,
      "Mid": 3740,
      "vo": 3741,
      "boards": 3742,
      "facing": 3743,
      "natural": 3744,
      "agency": 3745,
      "Right": 3746,
      "delivered": 3747,
      "objective": 3748,
      "Last": 3749,
      "##mond": 3750,
      "Alan": 3751,
      "centres": 3752,
      "##ximately": 3753,
      "representative": 3754,
      "struct": 3755,
      "Organ": 3756,
      "agreements": 3757,
      "meant": 3758,
      "referendum": 3759,
      "determined": 3760,
      "rout": 3761,
      "hands": 3762,
      "intend": 3763,
      "voluntary": 3764,
      "##urred": 3765,
      "unit": 3766,
      "harm": 3767,
      "leaders": 3768,
      "armed": 3769,
      "Sp": 3770,
      "Be": 3771,
      "unc": 3772,
      "aud": 3773,
      "shown": 3774,
      "##iveness": 3775,
      "Tim": 3776,
      "assure": 3777,
      "##ival": 3778,
      "advance": 3779,
      "Bern": 3780,
      "##oon": 3781,
      "remo": 3782,
      "south": 3783,
      "Land": 3784,
      "firm": 3785,
      "More": 3786,
      "##rimin": 3787,
      "Tod": 3788,
      "normal": 3789,
      "personnel": 3790,
      "1979": 3791,
      "deg": 3792,
      "##oph": 3793,
      "behavi": 3794,
      "Kel": 3795,
      "attract": 3796,
      "illeg": 3797,
      "settlement": 3798,
      "##itness": 3799,
      "statements": 3800,
      "drugs": 3801,
      "bed": 3802,
      "genuine": 3803,
      "##phy": 3804,
      "##idge": 3805,
      "ourselves": 3806,
      "##wealth": 3807,
      "White": 3808,
      "##conomic": 3809,
      "voted": 3810,
      "##ulf": 3811,
      "Food": 3812,
      "implemented": 3813,
      "unions": 3814,
      "setting": 3815,
      "Treasury": 3816,
      "coast": 3817,
      "##vision": 3818,
      "otherwise": 3819,
      "Sir": 3820,
      "mere": 3821,
      "identified": 3822,
      "restrict": 3823,
      "implic": 3824,
      "procedures": 3825,
      "construct": 3826,
      "Commonwealth": 3827,
      "enorm": 3828,
      "strongly": 3829,
      "influ": 3830,
      "administration": 3831,
      "exercise": 3832,
      "wage": 3833,
      "##enders": 3834,
      "neigh": 3835,
      "weapons": 3836,
      "anim": 3837,
      "##ble": 3838,
      "method": 3839,
      "McC": 3840,
      "Ryan": 3841,
      "##itation": 3842,
      "cert": 3843,
      "offence": 3844,
      "promised": 3845,
      "##upil": 3846,
      "carefully": 3847,
      "legislative": 3848,
      "fra": 3849,
      "##ogue": 3850,
      "described": 3851,
      "burden": 3852,
      "procedure": 3853,
      "##eni": 3854,
      "provinces": 3855,
      "analys": 3856,
      "speed": 3857,
      "die": 3858,
      "Jack": 3859,
      "equip": 3860,
      "exempt": 3861,
      "##ET": 3862,
      "##ulations": 3863,
      "##RA": 3864,
      "jur": 3865,
      "responsibilities": 3866,
      "hundred": 3867,
      "politics": 3868,
      "allocation": 3869,
      "behaviour": 3870,
      "acqu": 3871,
      "calls": 3872,
      "creation": 3873,
      "allocated": 3874,
      "stability": 3875,
      "Any": 3876,
      "ones": 3877,
      "pupil": 3878,
      "wider": 3879,
      "produced": 3880,
      "engage": 3881,
      "disability": 3882,
      "truth": 3883,
      "friends": 3884,
      "previously": 3885,
      "functions": 3886,
      "glad": 3887,
      "tw": 3888,
      "roll": 3889,
      "ordinary": 3890,
      "##ground": 3891,
      "draft": 3892,
      "Bernard": 3893,
      "##tenance": 3894,
      "##uton": 3895,
      "##stitute": 3896,
      "Russ": 3897,
      "Again": 3898,
      "outcome": 3899,
      "estimated": 3900,
      "vir": 3901,
      "Murphy": 3902,
      "advis": 3903,
      "##empor": 3904,
      "examine": 3905,
      "##vy": 3906,
      "improved": 3907,
      "reading": 3908,
      "occasions": 3909,
      "tri": 3910,
      "extend": 3911,
      "joint": 3912,
      "uns": 3913,
      "##ference": 3914,
      "chec": 3915,
      "scr": 3916,
      "##uff": 3917,
      "##limin": 3918,
      "opposed": 3919,
      "participation": 3920,
      "##ateg": 3921,
      "##cer": 3922,
      "City": 3923,
      "signed": 3924,
      "detailed": 3925,
      "recru": 3926,
      "##comes": 3927,
      "##iscal": 3928,
      "Given": 3929,
      "approximately": 3930,
      "##enous": 3931,
      "lines": 3932,
      "institution": 3933,
      "placed": 3934,
      "##view": 3935,
      "##ening": 3936,
      "##edule": 3937,
      "##attle": 3938,
      "agriculture": 3939,
      "##nes": 3940,
      "##men": 3941,
      "##erry": 3942,
      "Me": 3943,
      "Agency": 3944,
      "recognised": 3945,
      "spir": 3946,
      "pleas": 3947,
      "connection": 3948,
      "presented": 3949,
      "##advant": 3950,
      "terrorism": 3951,
      "Car": 3952,
      "taxpayers": 3953,
      "borrow": 3954,
      "##ught": 3955,
      "fees": 3956,
      "requirement": 3957,
      "sectors": 3958,
      "sometimes": 3959,
      "coalition": 3960,
      "stake": 3961,
      "worse": 3962,
      "Well": 3963,
      "##rad": 3964,
      "summ": 3965,
      "flex": 3966,
      "expl": 3967,
      "obviously": 3968,
      "cur": 3969,
      "##ological": 3970,
      "Robert": 3971,
      "adequate": 3972,
      "Ne": 3973,
      "tourism": 3974,
      "engaged": 3975,
      "happens": 3976,
      "unemployed": 3977,
      "paragraph": 3978,
      "##osing": 3979,
      "extended": 3980,
      "pret": 3981,
      "pensions": 3982,
      "bills": 3983,
      "executive": 3984,
      "ste": 3985,
      "reforms": 3986,
      "George": 3987,
      "##igenous": 3988,
      "Today": 3989,
      "##gar": 3990,
      "targets": 3991,
      "strugg": 3992,
      "prosec": 3993,
      "maximum": 3994,
      "launch": 3995,
      "advoc": 3996,
      "Eamon": 3997,
      "##leb": 3998,
      "##unal": 3999,
      "len": 4000,
      "advantage": 4001,
      "unable": 4002,
      "highest": 4003,
      "##formation": 4004,
      "Den": 4005,
      "practical": 4006,
      "Industry": 4007,
      "attend": 4008,
      "reducing": 4009,
      "willing": 4010,
      "histor": 4011,
      "Western": 4012,
      "Roy": 4013,
      "Sw": 4014,
      "##ying": 4015,
      "Cabinet": 4016,
      "categ": 4017,
      "assets": 4018,
      "##iste": 4019,
      "looked": 4020,
      "tried": 4021,
      "##hib": 4022,
      "advert": 4023,
      "refuge": 4024,
      "message": 4025,
      "prospect": 4026,
      "hour": 4027,
      "reject": 4028,
      "maintenance": 4029,
      "Commissioner": 4030,
      "##rif": 4031,
      "damage": 4032,
      "touch": 4033,
      "news": 4034,
      "appointment": 4035,
      "senior": 4036,
      "Syri": 4037,
      "Hous": 4038,
      "tribute": 4039,
      "urgent": 4040,
      "privile": 4041,
      "Barrett": 4042,
      "##iece": 4043,
      "wind": 4044,
      "package": 4045,
      "Mot": 4046,
      "follows": 4047,
      "Cow": 4048,
      "Protect": 4049,
      "Frank": 4050,
      "round": 4051,
      "immediate": 4052,
      "##vest": 4053,
      "please": 4054,
      "##vis": 4055,
      "east": 4056,
      "contro": 4057,
      "equipment": 4058,
      "Would": 4059,
      "agus": 4060,
      "2023": 4061,
      "meaning": 4062,
      "associated": 4063,
      "Are": 4064,
      "Brown": 4065,
      "Lim": 4066,
      "##ha": 4067,
      "fre": 4068,
      "##wa": 4069,
      "closely": 4070,
      "undertaken": 4071,
      "Corp": 4072,
      "funded": 4073,
      "##ason": 4074,
      "equal": 4075,
      "prot": 4076,
      "##atively": 4077,
      "developments": 4078,
      "leading": 4079,
      "network": 4080,
      "Simon": 4081,
      "effects": 4082,
      "disadvant": 4083,
      "disappoint": 4084,
      "abol": 4085,
      "##apers": 4086,
      "Employment": 4087,
      "witness": 4088,
      "Nos": 4089,
      "residents": 4090,
      "phys": 4091,
      "electricity": 4092,
      "##ilater": 4093,
      "##orry": 4094,
      "##hire": 4095,
      "regist": 4096,
      "##oming": 4097,
      "World": 4098,
      "recall": 4099,
      "bro": 4100,
      "criteria": 4101,
      "##de": 4102,
      "green": 4103,
      "Val": 4104,
      "Hosp": 4105,
      "hor": 4106,
      "definition": 4107,
      "improving": 4108,
      "##gow": 4109,
      "##UT": 4110,
      "Bruton": 4111,
      "creating": 4112,
      "licence": 4113,
      "granted": 4114,
      "forced": 4115,
      "Water": 4116,
      "##like": 4117,
      "realise": 4118,
      "counter": 4119,
      "distrib": 4120,
      "accountability": 4121,
      "After": 4122,
      "committees": 4123,
      "##fect": 4124,
      "raising": 4125,
      "amended": 4126,
      "sad": 4127,
      "deficit": 4128,
      "##using": 4129,
      "exch": 4130,
      "everybody": 4131,
      "pros": 4132,
      "##ugust": 4133,
      "Further": 4134,
      "##hair": 4135,
      "Group": 4136,
      "ought": 4137,
      "secretary": 4138,
      "##IT": 4139,
      "lose": 4140,
      "##isd": 4141,
      "Great": 4142,
      "original": 4143,
      "##iver": 4144,
      "award": 4145,
      "##ened": 4146,
      "host": 4147,
      "clean": 4148,
      "offices": 4149,
      "##nt": 4150,
      "easy": 4151,
      "##eless": 4152,
      "appears": 4153,
      "##ett": 4154,
      "mortg": 4155,
      "length": 4156,
      "Post": 4157,
      "Israel": 4158,
      "submitted": 4159,
      "##cast": 4160,
      "##let": 4161,
      "thinking": 4162,
      "1975": 4163,
      "advised": 4164,
      "Energy": 4165,
      "subsequ": 4166,
      "possibility": 4167,
      "administr": 4168,
      "His": 4169,
      "mist": 4170,
      "border": 4171,
      "tonight": 4172,
      "##urch": 4173,
      "objectives": 4174,
      "##gment": 4175,
      "ult": 4176,
      "##resents": 4177,
      "Air": 4178,
      "myself": 4179,
      "Charl": 4180,
      "improvements": 4181,
      "##iny": 4182,
      "##eme": 4183,
      "commitments": 4184,
      "unfair": 4185,
      "operating": 4186,
      "##ana": 4187,
      "structure": 4188,
      "##CT": 4189,
      "From": 4190,
      "retain": 4191,
      "professional": 4192,
      "felt": 4193,
      "Joan": 4194,
      "MR": 4195,
      "treated": 4196,
      "retire": 4197,
      "stress": 4198,
      "eth": 4199,
      "save": 4200,
      "##reement": 4201,
      "rid": 4202,
      "German": 4203,
      "permanent": 4204,
      "Alex": 4205,
      "covered": 4206,
      "represents": 4207,
      "airport": 4208,
      "condition": 4209,
      "##ams": 4210,
      "strategic": 4211,
      "culture": 4212,
      "##ureau": 4213,
      "track": 4214,
      "##HE": 4215,
      "sale": 4216,
      "priorities": 4217,
      "##ensus": 4218,
      "sound": 4219,
      "piece": 4220,
      "Par": 4221,
      "affairs": 4222,
      "surv": 4223,
      "##bur": 4224,
      "unp": 4225,
      "identify": 4226,
      "##rent": 4227,
      "##ature": 4228,
      "compar": 4229,
      "##ho": 4230,
      "arri": 4231,
      "China": 4232,
      "sell": 4233,
      "##put": 4234,
      "cop": 4235,
      "leaving": 4236,
      "helping": 4237,
      "##iversity": 4238,
      "recovery": 4239,
      "Revenue": 4240,
      "profession": 4241,
      "amb": 4242,
      "Questions": 4243,
      "susp": 4244,
      "arise": 4245,
      "##ken": 4246,
      "drawn": 4247,
      "mandate": 4248,
      "Palestin": 4249,
      "##AM": 4250,
      "Miche": 4251,
      "card": 4252,
      "incent": 4253,
      "##hol": 4254,
      "degree": 4255,
      "##rench": 4256,
      "participate": 4257,
      "regions": 4258,
      "receip": 4259,
      "Glas": 4260,
      "highly": 4261,
      "##ál": 4262,
      "Micheál": 4263,
      "intel": 4264,
      "obligations": 4265,
      "fiscal": 4266,
      "followed": 4267,
      "served": 4268,
      "movement": 4269,
      "jurisd": 4270,
      "wait": 4271,
      "crucial": 4272,
      "##oples": 4273,
      "typ": 4274,
      "##that": 4275,
      "##orn": 4276,
      "sexual": 4277,
      "bound": 4278,
      "outlined": 4279,
      "Programme": 4280,
      "introduc": 4281,
      "compared": 4282,
      "consent": 4283,
      "##ograph": 4284,
      "option": 4285,
      "believes": 4286,
      "##ots": 4287,
      "contracts": 4288,
      "suffering": 4289,
      "nearly": 4290,
      "proceedings": 4291,
      "offered": 4292,
      "cand": 4293,
      "orders": 4294,
      "wages": 4295,
      "rightly": 4296,
      "##emporary": 4297,
      "2022": 4298,
      "analysis": 4299,
      "School": 4300,
      "discrimin": 4301,
      "enormous": 4302,
      "##resp": 4303,
      "options": 4304,
      "constitutional": 4305,
      "mem": 4306,
      "deliber": 4307,
      "##omin": 4308,
      "pleasure": 4309,
      "watch": 4310,
      "hearing": 4311,
      "stock": 4312,
      "announcement": 4313,
      "voting": 4314,
      "educational": 4315,
      "surpr": 4316,
      "ready": 4317,
      "August": 4318,
      "veter": 4319,
      "##keep": 4320,
      "treaty": 4321,
      "overseas": 4322,
      "path": 4323,
      "consumers": 4324,
      "proportion": 4325,
      "heav": 4326,
      "##ye": 4327,
      "reb": 4328,
      "separate": 4329,
      "purchase": 4330,
      "OF": 4331,
      "cooperation": 4332,
      "##agn": 4333,
      "##band": 4334,
      "##ara": 4335,
      "approval": 4336,
      "attitude": 4337,
      "middle": 4338,
      "tackle": 4339,
      "fil": 4340,
      "talks": 4341,
      "##ene": 4342,
      "##sy": 4343,
      "wealth": 4344,
      "##uilding": 4345,
      "statistics": 4346,
      "Accord": 4347,
      "Glasgow": 4348,
      "##rant": 4349,
      "Chairperson": 4350,
      "seeing": 4351,
      "district": 4352,
      "conference": 4353,
      "disease": 4354,
      "acknowled": 4355,
      "rat": 4356,
      "base": 4357,
      "ship": 4358,
      "elsewhere": 4359,
      "Plan": 4360,
      "independence": 4361,
      "Rights": 4362,
      "Fish": 4363,
      "Science": 4364,
      "Such": 4365,
      "##irms": 4366,
      "1971": 4367,
      "##ables": 4368,
      "perfect": 4369,
      "##urk": 4370,
      "documents": 4371,
      "opp": 4372,
      "emissions": 4373,
      "illegal": 4374,
      "##umption": 4375,
      "faced": 4376,
      "kept": 4377,
      "Protection": 4378,
      "Over": 4379,
      "deals": 4380,
      "student": 4381,
      "Fer": 4382,
      "legit": 4383,
      "park": 4384,
      "prosper": 4385,
      "symp": 4386,
      "gets": 4387,
      "Barry": 4388,
      "tur": 4389,
      "traffic": 4390,
      "contained": 4391,
      "Equality": 4392,
      "HSE": 4393,
      "Chief": 4394,
      "##urely": 4395,
      "##elines": 4396,
      "offences": 4397,
      "##ias": 4398,
      "scrut": 4399,
      "Commons": 4400,
      "university": 4401,
      "enforcement": 4402,
      "EC": 4403,
      "##kes": 4404,
      "Tony": 4405,
      "rein": 4406,
      "##hern": 4407,
      "##ille": 4408,
      "##orrow": 4409,
      "initial": 4410,
      "Enter": 4411,
      "##lusive": 4412,
      "survey": 4413,
      "##efore": 4414,
      "efficient": 4415,
      "fishing": 4416,
      "##ls": 4417,
      "wishes": 4418,
      "article": 4419,
      "##lder": 4420,
      "listened": 4421,
      "##omatic": 4422,
      "precise": 4423,
      "unac": 4424,
      "hy": 4425,
      "During": 4426,
      "ANC": 4427,
      "programs": 4428,
      "Hospital": 4429,
      "generation": 4430,
      "totally": 4431,
      "##cri": 4432,
      "manufacturing": 4433,
      "##orough": 4434,
      "imposed": 4435,
      "Tom": 4436,
      "extension": 4437,
      "Charles": 4438,
      "crimes": 4439,
      "replace": 4440,
      "##gins": 4441,
      "##els": 4442,
      "recognition": 4443,
      "Ter": 4444,
      "Conn": 4445,
      "##ilateral": 4446,
      "merely": 4447,
      "##oles": 4448,
      "bear": 4449,
      "Special": 4450,
      "excess": 4451,
      "duties": 4452,
      "concept": 4453,
      "Coll": 4454,
      "Afghanistan": 4455,
      "Welfare": 4456,
      "implications": 4457,
      "extraord": 4458,
      "according": 4459,
      "##ole": 4460,
      "spoken": 4461,
      "##ulli": 4462,
      "##ique": 4463,
      "closed": 4464,
      "##field": 4465,
      "candid": 4466,
      "##ows": 4467,
      "became": 4468,
      "Exch": 4469,
      "pick": 4470,
      "tabled": 4471,
      "tim": 4472,
      "##ids": 4473,
      "plant": 4474,
      "Tna": 4475,
      "Att": 4476,
      "protected": 4477,
      "##amed": 4478,
      "##VID": 4479,
      "petition": 4480,
      "##icians": 4481,
      "dial": 4482,
      "noted": 4483,
      "mach": 4484,
      "impress": 4485,
      "nine": 4486,
      "division": 4487,
      "fine": 4488,
      "station": 4489,
      "manag": 4490,
      "send": 4491,
      "consumer": 4492,
      "##section": 4493,
      "##with": 4494,
      "competitive": 4495,
      "keeping": 4496,
      "seat": 4497,
      "Select": 4498,
      "Then": 4499,
      "welcom": 4500,
      "##nell": 4501,
      "territor": 4502,
      "changing": 4503,
      "allowing": 4504,
      "rap": 4505,
      "##anch": 4506,
      "Human": 4507,
      "addressing": 4508,
      "##mark": 4509,
      "Tnaiste": 4510,
      "shared": 4511,
      "##ze": 4512,
      "##encing": 4513,
      "anybody": 4514,
      "Gu": 4515,
      "Unfortunately": 4516,
      "Ahern": 4517,
      "promise": 4518,
      "element": 4519,
      "Lib": 4520,
      "Shan": 4521,
      "##uations": 4522,
      "mob": 4523,
      "holding": 4524,
      "suggestion": 4525,
      "communic": 4526,
      "UNSC": 4527,
      "connect": 4528,
      "##ín": 4529,
      "anx": 4530,
      "spirit": 4531,
      "arguments": 4532,
      "profit": 4533,
      "fill": 4534,
      "massive": 4535,
      "adult": 4536,
      "Jose": 4537,
      "##pret": 4538,
      "bh": 4539,
      "anti": 4540,
      "motor": 4541,
      "requested": 4542,
      "guidance": 4543,
      "greatest": 4544,
      "##shire": 4545,
      "##antly": 4546,
      "flood": 4547,
      "expand": 4548,
      "##ireacht": 4549,
      "##ervation": 4550,
      "satisfact": 4551,
      "active": 4552,
      "##arch": 4553,
      "enterprise": 4554,
      "Before": 4555,
      "##unicip": 4556,
      "##ook": 4557,
      "##yl": 4558,
      "debates": 4559,
      "sport": 4560,
      "faith": 4561,
      "laid": 4562,
      "Army": 4563,
      "McD": 4564,
      "factors": 4565,
      "indicate": 4566,
      "lat": 4567,
      "release": 4568,
      "##uable": 4569,
      "severe": 4570,
      "judge": 4571,
      "Royal": 4572,
      "remove": 4573,
      "##action": 4574,
      "Centre": 4575,
      "applies": 4576,
      "imag": 4577,
      "American": 4578,
      "##overeign": 4579,
      "appar": 4580,
      "registered": 4581,
      "convention": 4582,
      "forms": 4583,
      "##uting": 4584,
      "dollars": 4585,
      "practices": 4586,
      "solutions": 4587,
      "efficiency": 4588,
      "MA": 4589,
      "fulf": 4590,
      "organiz": 4591,
      "stra": 4592,
      "##omen": 4593,
      "shortly": 4594,
      "patient": 4595,
      "drive": 4596,
      "processes": 4597,
      "CHA": 4598,
      "Joseph": 4599,
      "chamber": 4600,
      "##pir": 4601,
      "alle": 4602,
      "##itory": 4603,
      "urban": 4604,
      "NDP": 4605,
      "safegu": 4606,
      "Road": 4607,
      "regulatory": 4608,
      "immigration": 4609,
      "Rec": 4610,
      "stands": 4611,
      "Offic": 4612,
      "lay": 4613,
      "peoples": 4614,
      "room": 4615,
      "Direct": 4616,
      "employer": 4617,
      "evening": 4618,
      "dangerous": 4619,
      "recommendation": 4620,
      "Port": 4621,
      "DA": 4622,
      "##right": 4623,
      "vast": 4624,
      "millions": 4625,
      "##cohol": 4626,
      "cash": 4627,
      "size": 4628,
      "##ares": 4629,
      "aged": 4630,
      "Collins": 4631,
      "##sey": 4632,
      "ut": 4633,
      "##ming": 4634,
      "science": 4635,
      "##lements": 4636,
      "##ullivan": 4637,
      "Zealanders": 4638,
      "consistent": 4639,
      "examples": 4640,
      "relig": 4641,
      "divid": 4642,
      "possibly": 4643,
      "Adm": 4644,
      "examination": 4645,
      "vehicles": 4646,
      "##PER": 4647,
      "learning": 4648,
      "honest": 4649,
      "eligible": 4650,
      "concerning": 4651,
      "taxpayer": 4652,
      "##ae": 4653,
      "America": 4654,
      "determination": 4655,
      "##hen": 4656,
      "sovereign": 4657,
      "Has": 4658,
      "refused": 4659,
      "##comm": 4660,
      "recommended": 4661,
      "Bel": 4662,
      "Famil": 4663,
      "forest": 4664,
      "tom": 4665,
      "background": 4666,
      "Bre": 4667,
      "mechanism": 4668,
      "sites": 4669,
      "##pposed": 4670,
      "##acter": 4671,
      "ownership": 4672,
      "forth": 4673,
      "##BC": 4674,
      "sorry": 4675,
      "suspect": 4676,
      "delegation": 4677,
      "celeb": 4678,
      "beg": 4679,
      "Ca": 4680,
      "temporary": 4681,
      "##lection": 4682,
      "values": 4683,
      "Agreement": 4684,
      "opening": 4685,
      "##alling": 4686,
      "Step": 4687,
      "disag": 4688,
      "largest": 4689,
      "Dun": 4690,
      "upd": 4691,
      "membership": 4692,
      "unaccept": 4693,
      "Cont": 4694,
      "provincial": 4695,
      "##agan": 4696,
      "##race": 4697,
      "Economic": 4698,
      "breach": 4699,
      "Enterprise": 4700,
      "code": 4701,
      "##iers": 4702,
      "##eness": 4703,
      "trou": 4704,
      "##ES": 4705,
      "useful": 4706,
      "Bec": 4707,
      "facilitate": 4708,
      "##ogan": 4709,
      "Matt": 4710,
      "introducing": 4711,
      "compliance": 4712,
      "##lause": 4713,
      "resource": 4714,
      "##oli": 4715,
      "##lines": 4716,
      "Time": 4717,
      "##orney": 4718,
      "summer": 4719,
      "##pper": 4720,
      "instru": 4721,
      "Ross": 4722,
      "prefer": 4723,
      "##ift": 4724,
      "receiving": 4725,
      "determine": 4726,
      "##cript": 4727,
      "##orks": 4728,
      "##equer": 4729,
      "Phil": 4730,
      "obligation": 4731,
      "Sullivan": 4732,
      "driving": 4733,
      "engine": 4734,
      "television": 4735,
      "guidelines": 4736,
      "##place": 4737,
      "art": 4738,
      "listening": 4739,
      "managed": 4740,
      "fairly": 4741,
      "facility": 4742,
      "exclud": 4743,
      "towns": 4744,
      "quote": 4745,
      "source": 4746,
      "liber": 4747,
      "certific": 4748,
      "##gal": 4749,
      "Prof": 4750,
      "somebody": 4751,
      "knew": 4752,
      "condem": 4753,
      "##ait": 4754,
      "calling": 4755,
      "Boy": 4756,
      "grounds": 4757,
      "##omb": 4758,
      "##raft": 4759,
      "decent": 4760,
      "Aud": 4761,
      "becoming": 4762,
      "permission": 4763,
      "clin": 4764,
      "fell": 4765,
      "story": 4766,
      "relates": 4767,
      "delight": 4768,
      "proc": 4769,
      "alleg": 4770,
      "supposed": 4771,
      "walk": 4772,
      "newsp": 4773,
      "significantly": 4774,
      "owners": 4775,
      "buildings": 4776,
      "Elect": 4777,
      "content": 4778,
      "quarter": 4779,
      "sensible": 4780,
      "repeat": 4781,
      "af": 4782,
      "session": 4783,
      "units": 4784,
      "CHAIR": 4785,
      "finally": 4786,
      "##lying": 4787,
      "Exchequer": 4788,
      "War": 4789,
      "French": 4790,
      "pensioners": 4791,
      "teacher": 4792,
      "scope": 4793,
      "log": 4794,
      "dedic": 4795,
      "elimin": 4796,
      "Var": 4797,
      "##ston": 4798,
      "Burton": 4799,
      "Senate": 4800,
      "check": 4801,
      "Pre": 4802,
      "cancer": 4803,
      "##aughter": 4804,
      "1972": 4805,
      "qualify": 4806,
      "vision": 4807,
      "##nother": 4808,
      "disabled": 4809,
      "Cal": 4810,
      "Hig": 4811,
      "##ligence": 4812,
      "answered": 4813,
      "alcohol": 4814,
      "gap": 4815,
      "Another": 4816,
      "imposs": 4817,
      "added": 4818,
      "Other": 4819,
      "draf": 4820,
      "Gil": 4821,
      "exports": 4822,
      "##iar": 4823,
      "sup": 4824,
      "character": 4825,
      "older": 4826,
      "pupils": 4827,
      "allows": 4828,
      "loan": 4829,
      "Oireacht": 4830,
      "examined": 4831,
      "##pective": 4832,
      "medic": 4833,
      "##ta": 4834,
      "none": 4835,
      "Ang": 4836,
      "##mas": 4837,
      "influence": 4838,
      "tro": 4839,
      "woman": 4840,
      "aftern": 4841,
      "##adow": 4842,
      "rob": 4843,
      "dialogue": 4844,
      "century": 4845,
      "##atherine": 4846,
      "owned": 4847,
      "Scheme": 4848,
      "riding": 4849,
      "1974": 4850,
      "scient": 4851,
      "##ague": 4852,
      "Higgins": 4853,
      "affordable": 4854,
      "black": 4855,
      "##avan": 4856,
      "Park": 4857,
      "loans": 4858,
      "unacceptable": 4859,
      "surp": 4860,
      "incred": 4861,
      "##DA": 4862,
      "Med": 4863,
      "Oireachtas": 4864,
      "reserv": 4865,
      "Vict": 4866,
      "integrity": 4867,
      "Priv": 4868,
      "accounts": 4869,
      "##urer": 4870,
      "Cowen": 4871,
      "pain": 4872,
      "experienced": 4873,
      "cultural": 4874,
      "administrative": 4875,
      "interpret": 4876,
      "##isms": 4877,
      "Inst": 4878,
      "##unte": 4879,
      "Friday": 4880,
      "1970": 4881,
      "##rep": 4882,
      "##hab": 4883,
      "tool": 4884,
      "discussing": 4885,
      "arg": 4886,
      "represented": 4887,
      "Lem": 4888,
      "levy": 4889,
      "exists": 4890,
      "hundreds": 4891,
      "Because": 4892,
      "dig": 4893,
      "judgment": 4894,
      "afternoon": 4895,
      "virt": 4896,
      "farming": 4897,
      "train": 4898,
      "Dan": 4899,
      "##ma": 4900,
      "Sub": 4901,
      "##ula": 4902,
      "parent": 4903,
      "##obby": 4904,
      "latest": 4905,
      "Gal": 4906,
      "Noel": 4907,
      "operational": 4908,
      "University": 4909,
      "Colle": 4910,
      "impossible": 4911,
      "reass": 4912,
      "ideas": 4913,
      "biggest": 4914,
      "manage": 4915,
      "Its": 4916,
      "delivering": 4917,
      "occurred": 4918,
      "Mori": 4919,
      "telling": 4920,
      "hol": 4921,
      "rapid": 4922,
      "extraordinary": 4923,
      "Friends": 4924,
      "doctors": 4925,
      "explan": 4926,
      "honourable": 4927,
      "commence": 4928,
      "##PERSON": 4929,
      "##EL": 4930,
      "receipt": 4931,
      "space": 4932,
      "Most": 4933,
      "focused": 4934,
      "##SA": 4935,
      "Ob": 4936,
      "##cr": 4937,
      "Administ": 4938,
      "destroy": 4939,
      "##key": 4940,
      "cities": 4941,
      "Dis": 4942,
      "repeated": 4943,
      "CHAIRPERSON": 4944,
      "deserve": 4945,
      "remaining": 4946,
      "Supp": 4947,
      "##illon": 4948,
      "tomorrow": 4949,
      "mortgage": 4950,
      "exceed": 4951,
      "##care": 4952,
      "##edy": 4953,
      "trading": 4954,
      "elements": 4955,
      "pil": 4956,
      "##ung": 4957,
      "organizations": 4958,
      "trave": 4959,
      "pan": 4960,
      "recon": 4961,
      "concluded": 4962,
      "Kev": 4963,
      "transition": 4964,
      "arms": 4965,
      "providers": 4966,
      "##well": 4967,
      "exchange": 4968,
      "##jections": 4969,
      "Cong": 4970,
      "interven": 4971,
      "##ipe": 4972,
      "##ansion": 4973,
      "secondary": 4974,
      "necessarily": 4975,
      "##sych": 4976,
      "##kar": 4977,
      "abroad": 4978,
      "concent": 4979,
      "apolog": 4980,
      "adopt": 4981,
      "##alities": 4982,
      "valuable": 4983,
      "conven": 4984,
      "Attorney": 4985,
      "ver": 4986,
      "Palestinian": 4987,
      "##inal": 4988,
      "enhance": 4989,
      "##sels": 4990,
      "surplus": 4991,
      "fit": 4992,
      "acceptable": 4993,
      "##ders": 4994,
      "amounts": 4995,
      "servants": 4996,
      "elder": 4997,
      "France": 4998,
      "Uk": 4999,
      "Wall": 5000,
      "outstanding": 5001,
      "drink": 5002,
      "arrangement": 5003,
      "Finally": 5004,
      "Treat": 5005,
      "##ream": 5006,
      "choose": 5007,
      "ministers": 5008,
      "removed": 5009,
      "monitoring": 5010,
      "##ered": 5011,
      "wid": 5012,
      "sections": 5013,
      "percentage": 5014,
      "##amus": 5015,
      "Crown": 5016,
      "conducted": 5017,
      "##urb": 5018,
      "club": 5019,
      "dism": 5020,
      "##enihan": 5021,
      "##tacht": 5022,
      "transparency": 5023,
      "rac": 5024,
      "defend": 5025,
      "Their": 5026,
      "##ai": 5027,
      "seeks": 5028,
      "representations": 5029,
      "##eat": 5030,
      "Mo": 5031,
      "dispute": 5032,
      "1978": 5033,
      "Mattie": 5034,
      "DEP": 5035,
      "Criminal": 5036,
      "##aily": 5037,
      "sets": 5038,
      "speeches": 5039,
      "Clare": 5040,
      "prevention": 5041,
      "retirement": 5042,
      "Secondly": 5043,
      "er": 5044,
      "protecting": 5045,
      "##CC": 5046,
      "Fisheries": 5047,
      "##ror": 5048,
      "proposes": 5049,
      "delighted": 5050,
      "attacks": 5051,
      "##rey": 5052,
      "undertake": 5053,
      "sea": 5054,
      "answers": 5055,
      "banking": 5056,
      "##anks": 5057,
      "dead": 5058,
      "Howlin": 5059,
      "subsection": 5060,
      "stakeholders": 5061,
      "##stood": 5062,
      "##olly": 5063,
      "##hairle": 5064,
      "municip": 5065,
      "governance": 5066,
      "##what": 5067,
      "esc": 5068,
      "Lemass": 5069,
      "complaints": 5070,
      "assurance": 5071,
      "Ukrain": 5072,
      "1953": 5073,
      "intent": 5074,
      "##yal": 5075,
      "electoral": 5076,
      "equality": 5077,
      "Durk": 5078,
      "representation": 5079,
      "helped": 5080,
      "terrorist": 5081,
      "supplementary": 5082,
      "adjust": 5083,
      "pand": 5084,
      "consc": 5085,
      "Durkan": 5086,
      "neighbour": 5087,
      "##lif": 5088,
      "privat": 5089,
      "resolve": 5090,
      "Dillon": 5091,
      "incor": 5092,
      "##UTY": 5093,
      "slight": 5094,
      "worst": 5095,
      "Mitch": 5096,
      "Kevin": 5097,
      "PR": 5098,
      "floor": 5099,
      "DEPUTY": 5100,
      "##raid": 5101,
      "mur": 5102,
      "##down": 5103,
      "arising": 5104,
      "cyc": 5105,
      "below": 5106,
      "gir": 5107,
      "recruit": 5108,
      "antic": 5109,
      "Corporation": 5110,
      "##rants": 5111,
      "visited": 5112,
      "GP": 5113,
      "risks": 5114,
      "Forces": 5115,
      "##riage": 5116,
      "Arab": 5117,
      "carrying": 5118,
      "##ining": 5119,
      "sympath": 5120,
      "feed": 5121,
      "rising": 5122,
      "Financial": 5123,
      "Acts": 5124,
      "pun": 5125,
      "Commissioners": 5126,
      "privilege": 5127,
      "worry": 5128,
      "Represent": 5129,
      "elderly": 5130,
      "teaching": 5131,
      "discl": 5132,
      "encouraging": 5133,
      "Commer": 5134,
      "##tar": 5135,
      "##astic": 5136,
      "##oring": 5137,
      "forget": 5138,
      "referring": 5139,
      "gender": 5140,
      "thus": 5141,
      "om": 5142,
      "succeed": 5143,
      "Red": 5144,
      "tit": 5145,
      "Police": 5146,
      "Varad": 5147,
      "causes": 5148,
      "rich": 5149,
      "THE": 5150,
      "Leo": 5151,
      "##erick": 5152,
      "Tax": 5153,
      "Varadkar": 5154,
      "Bench": 5155,
      "##onald": 5156,
      "Chairman": 5157,
      "charged": 5158,
      "physical": 5159,
      "retail": 5160,
      "##ault": 5161,
      "demands": 5162,
      "Nat": 5163,
      "Fine": 5164,
      "helpful": 5165,
      "1966": 5166,
      "sil": 5167,
      "##ronic": 5168,
      "Denis": 5169,
      "ministerial": 5170,
      "Ann": 5171,
      "##hips": 5172,
      "##idency": 5173,
      "Vote": 5174,
      "stations": 5175,
      "negative": 5176,
      "lands": 5177,
      "Lyn": 5178,
      "consensus": 5179,
      "Care": 5180,
      "farmer": 5181,
      "##reet": 5182,
      "1968": 5183,
      "Housing": 5184,
      "explo": 5185,
      "teleph": 5186,
      "regret": 5187,
      "maintained": 5188,
      "calc": 5189,
      "argue": 5190,
      "##irth": 5191,
      "volunte": 5192,
      "released": 5193,
      "bott": 5194,
      "licens": 5195,
      "registration": 5196,
      "Charter": 5197,
      "Stephen": 5198,
      "incomes": 5199,
      "universal": 5200,
      "Kelly": 5201,
      "outcomes": 5202,
      "Stat": 5203,
      "universities": 5204,
      "situations": 5205,
      "##ifications": 5206,
      "welcomed": 5207,
      "firms": 5208,
      "fixed": 5209,
      "province": 5210,
      "prec": 5211,
      "Han": 5212,
      "convers": 5213,
      "involving": 5214,
      "medium": 5215,
      "increasingly": 5216,
      "refers": 5217,
      "expansion": 5218,
      "##ested": 5219,
      "investments": 5220,
      "Ste": 5221,
      "bureau": 5222,
      "fewer": 5223,
      "##part": 5224,
      "achieving": 5225,
      "##abb": 5226,
      "enact": 5227,
      "##ipl": 5228,
      "shadow": 5229,
      "actual": 5230,
      "accident": 5231,
      "deeply": 5232,
      "Having": 5233,
      "suitable": 5234,
      "Force": 5235,
      "clarify": 5236,
      "##iat": 5237,
      "grad": 5238,
      "Flan": 5239,
      "Christmas": 5240,
      "##ederation": 5241,
      "##eann": 5242,
      "departments": 5243,
      "catch": 5244,
      "##ya": 5245,
      "constructive": 5246,
      "chairman": 5247,
      "core": 5248,
      "straight": 5249,
      "door": 5250,
      "attach": 5251,
      "Flanagan": 5252,
      "anticip": 5253,
      "##br": 5254,
      "uncertain": 5255,
      "closure": 5256,
      "series": 5257,
      "##pat": 5258,
      "fort": 5259,
      "redund": 5260,
      "Mitchell": 5261,
      "acts": 5262,
      "milk": 5263,
      "involvement": 5264,
      "conclude": 5265,
      "##inated": 5266,
      "decade": 5267,
      "##anim": 5268,
      "Motion": 5269,
      "notes": 5270,
      "tariff": 5271,
      "vehicle": 5272,
      "Der": 5273,
      "##gis": 5274,
      "Profess": 5275,
      "legitimate": 5276,
      "Despite": 5277,
      "disabilities": 5278,
      "pandemic": 5279,
      "psych": 5280,
      "turned": 5281,
      "ii": 5282,
      "principal": 5283,
      "voice": 5284,
      "##OU": 5285,
      "advise": 5286,
      "##roc": 5287,
      "tough": 5288,
      "fraud": 5289,
      "Heritage": 5290,
      "##uls": 5291,
      "homeless": 5292,
      "##ictions": 5293,
      "dele": 5294,
      "Deb": 5295,
      "distin": 5296,
      "passing": 5297,
      "##uckland": 5298,
      "1969": 5299,
      "truly": 5300,
      "innovation": 5301,
      "appeals": 5302,
      "##arr": 5303,
      "veterans": 5304,
      "##icking": 5305,
      "##aration": 5306,
      "finding": 5307,
      "mine": 5308,
      "expertise": 5309,
      "##IP": 5310,
      "sanctions": 5311,
      "##rees": 5312,
      "vacc": 5313,
      "Kenn": 5314,
      "afraid": 5315,
      "Organization": 5316,
      "cli": 5317,
      "##cedent": 5318,
      "desire": 5319,
      "##ocks": 5320,
      "gain": 5321,
      "prohib": 5322,
      "Limerick": 5323,
      "##annuation": 5324,
      "Catherine": 5325,
      "##esty": 5326,
      "promoting": 5327,
      "##eli": 5328,
      "Assist": 5329,
      "namely": 5330,
      "premises": 5331,
      "broken": 5332,
      "reiter": 5333,
      "implementing": 5334,
      "Wil": 5335,
      "submit": 5336,
      "cabinet": 5337,
      "##lor": 5338,
      "tenants": 5339,
      "Germany": 5340,
      "diss": 5341,
      "scrutiny": 5342,
      "##adequ": 5343,
      "##off": 5344,
      "##necess": 5345,
      "hit": 5346,
      "wonderful": 5347,
      "##icted": 5348,
      "acad": 5349,
      "Comhairle": 5350,
      "yes": 5351,
      "promises": 5352,
      "Rail": 5353,
      "##room": 5354,
      "unfortunately": 5355,
      "discover": 5356,
      "##enty": 5357,
      "Victor": 5358,
      "careful": 5359,
      "Auckland": 5360,
      "1976": 5361,
      "securing": 5362,
      "##laced": 5363,
      "ball": 5364,
      "limits": 5365,
      "divers": 5366,
      "Officer": 5367,
      "##ternal": 5368,
      "records": 5369,
      "becomes": 5370,
      "euro": 5371,
      "Brex": 5372,
      "peacekeep": 5373,
      "estimates": 5374,
      "Tour": 5375,
      "pretty": 5376,
      "Interjections": 5377,
      "collective": 5378,
      "##adh": 5379,
      "pursue": 5380,
      "##irable": 5381,
      "mission": 5382,
      "##rentices": 5383,
      "Bloc": 5384,
      "debated": 5385,
      "##onan": 5386,
      "fast": 5387,
      "unanim": 5388,
      "Dist": 5389,
      "submissions": 5390,
      "contains": 5391,
      "suffered": 5392,
      "Third": 5393,
      "##olid": 5394,
      "insert": 5395,
      "##enses": 5396,
      "VAT": 5397,
      "names": 5398,
      "##usion": 5399,
      "belief": 5400,
      "Instead": 5401,
      "##pet": 5402,
      "decades": 5403,
      "presence": 5404,
      "planned": 5405,
      "double": 5406,
      "Civil": 5407,
      "understood": 5408,
      "push": 5409,
      "discret": 5410,
      "##iliation": 5411,
      "experts": 5412,
      "tend": 5413,
      "slow": 5414,
      "Imp": 5415,
      "wrote": 5416,
      "ire": 5417,
      "block": 5418,
      "##wood": 5419,
      "whereby": 5420,
      "fee": 5421,
      "cutting": 5422,
      "Yet": 5423,
      "##ua": 5424,
      "Quinn": 5425,
      "cours": 5426,
      "thinks": 5427,
      "inadequ": 5428,
      "jurisdiction": 5429,
      "##iring": 5430,
      "equally": 5431,
      "grand": 5432,
      "ruling": 5433,
      "objection": 5434,
      "##ollowing": 5435,
      "strike": 5436,
      "targeted": 5437,
      "processing": 5438,
      "##rates": 5439,
      "aimed": 5440,
      "dispos": 5441,
      "brings": 5442,
      "votes": 5443,
      "Hogan": 5444,
      "unique": 5445,
      "flow": 5446,
      "prede": 5447,
      "##ION": 5448,
      "SA": 5449,
      "Commerce": 5450,
      "##burgh": 5451,
      "Works": 5452,
      "confident": 5453,
      "relatively": 5454,
      "##areness": 5455,
      "1952": 5456,
      "refugees": 5457,
      "cars": 5458,
      "##ropri": 5459,
      "smaller": 5460,
      "Ber": 5461,
      "Day": 5462,
      "unnecess": 5463,
      "profits": 5464,
      "internal": 5465,
      "Brexit": 5466,
      "advanced": 5467,
      "tribunal": 5468,
      "customers": 5469,
      "valid": 5470,
      "impose": 5471,
      "secret": 5472,
      "extensive": 5473,
      "webs": 5474,
      "qualified": 5475,
      "inclusive": 5476,
      "gross": 5477,
      "blo": 5478,
      "consequence": 5479,
      "terrib": 5480,
      "##any": 5481,
      "engagement": 5482,
      "##erous": 5483,
      "##och": 5484,
      "publication": 5485,
      "##alla": 5486,
      "serving": 5487,
      "forg": 5488,
      "##uct": 5489,
      "peaceful": 5490,
      "reporting": 5491,
      "dipl": 5492,
      "civilians": 5493,
      "showed": 5494,
      "playing": 5495,
      "played": 5496,
      "discretion": 5497,
      "Kil": 5498,
      "Galway": 5499,
      "mother": 5500,
      "Hill": 5501,
      "##house": 5502,
      "##non": 5503,
      "precisely": 5504,
      "residential": 5505,
      "eval": 5506,
      "flexibility": 5507,
      "director": 5508,
      "love": 5509,
      "##ero": 5510,
      "Sport": 5511,
      "##respond": 5512,
      "pursu": 5513,
      "Treaty": 5514,
      "sto": 5515,
      "ultimately": 5516,
      "Regional": 5517,
      "accur": 5518,
      "starting": 5519,
      "producers": 5520,
      "##orders": 5521,
      "##ffe": 5522,
      "equival": 5523,
      "ireann": 5524,
      "Professor": 5525,
      "indigenous": 5526,
      "lit": 5527,
      "testing": 5528,
      "Gaeltacht": 5529,
      "nurses": 5530,
      "Family": 5531,
      "administer": 5532,
      "##uous": 5533,
      "hot": 5534,
      "offenders": 5535,
      "surprised": 5536,
      "fighting": 5537,
      "corporate": 5538,
      "somewhat": 5539,
      "undertaking": 5540,
      "##olved": 5541,
      "##anda": 5542,
      "frequ": 5543,
      "adoption": 5544,
      "speakers": 5545,
      "route": 5546,
      "Surely": 5547,
      "copy": 5548,
      "##ding": 5549,
      "Following": 5550,
      "Rob": 5551,
      "households": 5552,
      "2024": 5553,
      "politicians": 5554,
      "corporation": 5555,
      "der": 5556,
      "##veney": 5557,
      "lawy": 5558,
      "invite": 5559,
      "##ront": 5560,
      "Cavan": 5561,
      "predecess": 5562,
      "traditional": 5563,
      "##coming": 5564,
      "Good": 5565,
      "Daly": 5566,
      "##ancies": 5567,
      "sk": 5568,
      "oppose": 5569,
      "bul": 5570,
      "1967": 5571,
      "##ception": 5572,
      "allowances": 5573,
      "goal": 5574,
      "looks": 5575,
      "cattle": 5576,
      "##theless": 5577,
      "Saf": 5578,
      "minority": 5579,
      "##etary": 5580,
      "perfectly": 5581,
      "premium": 5582,
      "sentence": 5583,
      "judicial": 5584,
      "pound": 5585,
      "holiday": 5586,
      "carers": 5587,
      "Once": 5588,
      "daily": 5589,
      "largely": 5590,
      "types": 5591,
      "pict": 5592,
      "Iran": 5593,
      "discrimination": 5594,
      "##endous": 5595,
      "radio": 5596,
      "workforce": 5597,
      "##TE": 5598,
      "Hay": 5599,
      "structures": 5600,
      "conflicts": 5601,
      "phase": 5602,
      "##abling": 5603,
      "expensive": 5604,
      "factor": 5605,
      "ng": 5606,
      "##here": 5607,
      "##foli": 5608,
      "minute": 5609,
      "correspond": 5610,
      "encouraged": 5611,
      "##outhern": 5612,
      "dog": 5613,
      "Welsh": 5614,
      "envis": 5615,
      "saving": 5616,
      "productivity": 5617,
      "ge": 5618,
      "##apan": 5619,
      "Ref": 5620,
      "Som": 5621,
      "larger": 5622,
      "prosperity": 5623,
      "acting": 5624,
      "deem": 5625,
      "economies": 5626,
      "##orig": 5627,
      "##chna": 5628,
      "accomp": 5629,
      "##itte": 5630,
      "courses": 5631,
      "##rap": 5632,
      "superv": 5633,
      "positions": 5634,
      "Convention": 5635,
      "Exp": 5636,
      "spons": 5637,
      "Joint": 5638,
      "inher": 5639,
      "urgency": 5640,
      "murder": 5641,
      "Islands": 5642,
      "occur": 5643,
      "competit": 5644,
      "attended": 5645,
      "items": 5646,
      "vill": 5647,
      "##ball": 5648,
      "recip": 5649,
      "Heal": 5650,
      "sole": 5651,
      "barri": 5652,
      "desper": 5653,
      "absence": 5654,
      "##ike": 5655,
      "Japan": 5656,
      "awareness": 5657,
      "thanks": 5658,
      "accountable": 5659,
      "Syria": 5660,
      "##lam": 5661,
      "##umed": 5662,
      "##lon": 5663,
      "ende": 5664,
      "Sud": 5665,
      "Management": 5666,
      "losses": 5667,
      "representing": 5668,
      "Who": 5669,
      "##orters": 5670,
      "applicants": 5671,
      "highlighted": 5672,
      "##herty": 5673,
      "manif": 5674,
      "expenses": 5675,
      "write": 5676,
      "sharing": 5677,
      "Sochna": 5678,
      "##lant": 5679,
      "apprentices": 5680,
      "##uair": 5681,
      "Ferg": 5682,
      "##uk": 5683,
      "##orth": 5684,
      "sources": 5685,
      "##lord": 5686,
      "closing": 5687,
      "Willie": 5688,
      "bureaucr": 5689,
      "aside": 5690,
      "budgets": 5691,
      "existence": 5692,
      "island": 5693,
      "formal": 5694,
      "animals": 5695,
      "1962": 5696,
      "Lynch": 5697,
      "Administration": 5698,
      "##ouncill": 5699,
      "Lou": 5700,
      "##bury": 5701,
      "mut": 5702,
      "##igned": 5703,
      "certificate": 5704,
      "##iced": 5705,
      "integrated": 5706,
      "launched": 5707,
      "Fitzg": 5708,
      "inequ": 5709,
      "Noonan": 5710,
      "surely": 5711,
      "##ox": 5712,
      "prisoners": 5713,
      "##isons": 5714,
      "##aur": 5715,
      "Bills": 5716,
      "solid": 5717,
      "admit": 5718,
      "mining": 5719,
      "subsidy": 5720,
      "dram": 5721,
      "Clause": 5722,
      "greatly": 5723,
      "collab": 5724,
      "liter": 5725,
      "Wood": 5726,
      "invested": 5727,
      "##viously": 5728,
      "intends": 5729,
      "##unday": 5730,
      "trial": 5731,
      "decline": 5732,
      "##iations": 5733,
      "##ela": 5734,
      "confirmed": 5735,
      "MPs": 5736,
      "Tourism": 5737,
      "ed": 5738,
      "Peace": 5739,
      "##back": 5740,
      "Dono": 5741,
      "penalty": 5742,
      "Dec": 5743,
      "##MP": 5744,
      "##umn": 5745,
      "restrictions": 5746,
      "inev": 5747,
      "Institute": 5748,
      "##AS": 5749,
      "Invest": 5750,
      "capable": 5751,
      "Gilmore": 5752,
      "spread": 5753,
      "unlike": 5754,
      "troops": 5755,
      "sales": 5756,
      "criticism": 5757,
      "birth": 5758,
      "##minster": 5759,
      "##fortunate": 5760,
      "heavy": 5761,
      "text": 5762,
      "consultations": 5763,
      "et": 5764,
      "trem": 5765,
      "Like": 5766,
      "debating": 5767,
      "policing": 5768,
      "worker": 5769,
      "sports": 5770,
      "resulted": 5771,
      "termin": 5772,
      "##prises": 5773,
      "Treasurer": 5774,
      "According": 5775,
      "Queens": 5776,
      "perpet": 5777,
      "Sunday": 5778,
      "establishing": 5779,
      "regards": 5780,
      "definite": 5781,
      "##erved": 5782,
      "##original": 5783,
      "##rose": 5784,
      "Democratic": 5785,
      "promotion": 5786,
      "unre": 5787,
      "arch": 5788,
      "courage": 5789,
      "upgr": 5790,
      "##ocol": 5791,
      "unfortunate": 5792,
      "##urement": 5793,
      "prove": 5794,
      "##ishing": 5795,
      "estate": 5796,
      "Reading": 5797,
      "disadvantaged": 5798,
      "killed": 5799,
      "easier": 5800,
      "investing": 5801,
      "##oking": 5802,
      "sick": 5803,
      "trouble": 5804,
      "reve": 5805,
      "forec": 5806,
      "equivalent": 5807,
      "stood": 5808,
      "beef": 5809,
      "frust": 5810,
      "##IL": 5811,
      "began": 5812,
      "Alber": 5813,
      "heritage": 5814,
      "schedule": 5815,
      "Society": 5816,
      "telephone": 5817,
      "rely": 5818,
      "worried": 5819,
      "Only": 5820,
      "##etic": 5821,
      "website": 5822,
      "forum": 5823,
      "reconc": 5824,
      "properties": 5825,
      "street": 5826,
      "weak": 5827,
      "territory": 5828,
      "##inced": 5829,
      "recognize": 5830,
      "##TER": 5831,
      "landlord": 5832,
      "disch": 5833,
      "Cost": 5834,
      "contributed": 5835,
      "##ardship": 5836,
      "hur": 5837,
      "estimate": 5838,
      "##lementary": 5839,
      "COVID": 5840,
      "##imh": 5841,
      "sinc": 5842,
      "assume": 5843,
      "##ieties": 5844,
      "writing": 5845,
      "Ser": 5846,
      "maintaining": 5847,
      "completion": 5848,
      "search": 5849,
      "gun": 5850,
      "##rating": 5851,
      "1963": 5852,
      "##PP": 5853,
      "Treacy": 5854,
      "railway": 5855,
      "##irk": 5856,
      "Shatter": 5857,
      "relate": 5858,
      "manifest": 5859,
      "##ylum": 5860,
      "overs": 5861,
      "1977": 5862,
      "##oned": 5863,
      "Women": 5864,
      "##ek": 5865,
      "indication": 5866,
      "religious": 5867,
      "distribution": 5868,
      "God": 5869,
      "District": 5870,
      "superannuation": 5871,
      "##iders": 5872,
      "shock": 5873,
      "title": 5874,
      "##imates": 5875,
      "streets": 5876,
      "imagine": 5877,
      "persu": 5878,
      "Job": 5879,
      "##dney": 5880,
      "NAT": 5881,
      "traged": 5882,
      "##uter": 5883,
      "concess": 5884,
      "declared": 5885,
      "##olic": 5886,
      "Boyd": 5887,
      "partner": 5888,
      "posts": 5889,
      "##echn": 5890,
      "constituencies": 5891,
      "named": 5892,
      "mechanisms": 5893,
      "Official": 5894,
      "##osure": 5895,
      "dign": 5896,
      "usual": 5897,
      "transferred": 5898,
      "defined": 5899,
      "plat": 5900,
      "judges": 5901,
      "spokes": 5902,
      "##gies": 5903,
      "dependent": 5904,
      "corruption": 5905,
      "disagree": 5906,
      "##apt": 5907,
      "Information": 5908,
      "briefing": 5909,
      "deaths": 5910,
      "wat": 5911,
      "Island": 5912,
      "pilot": 5913,
      "location": 5914,
      "##habilit": 5915,
      "##ona": 5916,
      "gri": 5917,
      "Democrats": 5918,
      "multip": 5919,
      "##cher": 5920,
      "disg": 5921,
      "Westminster": 5922,
      "##reshold": 5923,
      "strengthening": 5924,
      "decre": 5925,
      "##ircraft": 5926,
      "lies": 5927,
      "comply": 5928,
      "##folio": 5929,
      "Er": 5930,
      "Resources": 5931,
      "##ori": 5932,
      "cease": 5933,
      "##era": 5934,
      "resolutions": 5935,
      "1950": 5936,
      "Here": 5937,
      "##airy": 5938,
      "Jud": 5939,
      "##icing": 5940,
      "PA": 5941,
      "##inburgh": 5942,
      "Applause": 5943,
      "##add": 5944,
      "employee": 5945,
      "##ola": 5946,
      "##urers": 5947,
      "allegations": 5948,
      "##aded": 5949,
      "Edinburgh": 5950,
      "girls": 5951,
      "##utation": 5952,
      "Reilly": 5953,
      "ves": 5954,
      "lowest": 5955,
      "##yes": 5956,
      "argued": 5957,
      "cas": 5958,
      "practition": 5959,
      "fairness": 5960,
      "Sydney": 5961,
      "crimin": 5962,
      "##unction": 5963,
      "association": 5964,
      "suggests": 5965,
      "##CO": 5966,
      "1973": 5967,
      "##arters": 5968,
      "Major": 5969,
      "combat": 5970,
      "Furthermore": 5971,
      "feeling": 5972,
      "Monday": 5973,
      "widely": 5974,
      "convinced": 5975,
      "explained": 5976,
      "neither": 5977,
      "Queensland": 5978,
      "equity": 5979,
      "anxious": 5980,
      "returned": 5981,
      "born": 5982,
      "Ac": 5983,
      "Chris": 5984,
      "Doherty": 5985,
      "broadcast": 5986,
      "threats": 5987,
      "##hoe": 5988,
      "sac": 5989,
      "Ken": 5990,
      "civilian": 5991,
      "##igan": 5992,
      "##anging": 5993,
      "regarded": 5994,
      "contrary": 5995,
      "nursing": 5996,
      "GDP": 5997,
      "##izing": 5998,
      "clauses": 5999,
      "outline": 6000,
      "liability": 6001,
      "audit": 6002,
      "##abil": 6003,
      "recession": 6004,
      "generations": 6005,
      "applicant": 6006,
      "Was": 6007,
      "forecast": 6008,
      "prescrib": 6009,
      "Lenihan": 6010,
      "threshold": 6011,
      "fal": 6012,
      "proposing": 6013,
      "##lock": 6014,
      "##osition": 6015,
      "Gra": 6016,
      "entry": 6017,
      "died": 6018,
      "##andal": 6019,
      "Orders": 6020,
      "College": 6021,
      "Short": 6022,
      "involves": 6023,
      "believed": 6024,
      "exception": 6025,
      "aband": 6026,
      "Ukraine": 6027,
      "Hugh": 6028,
      "online": 6029,
      "##night": 6030,
      "peacekeeping": 6031,
      "terrible": 6032,
      "##how": 6033,
      "recruitment": 6034,
      "Fitzgerald": 6035,
      "aircraft": 6036,
      "briefly": 6037,
      "investigate": 6038,
      "claimed": 6039,
      "Clear": 6040,
      "findings": 6041,
      "disaster": 6042,
      "Neil": 6043,
      "Trust": 6044,
      "Rural": 6045,
      "shares": 6046,
      "achievement": 6047,
      "Sudan": 6048,
      "surround": 6049,
      "nobody": 6050,
      "grave": 6051,
      "Communications": 6052,
      "compuls": 6053,
      "fault": 6054,
      "inadequate": 6055,
      "Front": 6056,
      "Street": 6057,
      "##aled": 6058,
      "dedicated": 6059,
      "asylum": 6060,
      "Imm": 6061,
      "licences": 6062,
      "Rabb": 6063,
      "marriage": 6064,
      "##gl": 6065,
      "##ournment": 6066,
      "Estimates": 6067,
      "incident": 6068,
      "##EY": 6069,
      "keen": 6070,
      "obst": 6071,
      "unnecessary": 6072,
      "Margar": 6073,
      "Obviously": 6074,
      "coord": 6075,
      "picture": 6076,
      "Russia": 6077,
      "suggesting": 6078,
      "##aud": 6079,
      "##iors": 6080,
      "1935": 6081,
      "appointments": 6082,
      "owner": 6083,
      "Techn": 6084,
      "Done": 6085,
      "disappointed": 6086,
      "Byr": 6087,
      "explanation": 6088,
      "##ventions": 6089,
      "Coveney": 6090,
      "dramatic": 6091,
      "reviewed": 6092,
      "digital": 6093,
      "##eds": 6094,
      "complic": 6095,
      "instruct": 6096,
      "##ournal": 6097,
      "##emy": 6098,
      "##ursday": 6099,
      "contain": 6100,
      "Seanad": 6101,
      "blame": 6102,
      "##ipping": 6103,
      "driven": 6104,
      "bi": 6105,
      "intelligence": 6106,
      "powerful": 6107,
      "restore": 6108,
      "salary": 6109,
      "isol": 6110,
      "territories": 6111,
      "Wallace": 6112,
      "quant": 6113,
      "1933": 6114,
      "Schedule": 6115,
      "easily": 6116,
      "1949": 6117,
      "acknowledged": 6118,
      "Howard": 6119,
      "##aves": 6120,
      "squ": 6121,
      "Could": 6122,
      "Safety": 6123,
      "historic": 6124,
      "submission": 6125,
      "Byrne": 6126,
      "##astern": 6127,
      "Coast": 6128,
      "tremendous": 6129,
      "Sn": 6130,
      "##ores": 6131,
      "entered": 6132,
      "renewable": 6133,
      "advertising": 6134,
      "install": 6135,
      "Sal": 6136,
      "resolved": 6137,
      "devast": 6138,
      "wife": 6139,
      "##oly": 6140,
      "Adams": 6141,
      "Desmond": 6142,
      "rose": 6143,
      "Margaret": 6144,
      "Gar": 6145,
      "animal": 6146,
      "Rabbitte": 6147,
      "##others": 6148,
      "##anga": 6149,
      "opened": 6150,
      "ended": 6151,
      "##inery": 6152,
      "expense": 6153,
      "minds": 6154,
      "publicly": 6155,
      "Mer": 6156,
      "safeguard": 6157,
      "Shannon": 6158,
      "organised": 6159,
      "gather": 6160,
      "##bours": 6161,
      "perspective": 6162,
      "##wing": 6163,
      "scientific": 6164,
      "Thursday": 6165,
      "obtained": 6166,
      "Liam": 6167,
      "match": 6168,
      "necessity": 6169,
      "Whip": 6170,
      "Curr": 6171,
      "alter": 6172,
      "Pear": 6173,
      "fisheries": 6174,
      "##LA": 6175,
      "##ingu": 6176,
      "Fergus": 6177,
      "margin": 6178,
      "compon": 6179,
      "solve": 6180,
      "Estimate": 6181,
      "prep": 6182,
      "##IE": 6183,
      "effectiveness": 6184,
      "1936": 6185,
      "##dd": 6186,
      "Govern": 6187,
      "subsequent": 6188,
      "Haugh": 6189,
      "Hayes": 6190,
      "financing": 6191,
      "reflected": 6192,
      "bottom": 6193,
      "trained": 6194,
      "undermin": 6195,
      "condemn": 6196,
      "illness": 6197,
      "actively": 6198,
      "nar": 6199,
      "ali": 6200,
      "category": 6201,
      "Haughey": 6202,
      "##pro": 6203,
      "Lords": 6204,
      "Federation": 6205,
      "speaker": 6206,
      "discip": 6207,
      "disposal": 6208,
      "Israeli": 6209,
      "Anth": 6210,
      "false": 6211,
      "deemed": 6212,
      "Gerry": 6213,
      "demonstrated": 6214,
      "interrupt": 6215,
      "aspir": 6216,
      "dro": 6217,
      "memor": 6218,
      "Skill": 6219,
      "Middle": 6220,
      "fulfil": 6221,
      "heads": 6222,
      "exerc": 6223,
      "lie": 6224,
      "puts": 6225,
      "kids": 6226,
      "assessed": 6227,
      "incorp": 6228,
      "Bord": 6229,
      "recorded": 6230,
      "payable": 6231,
      "Kerry": 6232,
      "##eff": 6233,
      "apart": 6234,
      "##uate": 6235,
      "entitlement": 6236,
      "sanction": 6237,
      "##yle": 6238,
      "violent": 6239,
      "platform": 6240,
      "capt": 6241,
      "##ocational": 6242,
      "##ologies": 6243,
      "##ahy": 6244,
      "supplies": 6245,
      "stronger": 6246,
      "substitute": 6247,
      "Research": 6248,
      "1961": 6249,
      "##uds": 6250,
      "denied": 6251,
      "##illing": 6252,
      "destruction": 6253,
      "Sup": 6254,
      "western": 6255,
      "##ux": 6256,
      "##cription": 6257,
      "subsequently": 6258,
      "minim": 6259,
      "sorts": 6260,
      "vers": 6261,
      "automatic": 6262,
      "interim": 6263,
      "empower": 6264,
      "##ulating": 6265,
      "Anthony": 6266,
      "##uesday": 6267,
      "selling": 6268,
      "repay": 6269,
      "Bay": 6270,
      "intervene": 6271,
      "Pay": 6272,
      "##ests": 6273,
      "##ama": 6274,
      "robust": 6275,
      "penalties": 6276,
      "##ador": 6277,
      "pollution": 6278,
      "##ILL": 6279,
      "Min": 6280,
      "beds": 6281,
      "commissioner": 6282,
      "twice": 6283,
      "season": 6284,
      "oversight": 6285,
      "cat": 6286,
      "Pen": 6287,
      "Did": 6288,
      "fif": 6289,
      "comprom": 6290,
      "##cont": 6291,
      "##amilton": 6292,
      "Maori": 6293,
      "councill": 6294,
      "ment": 6295,
      "blood": 6296,
      "van": 6297,
      "pharm": 6298,
      "papers": 6299,
      "##DC": 6300,
      "mainly": 6301,
      "pock": 6302,
      "Healy": 6303,
      "mistake": 6304,
      "broadband": 6305,
      "1951": 6306,
      "white": 6307,
      "balanced": 6308,
      "directive": 6309,
      "citizen": 6310,
      "Tuesday": 6311,
      "insist": 6312,
      "stim": 6313,
      "##ationally": 6314,
      "sovereignty": 6315,
      "career": 6316,
      "Cath": 6317,
      "remov": 6318,
      "delays": 6319,
      "drivers": 6320,
      "pressures": 6321,
      "Eastern": 6322,
      "Auditor": 6323,
      "satisfactory": 6324,
      "fle": 6325,
      "flag": 6326,
      "drop": 6327,
      "Hel": 6328,
      "substantially": 6329,
      "consolid": 6330,
      "SM": 6331,
      "Through": 6332,
      "passion": 6333,
      "offers": 6334,
      "frank": 6335,
      "workplace": 6336,
      "borrowing": 6337,
      "##ulous": 6338,
      "acute": 6339,
      "operators": 6340,
      "justify": 6341,
      "Bos": 6342,
      "thorough": 6343,
      "##arth": 6344,
      "Youth": 6345,
      "##gha": 6346,
      "broader": 6347,
      "slightly": 6348,
      "passage": 6349,
      "##aigh": 6350,
      "Appeal": 6351,
      "directed": 6352,
      "Clearly": 6353,
      "Hamilton": 6354,
      "zero": 6355,
      "##acco": 6356,
      "Ins": 6357,
      "AS": 6358,
      "Never": 6359,
      "certainty": 6360,
      "tackling": 6361,
      "admitted": 6362,
      "Support": 6363,
      "aims": 6364,
      "studies": 6365,
      "Tory": 6366,
      "##edul": 6367,
      "enterprises": 6368,
      "##ien": 6369,
      "River": 6370,
      "##iel": 6371,
      "demonstrate": 6372,
      "pled": 6373,
      "##patrick": 6374,
      "victim": 6375,
      "methods": 6376,
      "Dar": 6377,
      "Independ": 6378,
      "losing": 6379,
      "uncertainty": 6380,
      "permit": 6381,
      "apparently": 6382,
      "reductions": 6383,
      "instrument": 6384,
      "##ashion": 6385,
      "governing": 6386,
      "chem": 6387,
      "Both": 6388,
      "foundation": 6389,
      "##rog": 6390,
      "##awa": 6391,
      "consulted": 6392,
      "II": 6393,
      "conservation": 6394,
      "Dam": 6395,
      "##acific": 6396,
      "college": 6397,
      "procurement": 6398,
      "game": 6399,
      "Skills": 6400,
      "input": 6401,
      "bond": 6402,
      "specified": 6403,
      "struggling": 6404,
      "Black": 6405,
      "kinds": 6406,
      "Cu": 6407,
      "##nic": 6408,
      "Ontar": 6409,
      "1956": 6410,
      "lists": 6411,
      "colleges": 6412,
      "arbit": 6413,
      "##xford": 6414,
      "Russian": 6415,
      "Prov": 6416,
      "##ays": 6417,
      "Caol": 6418,
      "regardless": 6419,
      "Ju": 6420,
      "phr": 6421,
      "weekend": 6422,
      "##fast": 6423,
      "Inc": 6424,
      "external": 6425,
      "1965": 6426,
      "##tt": 6427,
      "directors": 6428,
      "Fitzpatrick": 6429,
      "Interruption": 6430,
      "interview": 6431,
      "amongst": 6432,
      "recognises": 6433,
      "shop": 6434,
      "operated": 6435,
      "apologise": 6436,
      "Kee": 6437,
      "exped": 6438,
      "sin": 6439,
      "##Ent": 6440,
      "Kos": 6441,
      "GST": 6442,
      "suggestions": 6443,
      "MIN": 6444,
      "reflects": 6445,
      "showing": 6446,
      "##withstanding": 6447,
      "belong": 6448,
      "##agg": 6449,
      "Two": 6450,
      "emphasis": 6451,
      "stages": 6452,
      "Back": 6453,
      "gains": 6454,
      "Mayo": 6455,
      "##usal": 6456,
      "depos": 6457,
      "##Entee": 6458,
      "##ishment": 6459,
      "Rel": 6460,
      "Private": 6461,
      "father": 6462,
      "dignity": 6463,
      "##eto": 6464,
      "anywhere": 6465,
      "Jer": 6466,
      "expired": 6467,
      "communication": 6468,
      "##oto": 6469,
      "##AF": 6470,
      "rational": 6471,
      "##aut": 6472,
      "asset": 6473,
      "##under": 6474,
      "##ka": 6475,
      "removal": 6476,
      "failing": 6477,
      "Conference": 6478,
      "fashion": 6479,
      "northern": 6480,
      "alleged": 6481,
      "##wide": 6482,
      "##mot": 6483,
      "accordingly": 6484,
      "rehabilit": 6485,
      "mus": 6486,
      "##IM": 6487,
      "letters": 6488,
      "royal": 6489,
      "Pacific": 6490,
      "strict": 6491,
      "Cro": 6492,
      "Es": 6493,
      "dismiss": 6494,
      "Kosov": 6495,
      "##ander": 6496,
      "healthy": 6497,
      "struggle": 6498,
      "tragedy": 6499,
      "inclusion": 6500,
      "assured": 6501,
      "divided": 6502,
      "Kild": 6503,
      "lessons": 6504,
      "##RO": 6505,
      "Mul": 6506,
      "##osen": 6507,
      "##icide": 6508,
      "causing": 6509,
      "timely": 6510,
      "quoted": 6511,
      "ending": 6512,
      "Certain": 6513,
      "regularly": 6514,
      "Ontario": 6515,
      "##rid": 6516,
      "nomin": 6517,
      "##usse": 6518,
      "sensitive": 6519,
      "inquiries": 6520,
      "Strate": 6521,
      "mandatory": 6522,
      "bail": 6523,
      "race": 6524,
      "Kore": 6525,
      "bid": 6526,
      "##orter": 6527,
      "##lusions": 6528,
      "investigations": 6529,
      "1934": 6530,
      "seniors": 6531,
      "relationships": 6532,
      "##urning": 6533,
      "transparent": 6534,
      "accused": 6535,
      "Bet": 6536,
      "fallen": 6537,
      "ACT": 6538,
      "Account": 6539,
      "reli": 6540,
      "availability": 6541,
      "listed": 6542,
      "exemption": 6543,
      "Trib": 6544,
      "##raz": 6545,
      "tradition": 6546,
      "Mel": 6547,
      "##uries": 6548,
      "Ky": 6549,
      "Chin": 6550,
      "##asc": 6551,
      "warm": 6552,
      "awarded": 6553,
      "NATO": 6554,
      "##building": 6555,
      "##áin": 6556,
      "pull": 6557,
      "weight": 6558,
      "##onsense": 6559,
      "identity": 6560,
      "constituent": 6561,
      "update": 6562,
      "usually": 6563,
      "toler": 6564,
      "##shore": 6565,
      "adapt": 6566,
      "Cull": 6567,
      "##resh": 6568,
      "Ruair": 6569,
      "proved": 6570,
      "withdrawn": 6571,
      "farms": 6572,
      "desirable": 6573,
      "Add": 6574,
      "quota": 6575,
      "charter": 6576,
      "joined": 6577,
      "aggr": 6578,
      "finances": 6579,
      "differences": 6580,
      "sincere": 6581,
      "1924": 6582,
      "fant": 6583,
      "successfully": 6584,
      "##udd": 6585,
      "classes": 6586,
      "users": 6587,
      "##aint": 6588,
      "stories": 6589,
      "##igrants": 6590,
      "Forest": 6591,
      "Ng": 6592,
      "meaningful": 6593,
      "tob": 6594,
      "whereas": 6595,
      "earnings": 6596,
      "bab": 6597,
      "eye": 6598,
      "endeavour": 6599,
      "impacts": 6600,
      "cards": 6601,
      "potentially": 6602,
      "##iling": 6603,
      "##osis": 6604,
      "primarily": 6605,
      "raises": 6606,
      "##ication": 6607,
      "uk": 6608,
      "reiterate": 6609,
      "variety": 6610,
      "depri": 6611,
      "dairy": 6612,
      "mix": 6613,
      "inspection": 6614,
      "considers": 6615,
      "fourth": 6616,
      "arts": 6617,
      "Bol": 6618,
      "ES": 6619,
      "declaration": 6620,
      "collection": 6621,
      "jour": 6622,
      "Arts": 6623,
      "##onsider": 6624,
      "##mon": 6625,
      "Senator": 6626,
      "comfort": 6627,
      "integration": 6628,
      "clarity": 6629,
      "cast": 6630,
      "Tor": 6631,
      "personally": 6632,
      "reaching": 6633,
      "##nan": 6634,
      "candidates": 6635,
      "doctor": 6636,
      "disgrace": 6637,
      "generous": 6638,
      "Supreme": 6639,
      "rejected": 6640,
      "preparation": 6641,
      "boost": 6642,
      "consistently": 6643,
      "borders": 6644,
      "Adj": 6645,
      "affects": 6646,
      "requests": 6647,
      "incentive": 6648,
      "prepare": 6649,
      "##eful": 6650,
      "McDonald": 6651,
      "communications": 6652,
      "books": 6653,
      "##dden": 6654,
      "Ruairí": 6655,
      "substance": 6656,
      "detention": 6657,
      "Young": 6658,
      "Regulations": 6659,
      "##mbuds": 6660,
      "Burke": 6661,
      "tests": 6662,
      "##ingham": 6663,
      "appalling": 6664,
      "numerous": 6665,
      "##ails": 6666,
      "##lihood": 6667,
      "controlled": 6668,
      "Indigenous": 6669,
      "narrow": 6670,
      "1960": 6671,
      "Cape": 6672,
      "##erted": 6673,
      "##hr": 6674,
      "bhf": 6675,
      "instances": 6676,
      "innoc": 6677,
      "salaries": 6678,
      "predecessor": 6679,
      "designated": 6680,
      "##anged": 6681,
      "##anna": 6682,
      "##OD": 6683,
      "##rete": 6684,
      "falling": 6685,
      "##works": 6686,
      "portfolio": 6687,
      "##appropri": 6688,
      "compe": 6689,
      "##orse": 6690,
      "moral": 6691,
      "marketing": 6692,
      "lock": 6693,
      "##IV": 6694,
      "Wilson": 6695,
      "producing": 6696,
      "chosen": 6697,
      "Bob": 6698,
      "trend": 6699,
      "machinery": 6700,
      "Review": 6701,
      "1946": 6702,
      "thereby": 6703,
      "##ilty": 6704,
      "##chester": 6705,
      "##whel": 6706,
      "##arity": 6707,
      "materials": 6708,
      "incomp": 6709,
      "maybe": 6710,
      "##RE": 6711,
      "fem": 6712,
      "##ites": 6713,
      "##tr": 6714,
      "amaz": 6715,
      "Supplementary": 6716,
      "stream": 6717,
      "Kennedy": 6718,
      "sem": 6719,
      "revised": 6720,
      "withdrawal": 6721,
      "neglect": 6722,
      "Kosovo": 6723,
      "convey": 6724,
      "normally": 6725,
      "leis": 6726,
      "soft": 6727,
      "Article": 6728,
      "##isan": 6729,
      "Mick": 6730,
      "##umber": 6731,
      "hardship": 6732,
      "##rem": 6733,
      "caught": 6734,
      "spect": 6735,
      "Seamus": 6736,
      "illust": 6737,
      "winter": 6738,
      "goals": 6739,
      "##ulum": 6740,
      "##oubted": 6741,
      "hoped": 6742,
      "##igation": 6743,
      "misle": 6744,
      "interventions": 6745,
      "##itably": 6746,
      "shortage": 6747,
      "Marine": 6748,
      "invited": 6749,
      "##FF": 6750,
      "legacy": 6751,
      "Action": 6752,
      "sudden": 6753,
      "citizenship": 6754,
      "tender": 6755,
      "##akers": 6756,
      "Browne": 6757,
      "EEC": 6758,
      "sacrif": 6759,
      "tobacco": 6760,
      "linked": 6761,
      "1928": 6762,
      "Oli": 6763,
      "earth": 6764,
      "Go": 6765,
      "Polic": 6766,
      "weekly": 6767,
      "incidents": 6768,
      "Ian": 6769,
      "formula": 6770,
      "##igor": 6771,
      "Donegal": 6772,
      "ded": 6773,
      "president": 6774,
      "professionals": 6775,
      "dollar": 6776,
      "##olit": 6777,
      "Keeffe": 6778,
      "Cao": 6779,
      "1964": 6780,
      "##iary": 6781,
      "Representative": 6782,
      "deserv": 6783,
      "panel": 6784,
      "Kildare": 6785,
      "Immigration": 6786,
      "1958": 6787,
      "##orations": 6788,
      "artic": 6789,
      "##20": 6790,
      "manager": 6791,
      "transform": 6792,
      "##fall": 6793,
      "Caoimh": 6794,
      "##ige": 6795,
      "##AL": 6796,
      "Alliance": 6797,
      "impression": 6798,
      "internationally": 6799,
      "Caoimhgh": 6800,
      "1941": 6801,
      "Valley": 6802,
      "Im": 6803,
      "miles": 6804,
      "forestry": 6805,
      "privatisation": 6806,
      "tools": 6807,
      "trafficking": 6808,
      "consultants": 6809,
      "concrete": 6810,
      "investors": 6811,
      "controls": 6812,
      "##while": 6813,
      "somehow": 6814,
      "prisons": 6815,
      "finish": 6816,
      "newspapers": 6817,
      "undermine": 6818,
      "barriers": 6819,
      "borough": 6820,
      "fost": 6821,
      "overwhel": 6822,
      "gall": 6823,
      "##ello": 6824,
      "##allow": 6825,
      "throw": 6826,
      "util": 6827,
      "deny": 6828,
      "affecting": 6829,
      "Edward": 6830,
      "cheap": 6831,
      "Jones": 6832,
      "offering": 6833,
      "agrees": 6834,
      "scandal": 6835,
      "Sher": 6836,
      "located": 6837,
      "##pread": 6838,
      "enhanced": 6839,
      "1959": 6840,
      "Natural": 6841,
      "##uity": 6842,
      "specialist": 6843,
      "fisher": 6844,
      "Franc": 6845,
      "cycle": 6846,
      "married": 6847,
      "dil": 6848,
      "##empl": 6849,
      "schedul": 6850,
      "Gerard": 6851,
      "##idespread": 6852,
      "Div": 6853,
      "ignored": 6854,
      "interpretation": 6855,
      "##rie": 6856,
      "monetary": 6857,
      "remote": 6858,
      "Chinese": 6859,
      "clock": 6860,
      "proof": 6861,
      "Without": 6862,
      "criminals": 6863,
      "repair": 6864,
      "missing": 6865,
      "Power": 6866,
      "qualifications": 6867,
      "fellow": 6868,
      "consumption": 6869,
      "restric": 6870,
      "incentives": 6871,
      "contrast": 6872,
      "##ithe": 6873,
      "advisory": 6874,
      "bigger": 6875,
      "refuse": 6876,
      "##ourned": 6877,
      "licensing": 6878,
      "contributing": 6879,
      "factory": 6880,
      "##oted": 6881,
      "##rage": 6882,
      "##iti": 6883,
      "Cos": 6884,
      "widespread": 6885,
      "pattern": 6886,
      "skilled": 6887,
      "cust": 6888,
      "ll": 6889,
      "Acting": 6890,
      "Sur": 6891,
      "originally": 6892,
      "India": 6893,
      "Stew": 6894,
      "##urd": 6895,
      "appeared": 6896,
      "mag": 6897,
      "Bren": 6898,
      "eventually": 6899,
      "Brien": 6900,
      "compr": 6901,
      "##engers": 6902,
      "sums": 6903,
      "bon": 6904,
      "wheat": 6905,
      "counties": 6906,
      "societies": 6907,
      "marine": 6908,
      "badly": 6909,
      "awa": 6910,
      "index": 6911,
      "Somal": 6912,
      "familiar": 6913,
      "resist": 6914,
      "reputation": 6915,
      "utter": 6916,
      "strategies": 6917,
      "Wed": 6918,
      "conscious": 6919,
      "Caoláin": 6920,
      "Caoimhghín": 6921,
      "CE": 6922,
      "##erative": 6923,
      "importantly": 6924,
      "competitiveness": 6925,
      "arrived": 6926,
      "##RC": 6927,
      "suppose": 6928,
      "Mat": 6929,
      "lasting": 6930,
      "Brennan": 6931,
      "Border": 6932,
      "liqu": 6933,
      "productive": 6934,
      "Camp": 6935,
      "##cy": 6936,
      "##apse": 6937,
      "outset": 6938,
      "ethnic": 6939,
      "##amer": 6940,
      "##mans": 6941,
      "##atures": 6942,
      "##grave": 6943,
      "compulsory": 6944,
      "##wi": 6945,
      "incredibly": 6946,
      "Sé": 6947,
      "etc": 6948,
      "reconciliation": 6949,
      "adverse": 6950,
      "Director": 6951,
      "garda": 6952,
      "Church": 6953,
      "wild": 6954,
      "BBC": 6955,
      "technologies": 6956,
      "soldiers": 6957,
      "diagn": 6958,
      "##ps": 6959,
      "viable": 6960,
      "sentences": 6961,
      "links": 6962,
      "mobile": 6963,
      "Also": 6964,
      "##cus": 6965,
      "Charli": 6966,
      "guilty": 6967,
      "chann": 6968,
      "petrol": 6969,
      "##het": 6970,
      "Gre": 6971,
      "1947": 6972,
      "staffing": 6973,
      "Stewart": 6974,
      "##ros": 6975,
      "Bosn": 6976,
      "reasonably": 6977,
      "journal": 6978,
      "moneys": 6979,
      "Charlie": 6980,
      "fru": 6981,
      "Policy": 6982,
      "##raw": 6983,
      "##ray": 6984,
      "enth": 6985,
      "##nesday": 6986,
      "retro": 6987,
      "acce": 6988,
      "innovative": 6989,
      "choices": 6990,
      "Farm": 6991,
      "underp": 6992,
      "##mbudsman": 6993,
      "eligibility": 6994,
      "Brough": 6995,
      "Tw": 6996,
      "Mill": 6997,
      "Dow": 6998,
      "Billy": 6999,
      "Mission": 7000,
      "returns": 7001,
      "warrant": 7002,
      "York": 7003,
      "witnesses": 7004,
      "##ugg": 7005,
      "constantly": 7006,
      "multi": 7007,
      "travelling": 7008,
      "Harris": 7009,
      "spl": 7010,
      "applying": 7011,
      "conclusions": 7012,
      "##jud": 7013,
      "prospects": 7014,
      "steel": 7015,
      "##lining": 7016,
      "nonsense": 7017,
      "1948": 7018,
      "McL": 7019,
      "jun": 7020,
      "popular": 7021,
      "##arians": 7022,
      "Finian": 7023,
      "grat": 7024,
      "attempts": 7025,
      "##ARD": 7026,
      "##bre": 7027,
      "Victoria": 7028,
      "complaint": 7029,
      "McM": 7030,
      "resume": 7031,
      "delete": 7032,
      "Sar": 7033,
      "seemed": 7034,
      "##oubtedly": 7035,
      "Mil": 7036,
      "managers": 7037,
      "closer": 7038,
      "##look": 7039,
      "feet": 7040,
      "sight": 7041,
      "stable": 7042,
      "##tery": 7043,
      "Anne": 7044,
      "##do": 7045,
      "Medic": 7046,
      "react": 7047,
      "stopped": 7048,
      "ant": 7049,
      "Legis": 7050,
      "Code": 7051,
      "remed": 7052,
      "1937": 7053,
      "unpre": 7054,
      "lod": 7055,
      "box": 7056,
      "secured": 7057,
      "adequately": 7058,
      "combined": 7059,
      "subsidies": 7060,
      "Wednesday": 7061,
      "son": 7062,
      "50": 7063,
      "ignore": 7064,
      "stamp": 7065,
      "Gree": 7066,
      "Costello": 7067,
      "output": 7068,
      "compete": 7069,
      "responded": 7070,
      "neighbours": 7071,
      "Wals": 7072,
      "excluded": 7073,
      "priorit": 7074,
      "##ato": 7075,
      "##TA": 7076,
      "fat": 7077,
      "Lt": 7078,
      "reserve": 7079,
      "plus": 7080,
      "flexible": 7081,
      "##orton": 7082,
      "Statement": 7083,
      "##rig": 7084,
      "##otten": 7085,
      "extending": 7086,
      "adjourned": 7087,
      "interject": 7088,
      "##uit": 7089,
      "##ads": 7090,
      "PET": 7091,
      "Bert": 7092,
      "Far": 7093,
      "commenced": 7094,
      "expression": 7095,
      "lived": 7096,
      "emerging": 7097,
      "summit": 7098,
      "continent": 7099,
      "challenging": 7100,
      "##rison": 7101,
      "rapidly": 7102,
      "phone": 7103,
      "interference": 7104,
      "acquis": 7105,
      "Nevertheless": 7106,
      "relative": 7107,
      "##ression": 7108,
      "Éamon": 7109,
      "respected": 7110,
      "##ean": 7111,
      "clinical": 7112,
      "##iciary": 7113,
      "adults": 7114,
      "##aser": 7115,
      "##ustain": 7116,
      "##asters": 7117,
      "##assador": 7118,
      "vocational": 7119,
      "Pet": 7120,
      "weather": 7121,
      "arises": 7122,
      "chemical": 7123,
      "genuinely": 7124,
      "Tay": 7125,
      "tight": 7126,
      "enthus": 7127,
      "inappropri": 7128,
      "##inds": 7129,
      "##ben": 7130,
      "grown": 7131,
      "Gib": 7132,
      "locally": 7133,
      "Assistant": 7134,
      "essentially": 7135,
      "champ": 7136,
      "structural": 7137,
      "Ltd": 7138,
      "inside": 7139,
      "fantastic": 7140,
      "Whether": 7141,
      "resulting": 7142,
      "controvers": 7143,
      "Ott": 7144,
      "seats": 7145,
      "forthcoming": 7146,
      "CA": 7147,
      "Stan": 7148,
      "Africans": 7149,
      "hus": 7150,
      "experiences": 7151,
      "Oper": 7152,
      "passengers": 7153,
      "Syrian": 7154,
      "##itect": 7155,
      "1932": 7156,
      "Terr": 7157,
      "responses": 7158,
      "enabling": 7159,
      "IN": 7160,
      "assault": 7161,
      "visits": 7162,
      "##iable": 7163,
      "faces": 7164,
      "defer": 7165,
      "tragic": 7166,
      "##ulu": 7167,
      "imports": 7168,
      "##ipped": 7169,
      "prosecution": 7170,
      "academic": 7171,
      "Spain": 7172,
      "remarkable": 7173,
      "appreciation": 7174,
      "pool": 7175,
      "sympathy": 7176,
      "AND": 7177,
      "##urally": 7178,
      "selected": 7179,
      "municipalities": 7180,
      "Relations": 7181,
      "##uster": 7182,
      "profound": 7183,
      "Harney": 7184,
      "phrase": 7185,
      "knowing": 7186,
      "budgetary": 7187,
      "virtually": 7188,
      "waters": 7189,
      "Planning": 7190,
      "Calle": 7191,
      "##rust": 7192,
      "collected": 7193,
      "surg": 7194,
      "cater": 7195,
      "##cedented": 7196,
      "guaranteed": 7197,
      "Aber": 7198,
      "negotiated": 7199,
      "operates": 7200,
      "candidate": 7201,
      "Queen": 7202,
      "arm": 7203,
      "shel": 7204,
      "fishermen": 7205,
      "Committees": 7206,
      "1931": 7207,
      "considerably": 7208,
      "overcome": 7209,
      "scen": 7210,
      "Bas": 7211,
      "Nich": 7212,
      "football": 7213,
      "Dermot": 7214,
      "disadvantage": 7215,
      "screen": 7216,
      "##OUSE": 7217,
      "unw": 7218,
      "Sinn": 7219,
      "1955": 7220,
      "emphasise": 7221,
      "##just": 7222,
      "confusion": 7223,
      "Progress": 7224,
      "McGill": 7225,
      "Frances": 7226,
      "optim": 7227,
      "deliberately": 7228,
      "Independent": 7229,
      "hopes": 7230,
      "connected": 7231,
      "##rum": 7232,
      "exceptional": 7233,
      "volume": 7234,
      "negotiating": 7235,
      "engineering": 7236,
      "radical": 7237,
      "breakdown": 7238,
      "preventing": 7239,
      "Tele": 7240,
      "##stone": 7241,
      "lobby": 7242,
      "struck": 7243,
      "display": 7244,
      "Airport": 7245,
      "unprecedented": 7246,
      "warning": 7247,
      "##aming": 7248,
      "shift": 7249,
      "Stud": 7250,
      "mal": 7251,
      "suicide": 7252,
      "obliged": 7253,
      "##atis": 7254,
      "seo": 7255,
      "Inf": 7256,
      "##enger": 7257,
      "annivers": 7258,
      "constant": 7259,
      "dat": 7260,
      "disturb": 7261,
      "newspaper": 7262,
      "IM": 7263,
      "##stream": 7264,
      "##ifies": 7265,
      "##pool": 7266,
      "historical": 7267,
      "Net": 7268,
      "ambit": 7269,
      "mic": 7270,
      "repeatedly": 7271,
      "Electoral": 7272,
      "Coal": 7273,
      "somewhere": 7274,
      "justified": 7275,
      "accurate": 7276,
      "considerations": 7277,
      "Bro": 7278,
      "##ilst": 7279,
      "leads": 7280,
      "##lantic": 7281,
      "tells": 7282,
      "participating": 7283,
      "Custom": 7284,
      "periods": 7285,
      "##SI": 7286,
      "##roll": 7287,
      "categories": 7288,
      "##LE": 7289,
      "##izes": 7290,
      "missed": 7291,
      "##olm": 7292,
      "gang": 7293,
      "participants": 7294,
      "flight": 7295,
      "pipe": 7296,
      "##rous": 7297,
      "Gaz": 7298,
      "Broughan": 7299,
      "dental": 7300,
      "bulk": 7301,
      "crop": 7302,
      "reconsider": 7303,
      "##emen": 7304,
      "McGilligan": 7305,
      "1939": 7306,
      "##active": 7307,
      "Pearse": 7308,
      "Sk": 7309,
      "acted": 7310,
      "capability": 7311,
      "distress": 7312,
      "annum": 7313,
      "sustained": 7314,
      "alarm": 7315,
      "compli": 7316,
      "sho": 7317,
      "da": 7318,
      "Ham": 7319,
      "Medical": 7320,
      "occupied": 7321,
      "Donnell": 7322,
      "unanimous": 7323,
      "volunteers": 7324,
      "achievements": 7325,
      "entitlements": 7326,
      "##mar": 7327,
      "territorial": 7328,
      "acceler": 7329,
      "replacement": 7330,
      "flaw": 7331,
      "##bourne": 7332,
      "drain": 7333,
      "contrad": 7334,
      "Ray": 7335,
      "significance": 7336,
      "Qub": 7337,
      "ports": 7338,
      "suppli": 7339,
      "alig": 7340,
      "acres": 7341,
      "Snod": 7342,
      "curric": 7343,
      "latter": 7344,
      "pra": 7345,
      "##rations": 7346,
      "##arms": 7347,
      "persist": 7348,
      "attending": 7349,
      "distingu": 7350,
      "computer": 7351,
      "Snodaigh": 7352,
      "Ros": 7353,
      "##anges": 7354,
      "##organ": 7355,
      "constrain": 7356,
      "##MA": 7357,
      "conviction": 7358,
      "Ti": 7359,
      "managing": 7360,
      "bridge": 7361,
      "anniversary": 7362,
      "declare": 7363,
      "##law": 7364,
      "Tribunal": 7365,
      "##idh": 7366,
      "negotiate": 7367,
      "helps": 7368,
      "##uil": 7369,
      "mutual": 7370,
      "Bertie": 7371,
      "Waterford": 7372,
      "partnerships": 7373,
      "handed": 7374,
      "Cap": 7375,
      "urg": 7376,
      "##oric": 7377,
      "##ENT": 7378,
      "proposition": 7379,
      "Johnson": 7380,
      "Ve": 7381,
      "species": 7382,
      "##ernity": 7383,
      "investigated": 7384,
      "##tegr": 7385,
      "##ustainable": 7386,
      "bilateral": 7387,
      "hun": 7388,
      "##wer": 7389,
      "Fair": 7390,
      "fought": 7391,
      "possession": 7392,
      "surrounding": 7393,
      "##unning": 7394,
      "Mike": 7395,
      "reverse": 7396,
      "hardly": 7397,
      "Ottawa": 7398,
      "Daniel": 7399,
      "wise": 7400,
      "##rears": 7401,
      "disappear": 7402,
      "Moreover": 7403,
      "bomb": 7404,
      "Division": 7405,
      "rehabilitation": 7406,
      "Nick": 7407,
      "protocol": 7408,
      "##asion": 7409,
      "##50": 7410,
      "Cy": 7411,
      "gra": 7412,
      "holders": 7413,
      "100": 7414,
      "rents": 7415,
      "urgently": 7416,
      "disputes": 7417,
      "imported": 7418,
      "##urances": 7419,
      "##olas": 7420,
      "##imb": 7421,
      "##ív": 7422,
      "Cuív": 7423,
      "MacEntee": 7424,
      "lawyers": 7425,
      "firmly": 7426,
      "Cross": 7427,
      "welcomes": 7428,
      "surve": 7429,
      "Alban": 7430,
      "pursued": 7431,
      "##ING": 7432,
      "Mount": 7433,
      "Sov": 7434,
      "##IA": 7435,
      "pursuant": 7436,
      "pig": 7437,
      "##armament": 7438,
      "##ville": 7439,
      "##low": 7440,
      "##efully": 7441,
      "Tur": 7442,
      "resident": 7443,
      "injury": 7444,
      "Federal": 7445,
      "battle": 7446,
      "##esh": 7447,
      "unif": 7448,
      "##wen": 7449,
      "attached": 7450,
      "clubs": 7451,
      "ridic": 7452,
      "hum": 7453,
      "drafting": 7454,
      "Reserve": 7455,
      "diversity": 7456,
      "HOUSE": 7457,
      "##ala": 7458,
      "Amb": 7459,
      "associations": 7460,
      "Broad": 7461,
      "Kirk": 7462,
      "advisers": 7463,
      "depends": 7464,
      "requiring": 7465,
      "luck": 7466,
      "tu": 7467,
      "innocent": 7468,
      "voters": 7469,
      "Benches": 7470,
      "##uction": 7471,
      "hal": 7472,
      "operative": 7473,
      "prejud": 7474,
      "endorse": 7475,
      "covers": 7476,
      "JO": 7477,
      "incredible": 7478,
      "advocate": 7479,
      "Certainly": 7480,
      "envisaged": 7481,
      "ruled": 7482,
      "timet": 7483,
      "Ell": 7484,
      "##ette": 7485,
      "assessments": 7486,
      "##communications": 7487,
      "airports": 7488,
      "tick": 7489,
      "##iles": 7490,
      "remit": 7491,
      "IDA": 7492,
      "##andum": 7493,
      "accessible": 7494,
      "phil": 7495,
      "##Os": 7496,
      "ships": 7497,
      "charities": 7498,
      "##pton": 7499,
      "Nav": 7500,
      "alongside": 7501,
      "Manchester": 7502,
      "buying": 7503,
      "dict": 7504,
      "##turn": 7505,
      "ordin": 7506,
      "Market": 7507,
      "creates": 7508,
      "meat": 7509,
      "protest": 7510,
      "Inn": 7511,
      "Maj": 7512,
      "attain": 7513,
      "agg": 7514,
      "assisted": 7515,
      "devolved": 7516,
      "preparing": 7517,
      "Insurance": 7518,
      "approve": 7519,
      "inappropriate": 7520,
      "examining": 7521,
      "convicted": 7522,
      "yield": 7523,
      "negotiation": 7524,
      "Andrews": 7525,
      "Hanlon": 7526,
      "frequently": 7527,
      "ballot": 7528,
      "currency": 7529,
      "##log": 7530,
      "vessels": 7531,
      "pounds": 7532,
      "broadcasting": 7533,
      "realised": 7534,
      "Four": 7535,
      "liable": 7536,
      "Company": 7537,
      "##CH": 7538,
      "Cast": 7539,
      "##rene": 7540,
      "Building": 7541,
      "Mah": 7542,
      "Mus": 7543,
      "hyp": 7544,
      "reaction": 7545,
      "Ring": 7546,
      "##itime": 7547,
      "##othian": 7548,
      "nd": 7549,
      "Governor": 7550,
      "rare": 7551,
      "Lu": 7552,
      "replaced": 7553,
      "##iful": 7554,
      "##ovation": 7555,
      "customs": 7556,
      "CH": 7557,
      "Fife": 7558,
      "occupation": 7559,
      "Flem": 7560,
      "Long": 7561,
      "amp": 7562,
      "##ECD": 7563,
      "abolition": 7564,
      "sending": 7565,
      "##borough": 7566,
      "##can": 7567,
      "architect": 7568,
      "remun": 7569,
      "resc": 7570,
      "shut": 7571,
      "surprise": 7572,
      "##apter": 7573,
      "journey": 7574,
      "violations": 7575,
      "progressive": 7576,
      "cold": 7577,
      "RC": 7578,
      "teams": 7579,
      "bought": 7580,
      "Rae": 7581,
      "neut": 7582,
      "motiv": 7583,
      "rough": 7584,
      "Gord": 7585,
      "escal": 7586,
      "topic": 7587,
      "##AMA": 7588,
      "OECD": 7589,
      "statute": 7590,
      "##lease": 7591,
      "coverage": 7592,
      "Walsh": 7593,
      "blind": 7594,
      "sle": 7595,
      "Soviet": 7596,
      "Rory": 7597,
      "Dou": 7598,
      "gold": 7599,
      "##cuse": 7600,
      "Pensions": 7601,
      "loved": 7602,
      "##athan": 7603,
      "##useum": 7604,
      "pursuing": 7605,
      "transm": 7606,
      "Somet": 7607,
      "diplomatic": 7608,
      "comparison": 7609,
      "Bosnia": 7610,
      "speaks": 7611,
      "drafted": 7612,
      "Cosgrave": 7613,
      "1942": 7614,
      "injust": 7615,
      "Stand": 7616,
      "Woods": 7617,
      "##venues": 7618,
      "entities": 7619,
      "##bo": 7620,
      "dimin": 7621,
      "Free": 7622,
      "##acks": 7623,
      "deserves": 7624,
      "safeguards": 7625,
      "female": 7626,
      "preserve": 7627,
      "preced": 7628,
      "notified": 7629,
      "plain": 7630,
      "Fleming": 7631,
      "##engus": 7632,
      "restruct": 7633,
      "Aengus": 7634,
      "fresh": 7635,
      "prescribed": 7636,
      "Houses": 7637,
      "##ifying": 7638,
      "saved": 7639,
      "MINIS": 7640,
      "undoubtedly": 7641,
      "##ussels": 7642,
      "commod": 7643,
      "##atur": 7644,
      "ep": 7645,
      "councillors": 7646,
      "realistic": 7647,
      "wall": 7648,
      "arrest": 7649,
      "Lao": 7650,
      "eliminate": 7651,
      "Yesterday": 7652,
      "passport": 7653,
      "dont": 7654,
      "drawing": 7655,
      "leaves": 7656,
      "initiated": 7657,
      "Cullen": 7658,
      "offshore": 7659,
      "marginal": 7660,
      "permitted": 7661,
      "Gri": 7662,
      "Resolution": 7663,
      "geograph": 7664,
      "Timor": 7665,
      "institutional": 7666,
      "hall": 7667,
      "incurred": 7668,
      "Nob": 7669,
      "##ede": 7670,
      "Adjournment": 7671,
      "arrears": 7672,
      "instruments": 7673,
      "depart": 7674,
      "##olk": 7675,
      "multiple": 7676,
      "kil": 7677,
      "deciding": 7678,
      "processed": 7679,
      "lease": 7680,
      "conj": 7681,
      "Valera": 7682,
      "Hall": 7683,
      "congest": 7684,
      "emot": 7685,
      "Asia": 7686,
      "##SP": 7687,
      "manufacturers": 7688,
      "##orated": 7689,
      "##reprene": 7690,
      "##owell": 7691,
      "sheep": 7692,
      "parliamentarians": 7693,
      "visa": 7694,
      "##weet": 7695,
      "engaging": 7696,
      "eastern": 7697,
      "driver": 7698,
      "##gence": 7699,
      "correctly": 7700,
      "bench": 7701,
      "Lear": 7702,
      "reaff": 7703,
      "##lyn": 7704,
      "rush": 7705,
      "prime": 7706,
      "frankly": 7707,
      "1925": 7708,
      "outrage": 7709,
      "responding": 7710,
      "commencement": 7711,
      "Each": 7712,
      "describe": 7713,
      "##fers": 7714,
      "Birm": 7715,
      "credibility": 7716,
      "rhet": 7717,
      "manifesto": 7718,
      "Birmingham": 7719,
      "recipients": 7720,
      "Aberde": 7721,
      "determining": 7722,
      "definitely": 7723,
      "odd": 7724,
      "Small": 7725,
      "electronic": 7726,
      "lending": 7727,
      "##za": 7728,
      "turning": 7729,
      "Rad": 7730,
      "##soever": 7731,
      "branch": 7732,
      "Investment": 7733,
      "neutral": 7734,
      "basically": 7735,
      "wholly": 7736,
      "bog": 7737,
      "ends": 7738,
      "legally": 7739,
      "mit": 7740,
      "##win": 7741,
      "suffici": 7742,
      "unity": 7743,
      "##mental": 7744,
      "##ruptions": 7745,
      "##oe": 7746,
      "##ocation": 7747,
      "practitioners": 7748,
      "Brussels": 7749,
      "##uated": 7750,
      "devolution": 7751,
      "fortun": 7752,
      "indicates": 7753,
      "Const": 7754,
      "tenant": 7755,
      "sees": 7756,
      "Carl": 7757,
      "ideal": 7758,
      "respects": 7759,
      "expectations": 7760,
      "reconst": 7761,
      "entering": 7762,
      "Shane": 7763,
      "complicated": 7764,
      "modest": 7765,
      "Rem": 7766,
      "##uration": 7767,
      "exploitation": 7768,
      "risen": 7769,
      "trusts": 7770,
      "suspended": 7771,
      "refugee": 7772,
      "Advis": 7773,
      "##osh": 7774,
      "Bru": 7775,
      "Tra": 7776,
      "feels": 7777,
      "bes": 7778,
      "##ns": 7779,
      "MINISTER": 7780,
      "##ected": 7781,
      "casual": 7782,
      "Hen": 7783,
      "eyes": 7784,
      "barg": 7785,
      "Naught": 7786,
      "Lam": 7787,
      "Staff": 7788,
      "inspectors": 7789,
      "dere": 7790,
      "ki": 7791,
      "##licit": 7792,
      "##aturday": 7793,
      "##iled": 7794,
      "understands": 7795,
      "Donogh": 7796,
      "habit": 7797,
      "Met": 7798,
      "evident": 7799,
      "destroyed": 7800,
      "portion": 7801,
      "##utor": 7802,
      "excessive": 7803,
      "Ly": 7804,
      "uses": 7805,
      "Mont": 7806,
      "El": 7807,
      "Miss": 7808,
      "pays": 7809,
      "locations": 7810,
      "##ushing": 7811,
      "finished": 7812,
      "united": 7813,
      "fifth": 7814,
      "enfor": 7815,
      "##BS": 7816,
      "Expenditure": 7817,
      "intentions": 7818,
      "Ceann": 7819,
      "##don": 7820,
      "##ij": 7821,
      "disclosure": 7822,
      "advertise": 7823,
      "Saturday": 7824,
      "threatened": 7825,
      "passenger": 7826,
      "Leban": 7827,
      "intim": 7828,
      "existed": 7829,
      "liquid": 7830,
      "##olitan": 7831,
      "##alled": 7832,
      "##ricts": 7833,
      "##arrass": 7834,
      "##ena": 7835,
      "##hes": 7836,
      "reviews": 7837,
      "smoking": 7838,
      "tested": 7839,
      "enacted": 7840,
      "prevail": 7841,
      "Korea": 7842,
      "whatsoever": 7843,
      "missions": 7844,
      "DAVID": 7845,
      "Coop": 7846,
      "Blan": 7847,
      "##iec": 7848,
      "RO": 7849,
      "transitional": 7850,
      "curriculum": 7851,
      "Viet": 7852,
      "Strategy": 7853,
      "stor": 7854,
      "returning": 7855,
      "Murr": 7856,
      "visitors": 7857,
      "##ureen": 7858,
      "Pan": 7859,
      "fundamentally": 7860,
      "approaches": 7861,
      "##empsey": 7862,
      "Aer": 7863,
      "Francis": 7864,
      "guard": 7865,
      "Atlantic": 7866,
      "##uba": 7867,
      "##isa": 7868,
      "##assion": 7869,
      "cod": 7870,
      "Much": 7871,
      "irre": 7872,
      "removing": 7873,
      "commissioned": 7874,
      "furn": 7875,
      "sake": 7876,
      "motions": 7877,
      "authorised": 7878,
      "Maureen": 7879,
      "celebrate": 7880,
      "acquisition": 7881,
      "distinct": 7882,
      "embarrass": 7883,
      "reminded": 7884,
      "##aghan": 7885,
      "##aph": 7886,
      "friendly": 7887,
      "Regist": 7888,
      "languages": 7889,
      "file": 7890,
      "merits": 7891,
      "Av": 7892,
      "tariffs": 7893,
      "Taylor": 7894,
      "Future": 7895,
      "earning": 7896,
      "devastating": 7897,
      "departmental": 7898,
      "subjects": 7899,
      "Luc": 7900,
      "discovered": 7901,
      "##CA": 7902,
      "magn": 7903,
      "falls": 7904,
      "##ded": 7905,
      "##respons": 7906,
      "Spr": 7907,
      "poorest": 7908,
      "misleading": 7909,
      "reck": 7910,
      "bhfuil": 7911,
      "husband": 7912,
      "Deceased": 7913,
      "multilateral": 7914,
      "Communities": 7915,
      "allev": 7916,
      "##yr": 7917,
      "excuse": 7918,
      "ineff": 7919,
      "pm": 7920,
      "##ersons": 7921,
      "##hl": 7922,
      "##erate": 7923,
      "Tipper": 7924,
      "##ois": 7925,
      "experiencing": 7926,
      "guess": 7927,
      "##icks": 7928,
      "##ropolitan": 7929,
      "correspondence": 7930,
      "Columb": 7931,
      "nav": 7932,
      "vent": 7933,
      "scar": 7934,
      "heavily": 7935,
      "homelessness": 7936,
      "Tipperary": 7937,
      "Naughten": 7938,
      "##together": 7939,
      "expects": 7940,
      "sugar": 7941,
      "Bris": 7942,
      "1929": 7943,
      "component": 7944,
      "Dempsey": 7945,
      "ma": 7946,
      "distinction": 7947,
      "Dick": 7948,
      "Hal": 7949,
      "##urring": 7950,
      "maxim": 7951,
      "allocations": 7952,
      "Grant": 7953,
      "signs": 7954,
      "evaluation": 7955,
      "Dara": 7956,
      "chain": 7957,
      "recognized": 7958,
      "confidential": 7959,
      "anticipated": 7960,
      "prin": 7961,
      "##kins": 7962,
      "Norton": 7963,
      "entreprene": 7964,
      "band": 7965,
      "ensures": 7966,
      "##illion": 7967,
      "receives": 7968,
      "transformation": 7969,
      "migration": 7970,
      "solidarity": 7971,
      "ring": 7972,
      "feature": 7973,
      "##amh": 7974,
      "Congo": 7975,
      "routes": 7976,
      "enjoyed": 7977,
      "cry": 7978,
      "Change": 7979,
      "Partn": 7980,
      "Pak": 7981,
      "Jon": 7982,
      "Gold": 7983,
      "FS": 7984,
      "deployment": 7985,
      "Presiding": 7986,
      "via": 7987,
      "Accordingly": 7988,
      "beneficial": 7989,
      "corporations": 7990,
      "Wexford": 7991,
      "Tully": 7992,
      "Hear": 7993,
      "redundancy": 7994,
      "##inent": 7995,
      "inspector": 7996,
      "trip": 7997,
      "Prim": 7998,
      "equitable": 7999,
      "sustainability": 8000,
      "Statistics": 8001,
      "##time": 8002,
      "##iatric": 8003,
      "Gerald": 8004,
      "Mulc": 8005,
      "assurances": 8006,
      "##che": 8007,
      "Industrial": 8008,
      "Climate": 8009,
      "shops": 8010,
      "Organisation": 8011,
      "chur": 8012,
      "Roberts": 8013,
      "pregn": 8014,
      "formed": 8015,
      "exposed": 8016,
      "Brad": 8017,
      "dropped": 8018,
      "##elling": 8019,
      "ambitious": 8020,
      "Gill": 8021,
      "wherever": 8022,
      "##thur": 8023,
      "delayed": 8024,
      "Gen": 8025,
      "Allen": 8026,
      "Gaza": 8027,
      "collaboration": 8028,
      "chun": 8029,
      "Christian": 8030,
      "Please": 8031,
      "Technology": 8032,
      "breaking": 8033,
      "resil": 8034,
      "boundaries": 8035,
      "PETER": 8036,
      "addresses": 8037,
      "privacy": 8038,
      "Shortall": 8039,
      "landlords": 8040,
      "village": 8041,
      "Southern": 8042,
      "apparent": 8043,
      "inequality": 8044,
      "Morris": 8045,
      "##UR": 8046,
      "##erb": 8047,
      "Aid": 8048,
      "enables": 8049,
      "games": 8050,
      "pill": 8051,
      "##bridge": 8052,
      "Indones": 8053,
      "tonnes": 8054,
      "Ruth": 8055,
      "noise": 8056,
      "administered": 8057,
      "shame": 8058,
      "renewal": 8059,
      "meets": 8060,
      "Islam": 8061,
      "pockets": 8062,
      "##icious": 8063,
      "##eg": 8064,
      "##etition": 8065,
      "roles": 8066,
      "lib": 8067,
      "billions": 8068,
      "fam": 8069,
      "##fire": 8070,
      "Greg": 8071,
      "accidents": 8072,
      "fool": 8073,
      "##acon": 8074,
      "##ieces": 8075,
      "acquired": 8076,
      "Customs": 8077,
      "forgotten": 8078,
      "Project": 8079,
      "aspirations": 8080,
      "assert": 8081,
      "intensive": 8082,
      "Nicholas": 8083,
      "1923": 8084,
      "tourist": 8085,
      "##UN": 8086,
      "substantive": 8087,
      "Du": 8088,
      "mount": 8089,
      "##alle": 8090,
      "Jam": 8091,
      "philos": 8092,
      "erad": 8093,
      "pride": 8094,
      "##aling": 8095,
      "meantime": 8096,
      "annually": 8097,
      "survive": 8098,
      "##illed": 8099,
      "disarmament": 8100,
      "Rudd": 8101,
      "stabil": 8102,
      "indirect": 8103,
      "Proced": 8104,
      "##inations": 8105,
      "retention": 8106,
      "nationally": 8107,
      "unlikely": 8108,
      "Cough": 8109,
      "cope": 8110,
      "fails": 8111,
      "satisfy": 8112,
      "Appeals": 8113,
      "Fa": 8114,
      "watching": 8115,
      "Ev": 8116,
      "##onial": 8117,
      "immense": 8118,
      "reflection": 8119,
      "##erk": 8120,
      "diseases": 8121,
      "1926": 8122,
      "##actions": 8123,
      "memorandum": 8124,
      "Coughlan": 8125,
      "enrol": 8126,
      "mistakes": 8127,
      "rhetoric": 8128,
      "uniform": 8129,
      "clarification": 8130,
      "Da": 8131,
      "partly": 8132,
      "RCMP": 8133,
      "notwithstanding": 8134,
      "Griff": 8135,
      "broadly": 8136,
      "generate": 8137,
      "shape": 8138,
      "underlying": 8139,
      "altogether": 8140,
      "justification": 8141,
      "wis": 8142,
      "conjunction": 8143,
      "coin": 8144,
      "ridiculous": 8145,
      "IMF": 8146,
      "ang": 8147,
      "##inding": 8148,
      "Dev": 8149,
      "##ubb": 8150,
      "river": 8151,
      "zone": 8152,
      "##ipp": 8153,
      "beaut": 8154,
      "Library": 8155,
      "concentrate": 8156,
      "solely": 8157,
      "redress": 8158,
      "##cois": 8159,
      "##UL": 8160,
      "Town": 8161,
      "Libya": 8162,
      "Gordon": 8163,
      "##oil": 8164,
      "Jean": 8165,
      "##asy": 8166,
      "lifet": 8167,
      "turf": 8168,
      "Tas": 8169,
      "##iant": 8170,
      "deprived": 8171,
      "Lew": 8172,
      "Pá": 8173,
      "Pádra": 8174,
      "##vor": 8175,
      "boys": 8176,
      "compromise": 8177,
      "rental": 8178,
      "regulated": 8179,
      "Calleary": 8180,
      "checks": 8181,
      "advantages": 8182,
      "runs": 8183,
      "attractive": 8184,
      "Ball": 8185,
      "##gher": 8186,
      "restricted": 8187,
      "##TO": 8188,
      "monop": 8189,
      "underpin": 8190,
      "##economic": 8191,
      "command": 8192,
      "observ": 8193,
      "Somalia": 8194,
      "HIV": 8195,
      "expanded": 8196,
      "Qubcois": 8197,
      "##oul": 8198,
      "collapse": 8199,
      "accompan": 8200,
      "ofthe": 8201,
      "faster": 8202,
      "reluct": 8203,
      "Camb": 8204,
      "dump": 8205,
      "cancell": 8206,
      "Dowd": 8207,
      "##cho": 8208,
      "caring": 8209,
      "anom": 8210,
      "asks": 8211,
      "nice": 8212,
      "##dale": 8213,
      "Thirdly": 8214,
      "Cla": 8215,
      "contractors": 8216,
      "finds": 8217,
      "MAR": 8218,
      "summary": 8219,
      "##ounter": 8220,
      "regulator": 8221,
      "Hait": 8222,
      "conversation": 8223,
      "Majesty": 8224,
      "Span": 8225,
      "##worth": 8226,
      "Sea": 8227,
      "##will": 8228,
      "##NA": 8229,
      "entity": 8230,
      "drinking": 8231,
      "Forestry": 8232,
      "##ears": 8233,
      "Juli": 8234,
      "Pakistan": 8235,
      "corner": 8236,
      "damaging": 8237,
      "cau": 8238,
      "Times": 8239,
      "childcare": 8240,
      "##lymp": 8241,
      "##kenny": 8242,
      "##zi": 8243,
      "surprising": 8244,
      "postal": 8245,
      "deputy": 8246,
      "sadly": 8247,
      "Look": 8248,
      "revolution": 8249,
      "Working": 8250,
      "Malley": 8251,
      "Murray": 8252,
      "bureaucracy": 8253,
      "benches": 8254,
      "dwell": 8255,
      "##rel": 8256,
      "prompt": 8257,
      "Interruptions": 8258,
      "plants": 8259,
      "reward": 8260,
      "##ceived": 8261,
      "contempl": 8262,
      "counterpart": 8263,
      "expanding": 8264,
      "nom": 8265,
      "resumed": 8266,
      "restructuring": 8267,
      "chose": 8268,
      "1954": 8269,
      "guarantees": 8270,
      "##ched": 8271,
      "uphold": 8272,
      "Damien": 8273,
      "bread": 8274,
      "cell": 8275,
      "reserves": 8276,
      "Nic": 8277,
      "pieces": 8278,
      "jurisdictions": 8279,
      "Refuge": 8280,
      "remained": 8281,
      "Bally": 8282,
      "stating": 8283,
      "imperative": 8284,
      "supervision": 8285,
      "##eel": 8286,
      "flooding": 8287,
      "Monaghan": 8288,
      "prud": 8289,
      "Speech": 8290,
      "valuation": 8291,
      "##WA": 8292,
      "intellect": 8293,
      "##uma": 8294,
      "projected": 8295,
      "settled": 8296,
      "revealed": 8297,
      "1927": 8298,
      "Abb": 8299,
      "##ita": 8300,
      "Haw": 8301,
      "Secret": 8302,
      "Kelle": 8303,
      "00": 8304,
      "mail": 8305,
      "timetable": 8306,
      "Olymp": 8307,
      "##isen": 8308,
      "butter": 8309,
      "philosoph": 8310,
      "Kelleher": 8311,
      "customer": 8312,
      "Stanley": 8313,
      "Hughes": 8314,
      "execut": 8315,
      "inevitably": 8316,
      "remuneration": 8317,
      "Hart": 8318,
      "##atisfact": 8319,
      "##ked": 8320,
      "Cheann": 8321,
      "firearms": 8322,
      "Innovation": 8323,
      "ratio": 8324,
      "distance": 8325,
      "dispro": 8326,
      "##iment": 8327,
      "Legislation": 8328,
      "concession": 8329,
      "surviv": 8330,
      "Oh": 8331,
      "##elle": 8332,
      "conting": 8333,
      "1945": 8334,
      "##redit": 8335,
      "1944": 8336,
      "mothers": 8337,
      "memory": 8338,
      "resign": 8339,
      "abolish": 8340,
      "lev": 8341,
      "##umm": 8342,
      "relie": 8343,
      "##acc": 8344,
      "suit": 8345,
      "purely": 8346,
      "Spring": 8347,
      "bearing": 8348,
      "surgery": 8349,
      "Sad": 8350,
      "##aces": 8351,
      "explicit": 8352,
      "##wick": 8353,
      "debts": 8354,
      "toward": 8355,
      "filled": 8356,
      "##vance": 8357,
      "None": 8358,
      "selection": 8359,
      "districts": 8360,
      "voices": 8361,
      "Mulcahy": 8362,
      "Citiz": 8363,
      "classroom": 8364,
      "scheduled": 8365,
      "##itud": 8366,
      "##osph": 8367,
      "counse": 8368,
      "Bureau": 8369,
      "proceeding": 8370,
      "terrorists": 8371,
      "##ais": 8372,
      "proven": 8373,
      "merit": 8374,
      "livelihood": 8375,
      "aviation": 8376,
      "visiting": 8377,
      "Greens": 8378,
      "organization": 8379,
      "Liver": 8380,
      "##inter": 8381,
      "Str": 8382,
      "pressing": 8383,
      "error": 8384,
      "vary": 8385,
      "provider": 8386,
      "wording": 8387,
      "Aboriginal": 8388,
      "handling": 8389,
      "readily": 8390,
      "Connor": 8391,
      "Pl": 8392,
      "sufficiently": 8393,
      "##lets": 8394,
      "extrem": 8395,
      "discharge": 8396,
      "Sand": 8397,
      "rank": 8398,
      "coastal": 8399,
      "stick": 8400,
      "Donoghue": 8401,
      "injured": 8402,
      "root": 8403,
      "Key": 8404,
      "Partnership": 8405,
      "##via": 8406,
      "##HN": 8407,
      "500": 8408,
      "inval": 8409,
      "constraints": 8410,
      "attrib": 8411,
      "reassure": 8412,
      "Boland": 8413,
      "prevented": 8414,
      "strengthened": 8415,
      "decrease": 8416,
      "recyc": 8417,
      "Morrison": 8418,
      "empty": 8419,
      "deployed": 8420,
      "lifetime": 8421,
      "Medicare": 8422,
      "##ITH": 8423,
      "Spanish": 8424,
      "transfers": 8425,
      "therap": 8426,
      "hearings": 8427,
      "##sk": 8428,
      "##FP": 8429,
      "attendance": 8430,
      "##asks": 8431,
      "##ourke": 8432,
      "music": 8433,
      "discour": 8434,
      "Vol": 8435,
      "##manship": 8436,
      "Dund": 8437,
      "clients": 8438,
      "sporting": 8439,
      "##PS": 8440,
      "recre": 8441,
      "ambul": 8442,
      "Adam": 8443,
      "reconstruction": 8444,
      "##acies": 8445,
      "retired": 8446,
      "agents": 8447,
      "generated": 8448,
      "##lifer": 8449,
      "##kers": 8450,
      "parental": 8451,
      "theme": 8452,
      "##eneration": 8453,
      "retained": 8454,
      "Very": 8455,
      "##uming": 8456,
      "abolished": 8457,
      "irrespons": 8458,
      "##arp": 8459,
      "cha": 8460,
      "knock": 8461,
      "##CE": 8462,
      "##umph": 8463,
      "##king": 8464,
      "credits": 8465,
      "thoughts": 8466,
      "Audit": 8467,
      "unreason": 8468,
      "networks": 8469,
      "doors": 8470,
      "signing": 8471,
      "diplom": 8472,
      "gamb": 8473,
      "accepting": 8474,
      "nur": 8475,
      "autumn": 8476,
      "presidency": 8477,
      "Tasman": 8478,
      "consultant": 8479,
      "Cunning": 8480,
      "Loch": 8481,
      "covering": 8482,
      "unh": 8483,
      "obstac": 8484,
      "protections": 8485,
      "##ynam": 8486,
      "southern": 8487,
      "precedent": 8488,
      "Camer": 8489,
      "constitute": 8490,
      "stocks": 8491,
      "amazing": 8492,
      "Gray": 8493,
      "harder": 8494,
      "appla": 8495,
      "Moy": 8496,
      "provisional": 8497,
      "endors": 8498,
      "medicines": 8499,
      "maternity": 8500,
      "##OL": 8501,
      "desperate": 8502,
      "##fr": 8503,
      "##11": 8504,
      "factories": 8505,
      "Down": 8506,
      "ours": 8507,
      "heating": 8508,
      "warned": 8509,
      "greenhouse": 8510,
      "trains": 8511,
      "marked": 8512,
      "GPs": 8513,
      "##ounded": 8514,
      "Nobody": 8515,
      "Ki": 8516,
      "Allow": 8517,
      "##lls": 8518,
      "micro": 8519,
      "tact": 8520,
      "Columbia": 8521,
      "supportive": 8522,
      "caucus": 8523,
      "Rom": 8524,
      "thousand": 8525,
      "##NE": 8526,
      "awaiting": 8527,
      "cheaper": 8528,
      "Séamus": 8529,
      "##ni": 8530,
      "mouth": 8531,
      "beautiful": 8532,
      "##cow": 8533,
      "##hi": 8534,
      "embark": 8535,
      "intimid": 8536,
      "Bruce": 8537,
      "Similar": 8538,
      "lottery": 8539,
      "incap": 8540,
      "Training": 8541,
      "##onsist": 8542,
      "moves": 8543,
      "detri": 8544,
      "unus": 8545,
      "childhood": 8546,
      "assisting": 8547,
      "Helen": 8548,
      "interf": 8549,
      "compassion": 8550,
      "Ther": 8551,
      "La": 8552,
      "Albert": 8553,
      "wanting": 8554,
      "mainstream": 8555,
      "Internet": 8556,
      "##certain": 8557,
      "Lothian": 8558,
      "presentation": 8559,
      "confront": 8560,
      "Everyone": 8561,
      "##respective": 8562,
      "pace": 8563,
      "Debates": 8564,
      "cy": 8565,
      "Palestine": 8566,
      "junior": 8567,
      "##urice": 8568,
      "adding": 8569,
      "##portion": 8570,
      "fruit": 8571,
      "anxiety": 8572,
      "plenty": 8573,
      "##rell": 8574,
      "suddenly": 8575,
      "fears": 8576,
      "Ba": 8577,
      "holds": 8578,
      "inner": 8579,
      "amending": 8580,
      "vide": 8581,
      "storage": 8582,
      "stuff": 8583,
      "rating": 8584,
      "compare": 8585,
      "successive": 8586,
      "##arry": 8587,
      "awards": 8588,
      "Int": 8589,
      "pricing": 8590,
      "Ró": 8591,
      "##isín": 8592,
      "Róisín": 8593,
      "Should": 8594,
      "##bro": 8595,
      "ultimate": 8596,
      "rescue": 8597,
      "spring": 8598,
      "##isive": 8599,
      "disreg": 8600,
      "resort": 8601,
      "Graham": 8602,
      "purchased": 8603,
      "CS": 8604,
      "demonstrates": 8605,
      "##but": 8606,
      "fields": 8607,
      "##ICE": 8608,
      "Cre": 8609,
      "sham": 8610,
      "refusal": 8611,
      "##adar": 8612,
      "olds": 8613,
      "##artial": 8614,
      "diverse": 8615,
      "liberal": 8616,
      "FitzG": 8617,
      "feas": 8618,
      "ster": 8619,
      "buses": 8620,
      "sli": 8621,
      "Found": 8622,
      "Kath": 8623,
      "si": 8624,
      "dynam": 8625,
      "Em": 8626,
      "##theid": 8627,
      "benefited": 8628,
      "tape": 8629,
      "Conf": 8630,
      "FitzGerald": 8631,
      "army": 8632,
      "admission": 8633,
      "Melbourne": 8634,
      "##glas": 8635,
      "worthy": 8636,
      "aboriginal": 8637,
      "supporters": 8638,
      "disorder": 8639,
      "switch": 8640,
      "##ino": 8641,
      "Up": 8642,
      "Network": 8643,
      "##cel": 8644,
      "oral": 8645,
      "Highlands": 8646,
      "Pas": 8647,
      "incompet": 8648,
      "Galla": 8649,
      "strange": 8650,
      "fleet": 8651,
      "##incent": 8652,
      "##which": 8653,
      "IT": 8654,
      "Presidency": 8655,
      "##ective": 8656,
      "Freedom": 8657,
      "simplif": 8658,
      "overwhelming": 8659,
      "define": 8660,
      "Excell": 8661,
      "attempted": 8662,
      "Colley": 8663,
      "##OC": 8664,
      "##break": 8665,
      "##iously": 8666,
      "Tel": 8667,
      "franch": 8668,
      "doubled": 8669,
      "strikes": 8670,
      "dated": 8671,
      "sn": 8672,
      "##liferation": 8673,
      "AD": 8674,
      "acceptance": 8675,
      "worrying": 8676,
      "claiming": 8677,
      "notion": 8678,
      "pending": 8679,
      "secondly": 8680,
      "##ga": 8681,
      "Advisory": 8682,
      "Nothing": 8683,
      "Liverpool": 8684,
      "disproportion": 8685,
      "##itudes": 8686,
      "cow": 8687,
      "drainage": 8688,
      "##partheid": 8689,
      "dischar": 8690,
      "McK": 8691,
      "finalised": 8692,
      "dates": 8693,
      "telecommunications": 8694,
      "Scotlands": 8695,
      "sooner": 8696,
      "internet": 8697,
      "ranging": 8698,
      "##ireless": 8699,
      "##ari": 8700,
      "##ilge": 8701,
      "Malc": 8702,
      "##ented": 8703,
      "Against": 8704,
      "Pri": 8705,
      "injustice": 8706,
      "Gallagher": 8707,
      "##being": 8708,
      "NAMA": 8709,
      "Connolly": 8710,
      "nationals": 8711,
      "bankrupt": 8712,
      "Irelands": 8713,
      "guide": 8714,
      "witnessed": 8715,
      "reviewing": 8716,
      "dim": 8717,
      "Iraqi": 8718,
      "era": 8719,
      "borne": 8720,
      "spite": 8721,
      "Prosec": 8722,
      "exclusion": 8723,
      "appropriately": 8724,
      "Americans": 8725,
      "refund": 8726,
      "remedy": 8727,
      "retrospect": 8728,
      "Alberta": 8729,
      "enabled": 8730,
      "custody": 8731,
      "##fe": 8732,
      "Regulation": 8733,
      "arrive": 8734,
      "sleep": 8735,
      "initially": 8736,
      "decentral": 8737,
      "##ennis": 8738,
      "##lers": 8739,
      "##rich": 8740,
      "depending": 8741,
      "inconsist": 8742,
      "contributory": 8743,
      "reaffirm": 8744,
      "inevitable": 8745,
      "fines": 8746,
      "##nam": 8747,
      "divide": 8748,
      "starts": 8749,
      "ordered": 8750,
      "medicine": 8751,
      "disappointing": 8752,
      "Math": 8753,
      "desperately": 8754,
      "Fear": 8755,
      "deposit": 8756,
      "sun": 8757,
      "satisfaction": 8758,
      "JOHN": 8759,
      "echo": 8760,
      "residence": 8761,
      "Geoff": 8762,
      "horse": 8763,
      "settlements": 8764,
      "Ash": 8765,
      "##PA": 8766,
      "1938": 8767,
      "displaced": 8768,
      "partisan": 8769,
      "Douglas": 8770,
      "Morgan": 8771,
      "revers": 8772,
      "safer": 8773,
      "applaud": 8774,
      "arose": 8775,
      "##raig": 8776,
      "Table": 8777,
      "challenged": 8778,
      "stret": 8779,
      "observed": 8780,
      "players": 8781,
      "Moll": 8782,
      "nie": 8783,
      "seekers": 8784,
      "contra": 8785,
      "anyway": 8786,
      "automatically": 8787,
      "credible": 8788,
      "##Es": 8789,
      "overd": 8790,
      "##pass": 8791,
      "injuries": 8792,
      "estates": 8793,
      "TV": 8794,
      "actors": 8795,
      "apology": 8796,
      "ST": 8797,
      "economically": 8798,
      "##oa": 8799,
      "Peadar": 8800,
      "thrown": 8801,
      "##kin": 8802,
      "confron": 8803,
      "Fraser": 8804,
      "Accounts": 8805,
      "alternatives": 8806,
      "Congress": 8807,
      "focusing": 8808,
      "documentation": 8809,
      "##sequently": 8810,
      "Out": 8811,
      "allies": 8812,
      "Corish": 8813,
      "DE": 8814,
      "acquire": 8815,
      "dangers": 8816,
      "Foundation": 8817,
      "Molloy": 8818,
      "flat": 8819,
      "Jimmy": 8820,
      "Blaney": 8821,
      "enl": 8822,
      "breat": 8823,
      "##rim": 8824,
      "touched": 8825,
      "hes": 8826,
      "predict": 8827,
      "Dea": 8828,
      "politically": 8829,
      "##TON": 8830,
      "continuous": 8831,
      "##10": 8832,
      "##oley": 8833,
      "likes": 8834,
      "1930": 8835,
      "##risonment": 8836,
      "Malcolm": 8837,
      "##legraph": 8838,
      "tang": 8839,
      "commissioners": 8840,
      "accounting": 8841,
      "Rog": 8842,
      "Club": 8843,
      "dark": 8844,
      "anc": 8845,
      "quarters": 8846,
      "Indian": 8847,
      "recess": 8848,
      "invitation": 8849,
      "Non": 8850,
      "flour": 8851,
      "##geon": 8852,
      "logic": 8853,
      "pages": 8854,
      "coher": 8855,
      "posed": 8856,
      "applicable": 8857,
      "heading": 8858,
      "##irty": 8859,
      "Fion": 8860,
      "##FA": 8861,
      "plays": 8862,
      "quiet": 8863,
      "leak": 8864,
      "Primary": 8865,
      "Majority": 8866,
      "cig": 8867,
      "contacted": 8868,
      "foster": 8869,
      "Veter": 8870,
      "Schools": 8871,
      "transp": 8872,
      "Cur": 8873,
      "Nl": 8874,
      "Dere": 8875,
      "reliable": 8876,
      "politic": 8877,
      "##entions": 8878,
      "insult": 8879,
      "suppliers": 8880,
      "arisen": 8881,
      "coron": 8882,
      "math": 8883,
      "rebate": 8884,
      "functioning": 8885,
      "Heath": 8886,
      "thirds": 8887,
      "##quarters": 8888,
      "##ker": 8889,
      "regrett": 8890,
      "ESB": 8891,
      "NCO": 8892,
      "##abet": 8893,
      "apartheid": 8894,
      "champion": 8895,
      "Lo": 8896,
      "##leen": 8897,
      "Citizens": 8898,
      "Aberdeen": 8899,
      "abandoned": 8900,
      "##utical": 8901,
      "unjust": 8902,
      "##wich": 8903,
      "film": 8904,
      "##ques": 8905,
      "##inda": 8906,
      "##bell": 8907,
      "Press": 8908,
      "##apped": 8909,
      "Mag": 8910,
      "couples": 8911,
      "##life": 8912,
      "imprisonment": 8913,
      "neighbourhood": 8914,
      "Whatever": 8915,
      "licensed": 8916,
      "##avours": 8917,
      "##castle": 8918,
      "severely": 8919,
      "ec": 8920,
      "##ager": 8921,
      "inherited": 8922,
      "Ambassador": 8923,
      "cult": 8924,
      "claimants": 8925,
      "##church": 8926,
      "disregard": 8927,
      "##inational": 8928,
      "Clin": 8929,
      "boats": 8930,
      "screening": 8931,
      "practically": 8932,
      "dramatically": 8933,
      "##liminary": 8934,
      "arguing": 8935,
      "weapon": 8936,
      "interjecting": 8937,
      "troub": 8938,
      "##uts": 8939,
      "hate": 8940,
      "islands": 8941,
      "repeal": 8942,
      "baby": 8943,
      "willingness": 8944,
      "##olds": 8945,
      "respective": 8946,
      "signal": 8947,
      "qualifying": 8948,
      "Perth": 8949,
      "##holder": 8950,
      "Jonathan": 8951,
      "regulate": 8952,
      "Six": 8953,
      "Liz": 8954,
      "Farmers": 8955,
      "discipline": 8956,
      "McDowell": 8957,
      "##uthi": 8958,
      "##RY": 8959,
      "vaccine": 8960,
      "intens": 8961,
      "Jac": 8962,
      "Yorks": 8963,
      "##ouses": 8964,
      "humanity": 8965,
      "charging": 8966,
      "##aka": 8967,
      "breed": 8968,
      "tun": 8969,
      "##umer": 8970,
      "##anton": 8971,
      "##icable": 8972,
      "spectrum": 8973,
      "wisdom": 8974,
      "male": 8975,
      "Penrose": 8976,
      "charity": 8977,
      "lawyer": 8978,
      "Turkey": 8979,
      "essence": 8980,
      "##alg": 8981,
      "offender": 8982,
      "##aed": 8983,
      "Bobby": 8984,
      "begun": 8985,
      "revenues": 8986,
      "fing": 8987,
      "Limited": 8988,
      "tasks": 8989,
      "Oliver": 8990,
      "assembly": 8991,
      "40": 8992,
      "lect": 8993,
      "square": 8994,
      "Tories": 8995,
      "Catholic": 8996,
      "insuff": 8997,
      "##role": 8998,
[...]
