{
  "version": "1.0",
  "truncation": null,
  "padding": null,
  "added_tokens": [
    {
      "id": 0,
      "content": "[PAD]",
      "single_word": false,
      "lstrip": false,
      "rstrip": false,
      "normalized": false,
      "special": true
    },
    {
      "id": 1,
      "content": "[UNK]",
      "single_word": false,
      "lstrip": false,
      "rstrip": false,
      "normalized": false,
      "special": true
    },
    {
      "id": 2,
      "content": "[CLS]",
      "single_word": false,
      "lstrip": false,
      "rstrip": false,
      "normalized": false,
      "special": true
    },
    {
      "id": 3,
      "content": "[SEP]",
      "single_word": false,
      "lstrip": false,
      "rstrip": false,
      "normalized": false,
      "special": true
    },
    {
      "id": 4,
      "content": "[MASK]",
      "single_word": false,
      "lstrip": false,
      "rstrip": false,
      "normalized": false,
      "special": true
    }
  ],
  "normalizer": {
    "type": "BertNormalizer",
    "clean_text": true,
    "handle_chinese_chars": true,
    "strip_accents": null,
    "lowercase": true
  },
  "pre_tokenizer": {
    "type": "BertPreTokenizer"
  },
  "post_processor": {
    "type": "TemplateProcessing",
    "single": [
      {
        "SpecialToken": {
          "id": "[CLS]",
          "type_id": 0
        }
      },
      {
        "Sequence": {
          "id": "A",
          "type_id": 0
        }
      },
      {
        "SpecialToken": {
          "id": "[SEP]",
          "type_id": 0
        }
      }
    ],
    "pair": [
      {
        "SpecialToken": {
          "id": "[CLS]",
          "type_id": 0
        }
      },
      {
        "Sequence": {
          "id": "A",
          "type_id": 0
        }
      },
      {
        "SpecialToken": {
          "id": "[SEP]",
          "type_id": 0
        }
      },
      {
        "Sequence": {
          "id": "B",
          "type_id": 1
        }
      },
      {
        "SpecialToken": {
          "id": "[SEP]",
          "type_id": 1
        }
      }
    ],
    "special_tokens": {
      "[CLS]": {
        "id": "[CLS]",
        "ids": [
          2
        ],
        "tokens": [
          "[CLS]"
        ]
      },
      "[MASK]": {
        "id": "[MASK]",
        "ids": [
          4
        ],
        "tokens": [
          "[MASK]"
        ]
      },
      "[PAD]": {
        "id": "[PAD]",
        "ids": [
          0
        ],
        "tokens": [
          "[PAD]"
        ]
      },
      "[SEP]": {
        "id": "[SEP]",
        "ids": [
          3
        ],
        "tokens": [
          "[SEP]"
        ]
      },
      "[UNK]": {
        "id": "[UNK]",
        "ids": [
          1
        ],
        "tokens": [
          "[UNK]"
        ]
      }
    }
  },
  "decoder": {
    "type": "WordPiece",
    "prefix": "##",
    "cleanup": true
  },
  "model": {
    "type": "WordPiece",
    "unk_token": "[UNK]",
    "continuing_subword_prefix": "##",
    "max_input_chars_per_word": 100,
    "vocab": {
      "[PAD]": 0,
      "[UNK]": 1,
      "[CLS]": 2,
      "[SEP]": 3,
      "[MASK]": 4,
      "!": 5,
      "\"": 6,
      "$": 7,
      "%": 8,
      "&": 9,
      "'": 10,
      "(": 11,
      ")": 12,
      "*": 13,
      "+": 14,
      ",": 15,
      "-": 16,
      ".": 17,
      "/": 18,
      "0": 19,
      "1": 20,
      "2": 21,
      "3": 22,
      "4": 23,
      "5": 24,
      "6": 25,
      "7": 26,
      "8": 27,
      "9": 28,
      ":": 29,
      ";": 30,
      "<": 31,
      "=": 32,
      ">": 33,
      "?": 34,
      "[": 35,
      "\\": 36,
      "]": 37,
      "^": 38,
      "_": 39,
      "`": 40,
      "a": 41,
      "b": 42,
      "c": 43,
      "d": 44,
      "e": 45,
      "f": 46,
      "g": 47,
      "h": 48,
      "i": 49,
      "j": 50,
      "k": 51,
      "l": 52,
      "m": 53,
      "n": 54,
      "o": 55,
      "p": 56,
      "q": 57,
      "r": 58,
      "s": 59,
      "t": 60,
      "u": 61,
      "v": 62,
      "w": 63,
      "x": 64,
      "y": 65,
      "z": 66,
      "{": 67,
      "|": 68,
      "}": 69,
      "~": 70,
      "«": 71,
      "‑": 72,
      "—": 73,
      "‘": 74,
      "’": 75,
      "“": 76,
      "”": 77,
      "##n": 78,
      "##i": 79,
      "##v": 80,
      "##e": 81,
      "##r": 82,
      "##s": 83,
      "##t": 84,
      "##y": 85,
      "##0": 86,
      "##3": 87,
      "##1": 88,
      "##8": 89,
      "##5": 90,
      "##9": 91,
      "##g": 92,
      "##f": 93,
      "##h": 94,
      "##q": 95,
      "##u": 96,
      "##a": 97,
      "##b": 98,
      "##o": 99,
      "##j": 100,
      "##m": 101,
      "##p": 102,
      "##l": 103,
      "##w": 104,
      "##k": 105,
      "##d": 106,
      "##c": 107,
      "##x": 108,
      "##z": 109,
      "##2": 110,
      "##4": 111,
      "##7": 112,
      "##6": 113,
      "th": 114,
      "the": 115,
      "##er": 116,
      "##at": 117,
      "##en": 118,
      "##on": 119,
      "##in": 120,
      "##es": 121,
      "##or": 122,
      "##nd": 123,
      "##ar": 124,
      "to": 125,
      "of": 126,
      "##is": 127,
      "in": 128,
      "##ed": 129,
      "##an": 130,
      "##it": 131,
      "##ent": 132,
      "##ion": 133,
      "##al": 134,
      "##ou": 135,
      "##re": 136,
      "##ing": 137,
      "and": 138,
      "##ic": 139,
      "that": 140,
      "##il": 141,
      "##as": 142,
      "##om": 143,
      "##ment": 144,
      "##le": 145,
      "be": 146,
      "is": 147,
      "##ve": 148,
      "re": 149,
      "wh": 150,
      "##ot": 151,
      "##ct": 152,
      "for": 153,
      "##st": 154,
      "pr": 155,
      "##ut": 156,
      "##ation": 157,
      "##se": 158,
      "##ly": 159,
      "on": 160,
      "it": 161,
      "##ur": 162,
      "##ill": 163,
      "we": 164,
      "ha": 165,
      "de": 166,
      "##ter": 167,
      "##ce": 168,
      "##ver": 169,
      "##id": 170,
      "20": 171,
      "##ow": 172,
      "con": 173,
      "as": 174,
      "##th": 175,
      "##li": 176,
      "##ld": 177,
      "##ch": 178,
      "st": 179,
      "##op": 180,
      "##ay": 181,
      "are": 182,
      "not": 183,
      "##ir": 184,
      "##ad": 185,
      "##ol": 186,
      "have": 187,
      "com": 188,
      "an": 189,
      "##ate": 190,
      "##ith": 191,
      "##gh": 192,
      "this": 193,
      "##et": 194,
      "al": 195,
      "##im": 196,
      "##ers": 197,
      "su": 198,
      "will": 199,
      "##pp": 200,
      "pro": 201,
      "with": 202,
      "##par": 203,
      "go": 204,
      "##ul": 205,
      "he": 206,
      "##ould": 207,
      "par": 208,
      "##em": 209,
      "##ort": 210,
      "##ak": 211,
      "##ess": 212,
      "se": 213,
      "01": 214,
      "##est": 215,
      "201": 216,
      "##am": 217,
      "19": 218,
      "ne": 219,
      "##ament": 220,
      "##ity": 221,
      "##liament": 222,
      "##and": 223,
      "##ab": 224,
      "fr": 225,
      "##ge": 226,
      "##os": 227,
      "sh": 228,
      "##ies": 229,
      "ex": 230,
      "by": 231,
      "##ust": 232,
      "ch": 233,
      "##ich": 234,
      "has": 235,
      "##ant": 236,
      "or": 237,
      "##ish": 238,
      "##parliament": 239,
      "##end": 240,
      "##pe": 241,
      "at": 242,
      "was": 243,
      "##tr": 244,
      "##ain": 245,
      "##oun": 246,
      "min": 247,
      "do": 248,
      "##ive": 249,
      "##iv": 250,
      "can": 251,
      "they": 252,
      "##vern": 253,
      "##mp": 254,
      "tr": 255,
      "govern": 256,
      "##ard": 257,
      "comm": 258,
      "en": 259,
      "ab": 260,
      "there": 261,
      "government": 262,
      "##igh": 263,
      "##ere": 264,
      "which": 265,
      "le": 266,
      "##ister": 267,
      "##oc": 268,
      "##ber": 269,
      "##ff": 270,
      "##our": 271,
      "##ome": 272,
      "mr": 273,
      "##ac": 274,
      "##od": 275,
      "pe": 276,
      "minister": 277,
      "wor": 278,
      "all": 279,
      "##un": 280,
      "##us": 281,
      "from": 282,
      "##ther": 283,
      "##ore": 284,
      "am": 285,
      "un": 286,
      "##ial": 287,
      "res": 288,
      "would": 289,
      "ag": 290,
      "##ue": 291,
      "##ure": 292,
      "##ions": 293,
      "##out": 294,
      "been": 295,
      "##ear": 296,
      "part": 297,
      "who": 298,
      "but": 299,
      "##um": 300,
      "##ig": 301,
      "if": 302,
      "mem": 303,
      "peop": 304,
      "coun": 305,
      "me": 306,
      "##ib": 307,
      "##ose": 308,
      "people": 309,
      "##ight": 310,
      "##el": 311,
      "##ist": 312,
      "our": 313,
      "ad": 314,
      "##ect": 315,
      "##ary": 316,
      "##ud": 317,
      "imp": 318,
      "their": 319,
      "my": 320,
      "ir": 321,
      "##ice": 322,
      "200": 323,
      "##ake": 324,
      "##ous": 325,
      "##act": 326,
      "##ans": 327,
      "ac": 328,
      "inc": 329,
      "##all": 330,
      "spe": 331,
      "app": 332,
      "##ie": 333,
      "##ime": 334,
      "what": 335,
      "qu": 336,
      "about": 337,
      "##ations": 338,
      "year": 339,
      "irish": 340,
      "##able": 341,
      "so": 342,
      "br": 343,
      "##ance": 344,
      "##if": 345,
      "hon": 346,
      "##ence": 347,
      "work": 348,
      "##ough": 349,
      "bill": 350,
      "##qu": 351,
      "no": 352,
      "##ast": 353,
      "some": 354,
      "##au": 355,
      "##ost": 356,
      "pl": 357,
      "##erv": 358,
      "dis": 359,
      "out": 360,
      "new": 361,
      "und": 362,
      "man": 363,
      "##one": 364,
      "##age": 365,
      "cons": 366,
      "ind": 367,
      "rep": 368,
      "irishparliament": 369,
      "reg": 370,
      "##itt": 371,
      "under": 372,
      "##ition": 373,
      "should": 374,
      "##lic": 375,
      "gr": 376,
      "act": 377,
      "one": 378,
      "per": 379,
      "prov": 380,
      "inter": 381,
      "rec": 382,
      "ar": 383,
      "##ult": 384,
      "comp": 385,
      "##ap": 386,
      "##ip": 387,
      "##pport": 388,
      "those": 389,
      "##lee": 390,
      "when": 391,
      "##ag": 392,
      "##ated": 393,
      "##ade": 394,
      "sa": 395,
      "##ub": 396,
      "parlee": 397,
      "more": 398,
      "11": 399,
      "##ause": 400,
      "##ments": 401,
      "##cess": 402,
      "were": 403,
      "any": 404,
      "bec": 405,
      "off": 406,
      "##gr": 407,
      "##ustr": 408,
      "int": 409,
      "up": 410,
      "##ally": 411,
      "sec": 412,
      "##vel": 413,
      "##ouse": 414,
      "us": 415,
      "##ach": 416,
      "06": 417,
      "dep": 418,
      "##are": 419,
      "##ise": 420,
      "his": 421,
      "##ery": 422,
      "##ational": 423,
      "di": 424,
      "##ree": 425,
      "fin": 426,
      "cr": 427,
      "05": 428,
      "than": 429,
      "pol": 430,
      "time": 431,
      "house": 432,
      "##lo": 433,
      "##uc": 434,
      "##oin": 435,
      "how": 436,
      "other": 437,
      "##ail": 438,
      "##for": 439,
      "##ee": 440,
      "exp": 441,
      "##ong": 442,
      "them": 443,
      "##ities": 444,
      "state": 445,
      "serv": 446,
      "cl": 447,
      "##ace": 448,
      "03": 449,
      "need": 450,
      "##pt": 451,
      "##ens": 452,
      "##ack": 453,
      "##ction": 454,
      "##ild": 455,
      "li": 456,
      "##ase": 457,
      "02": 458,
      "##ke": 459,
      "##land": 460,
      "10": 461,
      "sch": 462,
      "member": 463,
      "##now": 464,
      "right": 465,
      "mat": 466,
      "very": 467,
      "countr": 468,
      "##so": 469,
      "##ll": 470,
      "uk": 471,
      "sc": 472,
      "##enc": 473,
      "had": 474,
      "##oint": 475,
      "##ide": 476,
      "##bers": 477,
      "its": 478,
      "also": 479,
      "because": 480,
      "12": 481,
      "199": 482,
      "speak": 483,
      "##reat": 484,
      "these": 485,
      "over": 486,
      "##ro": 487,
      "pre": 488,
      "prop": 489,
      "cont": 490,
      "deput": 491,
      "##ia": 492,
      "say": 493,
      "##ons": 494,
      "##oss": 495,
      "##air": 496,
      "canad": 497,
      "know": 498,
      "support": 499,
      "make": 500,
      "made": 501,
      "##ok": 502,
      "you": 503,
      "str": 504,
      "pub": 505,
      "inv": 506,
      "iss": 507,
      "quest": 508,
      "##ign": 509,
      "members": 510,
      "##ine": 511,
      "ta": 512,
      "##ious": 513,
      "##pect": 514,
      "jo": 515,
      "##ond": 516,
      "sp": 517,
      "##ert": 518,
      "ask": 519,
      "##form": 520,
      "##ame": 521,
      "now": 522,
      "such": 523,
      "matter": 524,
      "##ical": 525,
      "ev": 526,
      "dec": 527,
      "##anc": 528,
      "mar": 529,
      "##und": 530,
      "committ": 531,
      "ass": 532,
      "ukparliament": 533,
      "deputy": 534,
      "just": 535,
      "07": 536,
      "##aw": 537,
      "years": 538,
      "##ric": 539,
      "many": 540,
      "##ink": 541,
      "##ord": 542,
      "##ian": 543,
      "want": 544,
      "being": 545,
      "##ound": 546,
      "##lem": 547,
      "##ope": 548,
      "conc": 549,
      "##part": 550,
      "##her": 551,
      "dr": 552,
      "##eal": 553,
      "##ates": 554,
      "04": 555,
      "import": 556,
      "##ices": 557,
      "sub": 558,
      "##iss": 559,
      "co": 560,
      "leg": 561,
      "ref": 562,
      "into": 563,
      "country": 564,
      "##00": 565,
      "public": 566,
      "get": 567,
      "##ility": 568,
      "##fore": 569,
      "loc": 570,
      "way": 571,
      "198": 572,
      "##unity": 573,
      "thr": 574,
      "##ire": 575,
      "lo": 576,
      "op": 577,
      "##esent": 578,
      "##ject": 579,
      "ro": 580,
      "##loy": 581,
      "must": 582,
      "##con": 583,
      "only": 584,
      "may": 585,
      "##ern": 586,
      "af": 587,
      "contr": 588,
      "##alth": 589,
      "speaker": 590,
      "eff": 591,
      "cent": 592,
      "##lect": 593,
      "depart": 594,
      "deb": 595,
      "fir": 596,
      "said": 597,
      "point": 598,
      "##very": 599,
      "##ings": 600,
      "ord": 601,
      "##ider": 602,
      "see": 603,
      "like": 604,
      "##velop": 605,
      "acc": 606,
      "bet": 607,
      "##lation": 608,
      "pers": 609,
      "rem": 610,
      "does": 611,
      "sy": 612,
      "num": 613,
      "ter": 614,
      "develop": 615,
      "take": 616,
      "tax": 617,
      "##ite": 618,
      "question": 619,
      "health": 620,
      "add": 621,
      "gen": 622,
      "report": 623,
      "progr": 624,
      "could": 625,
      "##ible": 626,
      "##iew": 627,
      "##ents": 628,
      "##lud": 629,
      "te": 630,
      "##ass": 631,
      "through": 632,
      "fund": 633,
      "##conom": 634,
      "child": 635,
      "##stit": 636,
      "where": 637,
      "think": 638,
      "partic": 639,
      "pay": 640,
      "##ific": 641,
      "##ang": 642,
      "austr": 643,
      "09": 644,
      "committee": 645,
      "##ative": 646,
      "##uth": 647,
      "econom": 648,
      "##og": 649,
      "local": 650,
      "austral": 651,
      "resp": 652,
      "##ision": 653,
      "##uct": 654,
      "##ular": 655,
      "national": 656,
      "cour": 657,
      "again": 658,
      "1900": 659,
      "emp": 660,
      "##als": 661,
      "diff": 662,
      "##ution": 663,
      "##ret": 664,
      "incre": 665,
      "amend": 666,
      "##oll": 667,
      "##ange": 668,
      "consider": 669,
      "##osition": 670,
      "##av": 671,
      "##ention": 672,
      "first": 673,
      "department": 674,
      "important": 675,
      "canada": 676,
      "##ited": 677,
      "put": 678,
      "##eral": 679,
      "##ised": 680,
      "##own": 681,
      "##ues": 682,
      "tw": 683,
      "##day": 684,
      "tak": 685,
      "##ool": 686,
      "soc": 687,
      "##ene": 688,
      "prob": 689,
      "fe": 690,
      "##ks": 691,
      "bo": 692,
      "##ved": 693,
      "##ful": 694,
      "every": 695,
      "fact": 696,
      "well": 697,
      "##ward": 698,
      "##cil": 699,
      "##ors": 700,
      "number": 701,
      "##ory": 702,
      "bus": 703,
      "##get": 704,
      "giv": 705,
      "##duc": 706,
      "##ty": 707,
      "##lie": 708,
      "scot": 709,
      "far": 710,
      "concern": 711,
      "##iz": 712,
      "contin": 713,
      "##ount": 714,
      "##lear": 715,
      "##iend": 716,
      "last": 717,
      "order": 718,
      "friend": 719,
      "ens": 720,
      "great": 721,
      "ob": 722,
      "##uthor": 723,
      "##uch": 724,
      "requ": 725,
      "agree": 726,
      "high": 727,
      "##stem": 728,
      "includ": 729,
      "##ied": 730,
      "council": 731,
      "author": 732,
      "att": 733,
      "system": 734,
      "##wn": 735,
      "##ission": 736,
      "##ures": 737,
      "##ealand": 738,
      "##ency": 739,
      "legis": 740,
      "##ress": 741,
      "good": 742,
      "school": 743,
      "conf": 744,
      "mill": 745,
      "polic": 746,
      "industr": 747,
      "trans": 748,
      "disc": 749,
      "two": 750,
      "asked": 751,
      "parliament": 752,
      "##ving": 753,
      "nor": 754,
      "particular": 755,
      "employ": 756,
      "before": 757,
      "##iness": 758,
      "##ased": 759,
      "##urr": 760,
      "car": 761,
      "did": 762,
      "##ever": 763,
      "person": 764,
      "##ile": 765,
      "she": 766,
      "mo": 767,
      "##we": 768,
      "propos": 769,
      "cost": 770,
      "ma": 771,
      "des": 772,
      "deal": 773,
      "##way": 774,
      "her": 775,
      "mon": 776,
      "##ating": 777,
      "col": 778,
      "business": 779,
      "def": 780,
      "services": 781,
      "day": 782,
      "problem": 783,
      "##led": 784,
      "issue": 785,
      "##cept": 786,
      "##ives": 787,
      "##ms": 788,
      "lab": 789,
      "much": 790,
      "##ting": 791,
      "invest": 792,
      "interest": 793,
      "debate": 794,
      "##ind": 795,
      "2012": 796,
      "service": 797,
      "bu": 798,
      "##ently": 799,
      "##uring": 800,
      "clear": 801,
      "look": 802,
      "##lish": 803,
      "back": 804,
      "provid": 805,
      "party": 806,
      "##amp": 807,
      "est": 808,
      "why": 809,
      "##ep": 810,
      "end": 811,
      "long": 812,
      "##sel": 813,
      "rev": 814,
      "regard": 815,
      "##ning": 816,
      "most": 817,
      "##ael": 818,
      "adv": 819,
      "however": 820,
      "place": 821,
      "stand": 822,
      "##ts": 823,
      "community": 824,
      "set": 825,
      "##ell": 826,
      "program": 827,
      "inform": 828,
      "million": 829,
      "rel": 830,
      "aff": 831,
      "spec": 832,
      "educ": 833,
      "whe": 834,
      "##lement": 835,
      "##oney": 836,
      "av": 837,
      "care": 838,
      "cor": 839,
      "##ren": 840,
      "law": 841,
      "legislation": 842,
      "##ute": 843,
      "red": 844,
      "sm": 845,
      "##hip": 846,
      "##outh": 847,
      "allow": 848,
      "belie": 849,
      "going": 850,
      "own": 851,
      "##thing": 852,
      "##fit": 853,
      "##ted": 854,
      "opp": 855,
      "schem": 856,
      "eur": 857,
      "##ry": 858,
      "fam": 859,
      "##rect": 860,
      "intern": 861,
      "oper": 862,
      "even": 863,
      "money": 864,
      "##ual": 865,
      "##min": 866,
      "ensure": 867,
      "2018": 868,
      "job": 869,
      "cert": 870,
      "hel": 871,
      "case": 872,
      "constit": 873,
      "him": 874,
      "children": 875,
      "prot": 876,
      "give": 877,
      "##ru": 878,
      "refer": 879,
      "lead": 880,
      "##xt": 881,
      "##ne": 882,
      "after": 883,
      "2010": 884,
      "famil": 885,
      "here": 886,
      "development": 887,
      "today": 888,
      "dem": 889,
      "whether": 890,
      "##not": 891,
      "effect": 892,
      "##oth": 893,
      "2011": 894,
      "##gan": 895,
      "wel": 896,
      "##ces": 897,
      "process": 898,
      "##ween": 899,
      "secret": 900,
      "fur": 901,
      "2009": 902,
      "##stand": 903,
      "between": 904,
      "australia": 905,
      "south": 906,
      "ra": 907,
      "##me": 908,
      "##ital": 909,
      "##ady": 910,
      "help": 911,
      "given": 912,
      "##oup": 913,
      "2017": 914,
      "happ": 915,
      "wee": 916,
      "##uss": 917,
      "##iate": 918,
      "mich": 919,
      "bene": 920,
      "poss": 921,
      "social": 922,
      "##ict": 923,
      "commission": 924,
      "sim": 925,
      "08": 926,
      "call": 927,
      "sit": 928,
      "##resent": 929,
      "2013": 930,
      "##ec": 931,
      "cannot": 932,
      "come": 933,
      "appro": 934,
      "plan": 935,
      "2019": 936,
      "##ath": 937,
      "policy": 938,
      "further": 939,
      "reas": 940,
      "##ians": 941,
      "true": 942,
      "mak": 943,
      "supp": 944,
      "united": 945,
      "pres": 946,
      "##ick": 947,
      "ext": 948,
      "then": 949,
      "bud": 950,
      "education": 951,
      "respons": 952,
      "general": 953,
      "##alk": 954,
      "##les": 955,
      "europe": 956,
      "ear": 957,
      "prev": 958,
      "done": 959,
      "rece": 960,
      "ful": 961,
      "sin": 962,
      "opport": 963,
      "represent": 964,
      "budget": 965,
      "curr": 966,
      "scotland": 967,
      "char": 968,
      "elect": 969,
      "pur": 970,
      "##old": 971,
      "meet": 972,
      "2015": 973,
      "certain": 974,
      "cap": 975,
      "world": 976,
      "let": 977,
      "secretary": 978,
      "view": 979,
      "sign": 980,
      "industry": 981,
      "real": 982,
      "ins": 983,
      "secur": 984,
      "protect": 985,
      "statement": 986,
      "##ident": 987,
      "level": 988,
      "ser": 989,
      "pow": 990,
      "economic": 991,
      "##ural": 992,
      "amendment": 993,
      "##te": 994,
      "##ought": 995,
      "sect": 996,
      "##ced": 997,
      "mark": 998,
      "respect": 999,
      "use": 1000,
      "area": 1001,
      "##lin": 1002,
      "same": 1003,
      "benefit": 1004,
      "##vers": 1005,
      "##eng": 1006,
      "##other": 1007,
      "##ood": 1008,
      "hope": 1009,
      "polit": 1010,
      "fut": 1011,
      "present": 1012,
      "offic": 1013,
      "2014": 1014,
      "ann": 1015,
      "##uation": 1016,
      "2016": 1017,
      "##gg": 1018,
      "pat": 1019,
      "down": 1020,
      "international": 1021,
      "##omm": 1022,
      "##ollow": 1023,
      "future": 1024,
      "avail": 1025,
      "michael": 1026,
      "believe": 1027,
      "##erg": 1028,
      "##red": 1029,
      "security": 1030,
      "197": 1031,
      "ire": 1032,
      "provide": 1033,
      "##ety": 1034,
      "against": 1035,
      "compan": 1036,
      "follow": 1037,
      "taken": 1038,
      "understand": 1039,
      "form": 1040,
      "scheme": 1041,
      "priv": 1042,
      "discuss": 1043,
      "id": 1044,
      "##ave": 1045,
      "##ote": 1046,
      "ban": 1047,
      "cond": 1048,
      "hous": 1049,
      "##ater": 1050,
      "issues": 1051,
      "meas": 1052,
      "##urn": 1053,
      "differ": 1054,
      "organ": 1055,
      "##mm": 1056,
      "##ism": 1057,
      "information": 1058,
      "##af": 1059,
      "second": 1060,
      "eng": 1061,
      "land": 1062,
      "##pr": 1063,
      "intr": 1064,
      "labour": 1065,
      "month": 1066,
      "##cc": 1067,
      "result": 1068,
      "position": 1069,
      "group": 1070,
      "direct": 1071,
      "##aff": 1072,
      "financ": 1073,
      "colle": 1074,
      "canadaparliament": 1075,
      "##man": 1076,
      "##ases": 1077,
      "det": 1078,
      "##ants": 1079,
      "##hn": 1080,
      "##ibility": 1081,
      "ret": 1082,
      "since": 1083,
      "deli": 1084,
      "ireland": 1085,
      "impro": 1086,
      "talk": 1087,
      "build": 1088,
      "newz": 1089,
      "newzealand": 1090,
      "newzealandparliament": 1091,
      "might": 1092,
      "areas": 1093,
      "##icult": 1094,
      "val": 1095,
      "able": 1096,
      "##ather": 1097,
      "##ves": 1098,
      "sure": 1099,
      "es": 1100,
      "mot": 1101,
      "em": 1102,
      "bas": 1103,
      "gu": 1104,
      "including": 1105,
      "contrib": 1106,
      "##ability": 1107,
      "fac": 1108,
      "both": 1109,
      "med": 1110,
      "introd": 1111,
      "main": 1112,
      "available": 1113,
      "thank": 1114,
      "john": 1115,
      "maj": 1116,
      "##reed": 1117,
      "13": 1118,
      "equ": 1119,
      "aw": 1120,
      "continue": 1121,
      "invol": 1122,
      "env": 1123,
      "inf": 1124,
      "three": 1125,
      "within": 1126,
      "##port": 1127,
      "board": 1128,
      "difficult": 1129,
      "ke": 1130,
      "change": 1131,
      "wr": 1132,
      "hum": 1133,
      "home": 1134,
      "while": 1135,
      "office": 1136,
      "##ior": 1137,
      "15": 1138,
      "find": 1139,
      "chair": 1140,
      "##unities": 1141,
      "prod": 1142,
      "14": 1143,
      "address": 1144,
      "18": 1145,
      "##aid": 1146,
      "accept": 1147,
      "##art": 1148,
      "week": 1149,
      "wom": 1150,
      "course": 1151,
      "ent": 1152,
      "gent": 1153,
      "bl": 1154,
      "another": 1155,
      "comple": 1156,
      "prom": 1157,
      "chang": 1158,
      "16": 1159,
      "17": 1160,
      "25": 1161,
      "possible": 1162,
      "prime": 1163,
      "reason": 1164,
      "during": 1165,
      "gentlem": 1166,
      "working": 1167,
      "major": 1168,
      "##aining": 1169,
      "increase": 1170,
      "region": 1171,
      "##isions": 1172,
      "##sw": 1173,
      "27": 1174,
      "##ances": 1175,
      "states": 1176,
      "constitu": 1177,
      "##istr": 1178,
      "without": 1179,
      "24": 1180,
      "market": 1181,
      "necess": 1182,
      "inst": 1183,
      "##ready": 1184,
      "opportunity": 1185,
      "already": 1186,
      "project": 1187,
      "small": 1188,
      "brit": 1189,
      "26": 1190,
      "##ying": 1191,
      "countries": 1192,
      "##imes": 1193,
      "ph": 1194,
      "funding": 1195,
      "##lig": 1196,
      "gentleman": 1197,
      "review": 1198,
      "##idence": 1199,
      "having": 1200,
      "better": 1201,
      "##inc": 1202,
      "sector": 1203,
      "##ody": 1204,
      "28": 1205,
      "assist": 1206,
      "needs": 1207,
      "next": 1208,
      "regul": 1209,
      "account": 1210,
      "##ising": 1211,
      "section": 1212,
      "pass": 1213,
      "##onment": 1214,
      "##ablish": 1215,
      "situation": 1216,
      "forward": 1217,
      "21": 1218,
      "23": 1219,
      "still": 1220,
      "22": 1221,
      "happen": 1222,
      "establish": 1223,
      "financial": 1224,
      "list": 1225,
      "human": 1226,
      "saf": 1227,
      "opposition": 1228,
      "##ived": 1229,
      "##ivid": 1230,
      "##ually": 1231,
      "rights": 1232,
      "##come": 1233,
      "european": 1234,
      "farm": 1235,
      "envir": 1236,
      "applic": 1237,
      "##ality": 1238,
      "##ential": 1239,
      "stud": 1240,
      "making": 1241,
      "decision": 1242,
      "##ogn": 1243,
      "grow": 1244,
      "##ock": 1245,
      "recogn": 1246,
      "move": 1247,
      "serious": 1248,
      "##uce": 1249,
      "authority": 1250,
      "programme": 1251,
      "environment": 1252,
      "peace": 1253,
      "sur": 1254,
      "##oung": 1255,
      "##ggest": 1256,
      "##orts": 1257,
      "arr": 1258,
      "lif": 1259,
      "suggest": 1260,
      "addition": 1261,
      "##emp": 1262,
      "answ": 1263,
      "young": 1264,
      "detail": 1265,
      "occ": 1266,
      "doing": 1267,
      "sen": 1268,
      "political": 1269,
      "cre": 1270,
      "beh": 1271,
      "rest": 1272,
      "past": 1273,
      "authorities": 1274,
      "##ten": 1275,
      "economy": 1276,
      "action": 1277,
      "war": 1278,
      "##ately": 1279,
      "too": 1280,
      "##eep": 1281,
      "things": 1282,
      "ach": 1283,
      "##iod": 1284,
      "##ling": 1285,
      "196": 1286,
      "women": 1287,
      "##ience": 1288,
      "pract": 1289,
      "examp": 1290,
      "##olog": 1291,
      "202": 1292,
      "lar": 1293,
      "mc": 1294,
      "each": 1295,
      "resour": 1296,
      "acr": 1297,
      "exist": 1298,
      "stat": 1299,
      "shall": 1300,
      "terms": 1301,
      "##osp": 1302,
      "bring": 1303,
      "wish": 1304,
      "trade": 1305,
      "something": 1306,
      "29": 1307,
      "power": 1308,
      "##utions": 1309,
      "##ending": 1310,
      "nations": 1311,
      "implement": 1312,
      "period": 1313,
      "##ired": 1314,
      "##atives": 1315,
      "##ient": 1316,
      "##ix": 1317,
      "##ness": 1318,
      "30": 1319,
      "suc": 1320,
      "##ateg": 1321,
      "access": 1322,
      "concerned": 1323,
      "achie": 1324,
      "bar": 1325,
      "therefore": 1326,
      "simp": 1327,
      "county": 1328,
      "##rop": 1329,
      "employment": 1330,
      "##cr": 1331,
      "amount": 1332,
      "schools": 1333,
      "##han": 1334,
      "housing": 1335,
      "##uction": 1336,
      "particularly": 1337,
      "best": 1338,
      "commit": 1339,
      "##ences": 1340,
      "##tern": 1341,
      "##iving": 1342,
      "zealand": 1343,
      "cla": 1344,
      "cut": 1345,
      "##ug": 1346,
      "##ton": 1347,
      "few": 1348,
      "sol": 1349,
      "read": 1350,
      "consult": 1351,
      "terr": 1352,
      "jobs": 1353,
      "ple": 1354,
      "across": 1355,
      "##ained": 1356,
      "signific": 1357,
      "full": 1358,
      "aware": 1359,
      "conserv": 1360,
      "agreement": 1361,
      "##self": 1362,
      "private": 1363,
      "individ": 1364,
      "reform": 1365,
      "##oub": 1366,
      "provision": 1367,
      "po": 1368,
      "provided": 1369,
      "##chn": 1370,
      "##ension": 1371,
      "road": 1372,
      "##gu": 1373,
      "##ner": 1374,
      "answer": 1375,
      "short": 1376,
      "means": 1377,
      "justice": 1378,
      "##ways": 1379,
      "around": 1380,
      "hear": 1381,
      "necessary": 1382,
      "hand": 1383,
      "##acy": 1384,
      "word": 1385,
      "used": 1386,
      "colleag": 1387,
      "progress": 1388,
      "expect": 1389,
      "hosp": 1390,
      "##wor": 1391,
      "##ages": 1392,
      "har": 1393,
      "##isation": 1394,
      "##itions": 1395,
      "##ilities": 1396,
      "##agement": 1397,
      "##ansard": 1398,
      "##osed": 1399,
      "months": 1400,
      "##rica": 1401,
      "##aps": 1402,
      "low": 1403,
      "##ended": 1404,
      "vi": 1405,
      "tre": 1406,
      "special": 1407,
      "staff": 1408,
      "improve": 1409,
      "measures": 1410,
      "##alf": 1411,
      "less": 1412,
      "court": 1413,
      "motion": 1414,
      "##ys": 1415,
      "##ocr": 1416,
      "north": 1417,
      "mor": 1418,
      "fig": 1419,
      "##ably": 1420,
      "different": 1421,
      "lim": 1422,
      "ele": 1423,
      "##ivers": 1424,
      "ur": 1425,
      "show": 1426,
      "union": 1427,
      "##ech": 1428,
      "recomm": 1429,
      "significant": 1430,
      "liber": 1431,
      "rate": 1432,
      "tell": 1433,
      "##gether": 1434,
      "##hing": 1435,
      "##its": 1436,
      "billion": 1437,
      "current": 1438,
      "questions": 1439,
      "fair": 1440,
      "neg": 1441,
      "##uced": 1442,
      "gener": 1443,
      "##inal": 1444,
      "example": 1445,
      "approach": 1446,
      "finance": 1447,
      "problems": 1448,
      "treat": 1449,
      "ca": 1450,
      "##hansard": 1451,
      "##ics": 1452,
      "australiahansard": 1453,
      "##iation": 1454,
      "previous": 1455,
      "##less": 1456,
      "fail": 1457,
      "open": 1458,
      "centr": 1459,
      "post": 1460,
      "family": 1461,
      "##ann": 1462,
      "don": 1463,
      "##ief": 1464,
      "investment": 1465,
      "step": 1466,
      "mention": 1467,
      "never": 1468,
      "##ards": 1469,
      "income": 1470,
      "var": 1471,
      "speech": 1472,
      "resol": 1473,
      "exper": 1474,
      "##irc": 1475,
      "##eign": 1476,
      "##incip": 1477,
      "imm": 1478,
      "abs": 1479,
      "whole": 1480,
      "princip": 1481,
      "##ified": 1482,
      "195": 1483,
      "##aged": 1484,
      "##omes": 1485,
      "##enn": 1486,
      "init": 1487,
      "require": 1488,
      "##lus": 1489,
      "rele": 1490,
      "##ropr": 1491,
      "##ale": 1492,
      "families": 1493,
      "life": 1494,
      "nat": 1495,
      "success": 1496,
      "##ises": 1497,
      "west": 1498,
      "##he": 1499,
      "cases": 1500,
      "role": 1501,
      "##iety": 1502,
      "crit": 1503,
      "circ": 1504,
      "tot": 1505,
      "##atic": 1506,
      "president": 1507,
      "democr": 1508,
      "basis": 1509,
      "welcome": 1510,
      "together": 1511,
      "recent": 1512,
      "resources": 1513,
      "##ceed": 1514,
      "chall": 1515,
      "air": 1516,
      "claim": 1517,
      "strong": 1518,
      "prior": 1519,
      "##ley": 1520,
      "##wh": 1521,
      "workers": 1522,
      "tar": 1523,
      "taking": 1524,
      "free": 1525,
      "ve": 1526,
      "impact": 1527,
      "inde": 1528,
      "const": 1529,
      "your": 1530,
      "purp": 1531,
      "bre": 1532,
      "police": 1533,
      "yes": 1534,
      "communities": 1535,
      "transport": 1536,
      "four": 1537,
      "mod": 1538,
      "bank": 1539,
      "conv": 1540,
      "##ession": 1541,
      "compet": 1542,
      "strateg": 1543,
      "record": 1544,
      "rather": 1545,
      "responsibility": 1546,
      "##ilit": 1547,
      "ago": 1548,
      "term": 1549,
      "enc": 1550,
      "subject": 1551,
      "##selves": 1552,
      "stage": 1553,
      "instit": 1554,
      "agreed": 1555,
      "fl": 1556,
      "involved": 1557,
      "techn": 1558,
      "##ership": 1559,
      "quite": 1560,
      "following": 1561,
      "yet": 1562,
      "suff": 1563,
      "vis": 1564,
      "##wards": 1565,
      "found": 1566,
      "water": 1567,
      "paid": 1568,
      "received": 1569,
      "grant": 1570,
      "matters": 1571,
      "##ters": 1572,
      "##cial": 1573,
      "british": 1574,
      "##per": 1575,
      "##ricult": 1576,
      "changes": 1577,
      "deter": 1578,
      "agricult": 1579,
      "##ames": 1580,
      "effective": 1581,
      "based": 1582,
      "always": 1583,
      "##ropriate": 1584,
      "proposed": 1585,
      "specific": 1586,
      "old": 1587,
      "##lied": 1588,
      "vote": 1589,
      "seem": 1590,
      "prepar": 1591,
      "canadians": 1592,
      "2006": 1593,
      "relation": 1594,
      "enter": 1595,
      "##hold": 1596,
      "saying": 1597,
      "keep": 1598,
      "##ains": 1599,
      "jud": 1600,
      "##ergy": 1601,
      "193": 1602,
      "2008": 1603,
      "companies": 1604,
      "seek": 1605,
      "##ra": 1606,
      "##epend": 1607,
      "##ees": 1608,
      "##fer": 1609,
      "##haps": 1610,
      "##ember": 1611,
      "lot": 1612,
      "##til": 1613,
      "announ": 1614,
      "accord": 1615,
      "##ittle": 1616,
      "##ines": 1617,
      "sean": 1618,
      "##airs": 1619,
      "perhaps": 1620,
      "ris": 1621,
      "thing": 1622,
      "indic": 1623,
      "civ": 1624,
      "##itive": 1625,
      "##up": 1626,
      "energy": 1627,
      "##work": 1628,
      "heard": 1629,
      "independ": 1630,
      "##iting": 1631,
      "deliver": 1632,
      "raised": 1633,
      "##itor": 1634,
      "##ering": 1635,
      "defence": 1636,
      "little": 1637,
      "line": 1638,
      "scott": 1639,
      "large": 1640,
      "##used": 1641,
      "##ird": 1642,
      "el": 1643,
      "##ison": 1644,
      "object": 1645,
      "nothing": 1646,
      "##body": 1647,
      "ministers": 1648,
      "##ily": 1649,
      "seen": 1650,
      "five": 1651,
      "play": 1652,
      "expl": 1653,
      "teach": 1654,
      "##vant": 1655,
      "management": 1656,
      "##ned": 1657,
      "##leg": 1658,
      "proper": 1659,
      "##gin": 1660,
      "press": 1661,
      "prof": 1662,
      "##ued": 1663,
      "costs": 1664,
      "building": 1665,
      "run": 1666,
      "##ght": 1667,
      "really": 1668,
      "gre": 1669,
      "food": 1670,
      "recommend": 1671,
      "protection": 1672,
      "##though": 1673,
      "official": 1674,
      "##employ": 1675,
      "east": 1676,
      "bur": 1677,
      "although": 1678,
      "civil": 1679,
      "##ft": 1680,
      "activ": 1681,
      "foreign": 1682,
      "times": 1683,
      "hard": 1684,
      "sk": 1685,
      "##ont": 1686,
      "cred": 1687,
      "election": 1688,
      "parties": 1689,
      "company": 1690,
      "fish": 1691,
      "amendments": 1692,
      "doub": 1693,
      "society": 1694,
      "2005": 1695,
      "affect": 1696,
      "2003": 1697,
      "##mber": 1698,
      "proposals": 1699,
      "ms": 1700,
      "##empt": 1701,
      "##cu": 1702,
      "encour": 1703,
      "unemploy": 1704,
      "referred": 1705,
      "##sequ": 1706,
      "##thern": 1707,
      "evidence": 1708,
      "appropriate": 1709,
      "wa": 1710,
      "arrange": 1711,
      "mean": 1712,
      "##thers": 1713,
      "bro": 1714,
      "2004": 1715,
      "lear": 1716,
      "##ph": 1717,
      "others": 1718,
      "##ucture": 1719,
      "hold": 1720,
      "##ges": 1721,
      "2000": 1722,
      "control": 1723,
      "eu": 1724,
      "product": 1725,
      "affairs": 1726,
      "##ength": 1727,
      "regional": 1728,
      "got": 1729,
      "appoint": 1730,
      "required": 1731,
      "certainly": 1732,
      "disp": 1733,
      "common": 1734,
      "additional": 1735,
      "194": 1736,
      "commitment": 1737,
      "least": 1738,
      "viol": 1739,
      "indeed": 1740,
      "meeting": 1741,
      "dub": 1742,
      "australian": 1743,
      "unf": 1744,
      "increased": 1745,
      "big": 1746,
      "legal": 1747,
      "admin": 1748,
      "kind": 1749,
      "assess": 1750,
      "assoc": 1751,
      "told": 1752,
      "third": 1753,
      "##ensive": 1754,
      "2007": 1755,
      "asse": 1756,
      "##ov": 1757,
      "leader": 1758,
      "until": 1759,
      "argu": 1760,
      "actually": 1761,
      "fed": 1762,
      "training": 1763,
      "parliamentary": 1764,
      "date": 1765,
      "##line": 1766,
      "force": 1767,
      "exam": 1768,
      "dav": 1769,
      "pension": 1770,
      "##uge": 1771,
      "leave": 1772,
      "##asing": 1773,
      "hospital": 1774,
      "scottish": 1775,
      "non": 1776,
      "##sh": 1777,
      "initi": 1778,
      "ghan": 1779,
      "##ify": 1780,
      "2001": 1781,
      "extr": 1782,
      "side": 1783,
      "head": 1784,
      "##onse": 1785,
      "clause": 1786,
      "pap": 1787,
      "dublin": 1788,
      "estim": 1789,
      "vot": 1790,
      "response": 1791,
      "relations": 1792,
      "distr": 1793,
      "express": 1794,
      "contract": 1795,
      "##stances": 1796,
      "rul": 1797,
      "camp": 1798,
      "details": 1799,
      "univers": 1800,
      "gl": 1801,
      "circum": 1802,
      "capital": 1803,
      "ghana": 1804,
      "##ury": 1805,
      "central": 1806,
      "##ists": 1807,
      "##ier": 1808,
      "businesses": 1809,
      "##astr": 1810,
      "##equ": 1811,
      "simply": 1812,
      "que": 1813,
      "mind": 1814,
      "prim": 1815,
      "target": 1816,
      "absol": 1817,
      "##ah": 1818,
      "called": 1819,
      "##itiz": 1820,
      "hist": 1821,
      "feel": 1822,
      "clearly": 1823,
      "enough": 1824,
      "##ney": 1825,
      "##fare": 1826,
      "mentioned": 1827,
      "scotlandparliament": 1828,
      "days": 1829,
      "growth": 1830,
      "absolute": 1831,
      "broad": 1832,
      "concerns": 1833,
      "met": 1834,
      "exec": 1835,
      "plac": 1836,
      "##son": 1837,
      "governments": 1838,
      "dut": 1839,
      "particip": 1840,
      "total": 1841,
      "often": 1842,
      "sing": 1843,
      "sat": 1844,
      "coming": 1845,
      "##earch": 1846,
      "away": 1847,
      "safety": 1848,
      "ide": 1849,
      "##ours": 1850,
      "##side": 1851,
      "mid": 1852,
      "city": 1853,
      "rich": 1854,
      "foc": 1855,
      "research": 1856,
      "##ulation": 1857,
      "##mb": 1858,
      "##ither": 1859,
      "live": 1860,
      "constituency": 1861,
      "##urance": 1862,
      "currently": 1863,
      "turn": 1864,
      "##orate": 1865,
      "provisions": 1866,
      "##unic": 1867,
      "##na": 1868,
      "citiz": 1869,
      "key": 1870,
      "brought": 1871,
      "conn": 1872,
      "earli": 1873,
      "negot": 1874,
      "due": 1875,
      "operation": 1876,
      "##ered": 1877,
      "efforts": 1878,
      "once": 1879,
      "pop": 1880,
      "assistance": 1881,
      "##oise": 1882,
      "become": 1883,
      "ident": 1884,
      "getting": 1885,
      "age": 1886,
      "farmers": 1887,
      "arm": 1888,
      "welfare": 1889,
      "trying": 1890,
      "attention": 1891,
      "##the": 1892,
      "close": 1893,
      "circumstances": 1894,
      "2002": 1895,
      "eas": 1896,
      "greater": 1897,
      "pot": 1898,
      "##ically": 1899,
      "##ledge": 1900,
      "test": 1901,
      "rural": 1902,
      "conditions": 1903,
      "##ried": 1904,
      "ty": 1905,
      "cli": 1906,
      "##ination": 1907,
      "achieve": 1908,
      "price": 1909,
      "six": 1910,
      "return": 1911,
      "adop": 1912,
      "wrong": 1913,
      "came": 1914,
      "##encies": 1915,
      "subm": 1916,
      "living": 1917,
      "##go": 1918,
      "introduced": 1919,
      "themselves": 1920,
      "northern": 1921,
      "##ield": 1922,
      "##ening": 1923,
      "##tion": 1924,
      "rates": 1925,
      "says": 1926,
      "canadian": 1927,
      "nation": 1928,
      "execut": 1929,
      "crim": 1930,
      "##app": 1931,
      "considered": 1932,
      "among": 1933,
      "##oiseach": 1934,
      "##fact": 1935,
      "taoiseach": 1936,
      "interv": 1937,
      "##orr": 1938,
      "##aph": 1939,
      "consideration": 1940,
      "recently": 1941,
      "investig": 1942,
      "towards": 1943,
      "##by": 1944,
      "##be": 1945,
      "##rupt": 1946,
      "conflic": 1947,
      "vol": 1948,
      "pos": 1949,
      "partn": 1950,
      "docu": 1951,
      "value": 1952,
      "cover": 1953,
      "sever": 1954,
      "##ench": 1955,
      "##lay": 1956,
      "vict": 1957,
      "ce": 1958,
      "cho": 1959,
      "decisions": 1960,
      "publish": 1961,
      "individual": 1962,
      "reach": 1963,
      "benefits": 1964,
      "earlier": 1965,
      "##co": 1966,
      "##irm": 1967,
      "appeal": 1968,
      "early": 1969,
      "proceed": 1970,
      "interests": 1971,
      "subst": 1972,
      "##ri": 1973,
      "mom": 1974,
      "trust": 1975,
      "talking": 1976,
      "opt": 1977,
      "gard": 1978,
      "bal": 1979,
      "words": 1980,
      "alloc": 1981,
      "##iture": 1982,
      "complete": 1983,
      "##ank": 1984,
      "##ged": 1985,
      "risk": 1986,
      "expend": 1987,
      "administr": 1988,
      "##most": 1989,
      "figures": 1990,
      "##ize": 1991,
      "apply": 1992,
      "infr": 1993,
      "1998": 1994,
      "sent": 1995,
      "conservative": 1996,
      "experience": 1997,
      "planning": 1998,
      "##tin": 1999,
      "##urs": 2000,
      "##ology": 2001,
      "plans": 2002,
      "1999": 2003,
      "##ule": 2004,
      "##io": 2005,
      "cris": 2006,
      "request": 2007,
      "application": 2008,
      "##ental": 2009,
      "net": 2010,
      "payment": 2011,
      "den": 2012,
      "extra": 2013,
      "##ark": 2014,
      "##ash": 2015,
      "start": 2016,
      "various": 2017,
      "king": 2018,
      "standing": 2019,
      "skill": 2020,
      "left": 2021,
      "took": 2022,
      "entit": 2023,
      "face": 2024,
      "##fully": 2025,
      "share": 2026,
      "sn": 2027,
      "##use": 2028,
      "##rick": 2029,
      "crisis": 2030,
      "higher": 2031,
      "sust": 2032,
      "chr": 2033,
      "31": 2034,
      "else": 2035,
      "ten": 2036,
      "comes": 2037,
      "purpose": 2038,
      "ste": 2039,
      "##know": 2040,
      "crime": 2041,
      "powers": 2042,
      "david": 2043,
      "design": 2044,
      "upon": 2045,
      "undert": 2046,
      "single": 2047,
      "contribution": 2048,
      "dev": 2049,
      "existing": 2050,
      "medical": 2051,
      "##igr": 2052,
      "##ided": 2053,
      "projects": 2054,
      "challeng": 2055,
      "##ales": 2056,
      "responsible": 2057,
      "thought": 2058,
      "executive": 2059,
      "art": 2060,
      "fun": 2061,
      "expenditure": 2062,
      "quality": 2063,
      "potential": 2064,
      "trad": 2065,
      "tra": 2066,
      "corp": 2067,
      "men": 2068,
      "##erty": 2069,
      "strategy": 2070,
      "##xim": 2071,
      "maint": 2072,
      "name": 2073,
      "persons": 2074,
      "ess": 2075,
      "ever": 2076,
      "importance": 2077,
      "proced": 2078,
      "##res": 2079,
      "fully": 2080,
      "##rec": 2081,
      "##reme": 2082,
      "constitution": 2083,
      "glo": 2084,
      "liberal": 2085,
      "mis": 2086,
      "demand": 2087,
      "moment": 2088,
      "ton": 2089,
      "infrastr": 2090,
      "independent": 2091,
      "citizens": 2092,
      "points": 2093,
      "aid": 2094,
      "##utes": 2095,
      "james": 2096,
      "##ane": 2097,
      "primary": 2098,
      "credit": 2099,
      "mad": 2100,
      "threat": 2101,
      "makes": 2102,
      "draw": 2103,
      "##eration": 2104,
      "class": 2105,
      "fall": 2106,
      "192": 2107,
      "paper": 2108,
      "fil": 2109,
      "increasing": 2110,
      "agriculture": 2111,
      "parents": 2112,
      "unemployment": 2113,
      "##ump": 2114,
      "committed": 2115,
      "##oke": 2116,
      "forces": 2117,
      "##erson": 2118,
      "almost": 2119,
      "jun": 2120,
      "select": 2121,
      "conte": 2122,
      "##cially": 2123,
      "tele": 2124,
      "groups": 2125,
      "strength": 2126,
      "##crib": 2127,
      "##br": 2128,
      "##uly": 2129,
      "looking": 2130,
      "anything": 2131,
      "federal": 2132,
      "weeks": 2133,
      "ghanaparliament": 2134,
      "lives": 2135,
      "consequ": 2136,
      "garda": 2137,
      "centre": 2138,
      "acknow": 2139,
      "drug": 2140,
      "##ator": 2141,
      "prevent": 2142,
      "appear": 2143,
      "##ened": 2144,
      "##ici": 2145,
      "entire": 2146,
      "##ruction": 2147,
      "provides": 2148,
      "arrangements": 2149,
      "throughout": 2150,
      "dom": 2151,
      "context": 2152,
      "stop": 2153,
      "regulations": 2154,
      "star": 2155,
      "held": 2156,
      "##acity": 2157,
      "include": 2158,
      "emerg": 2159,
      "prepared": 2160,
      "absolutely": 2161,
      "inqu": 2162,
      "relevant": 2163,
      "colleagues": 2164,
      "try": 2165,
      "infrastructure": 2166,
      "##icient": 2167,
      "former": 2168,
      "went": 2169,
      "organis": 2170,
      "needed": 2171,
      "dece": 2172,
      "produc": 2173,
      "##az": 2174,
      "chance": 2175,
      "providing": 2176,
      "defin": 2177,
      "standards": 2178,
      "ge": 2179,
      "shar": 2180,
      "##bal": 2181,
      "##ove": 2182,
      "kitt": 2183,
      "##ification": 2184,
      "reven": 2185,
      "advice": 2186,
      "##ium": 2187,
      "raise": 2188,
      "determin": 2189,
      "##avour": 2190,
      "##pecially": 2191,
      "##aign": 2192,
      "criminal": 2193,
      "##ford": 2194,
      "proposal": 2195,
      "##bec": 2196,
      "im": 2197,
      "##atch": 2198,
      "##africa": 2199,
      "commer": 2200,
      "established": 2201,
      "labor": 2202,
      "campaign": 2203,
      "longer": 2204,
      "southafrica": 2205,
      "##ured": 2206,
      "satis": 2207,
      "##atory": 2208,
      "especially": 2209,
      "resolution": 2210,
      "safe": 2211,
      "##ides": 2212,
      "either": 2213,
      "substant": 2214,
      "policies": 2215,
      "rail": 2216,
      "works": 2217,
      "negoti": 2218,
      "majority": 2219,
      "deputies": 2220,
      "students": 2221,
      "sw": 2222,
      "dealing": 2223,
      "dam": 2224,
      "exc": 2225,
      "terror": 2226,
      "bord": 2227,
      "##ham": 2228,
      "trib": 2229,
      "africa": 2230,
      "##lies": 2231,
      "respond": 2232,
      "remain": 2233,
      "colleague": 2234,
      "##vious": 2235,
      "bel": 2236,
      "lic": 2237,
      "giving": 2238,
      "##ven": 2239,
      "spending": 2240,
      "ground": 2241,
      "martin": 2242,
      "congr": 2243,
      "later": 2244,
      "begin": 2245,
      "##dom": 2246,
      "##issions": 2247,
      "essential": 2248,
      "##ins": 2249,
      "obvious": 2250,
      "lack": 2251,
      "##com": 2252,
      "##iding": 2253,
      "##egr": 2254,
      "doubt": 2255,
      "##ediate": 2256,
      "reasons": 2257,
      "tour": 2258,
      "fit": 2259,
      "port": 2260,
      "knows": 2261,
      "focus": 2262,
      "occas": 2263,
      "behalf": 2264,
      "##uck": 2265,
      "march": 2266,
      "##pay": 2267,
      "note": 2268,
      "green": 2269,
      "##cent": 2270,
      "regarding": 2271,
      "implementation": 2272,
      "reflect": 2273,
      "##ruct": 2274,
      "jan": 2275,
      "##den": 2276,
      "receive": 2277,
      "recommendations": 2278,
      "practice": 2279,
      "integr": 2280,
      "qual": 2281,
      "##ators": 2282,
      "##ilar": 2283,
      "capacity": 2284,
      "compar": 2285,
      "ger": 2286,
      "sense": 2287,
      "consum": 2288,
      "cham": 2289,
      "pet": 2290,
      "poor": 2291,
      "payments": 2292,
      "create": 2293,
      "organisations": 2294,
      "afford": 2295,
      "funds": 2296,
      "schemes": 2297,
      "##ger": 2298,
      "half": 2299,
      "##erc": 2300,
      "seems": 2301,
      "##force": 2302,
      "town": 2303,
      "sett": 2304,
      "conflict": 2305,
      "##oration": 2306,
      "travel": 2307,
      "outside": 2308,
      "##cell": 2309,
      "inquir": 2310,
      "carry": 2311,
      "pa": 2312,
      "similar": 2313,
      "##enny": 2314,
      "##dr": 2315,
      "debt": 2316,
      "reduce": 2317,
      "near": 2318,
      "consultation": 2319,
      "immediate": 2320,
      "cult": 2321,
      "adj": 2322,
      "range": 2323,
      "dist": 2324,
      "##sp": 2325,
      "la": 2326,
      "enterpr": 2327,
      "1990": 2328,
      "coal": 2329,
      "violence": 2330,
      "opportunities": 2331,
      "measure": 2332,
      "apprec": 2333,
      "frame": 2334,
      "industrial": 2335,
      "final": 2336,
      "sustain": 2337,
      "correct": 2338,
      "agency": 2339,
      "spent": 2340,
      "##ars": 2341,
      "coll": 2342,
      "personal": 2343,
      "brief": 2344,
      "##ulate": 2345,
      "oblig": 2346,
      "insurance": 2347,
      "constituents": 2348,
      "rules": 2349,
      "1991": 2350,
      "itself": 2351,
      "##itted": 2352,
      "cust": 2353,
      "global": 2354,
      "bad": 2355,
      "according": 2356,
      "announced": 2357,
      "whom": 2358,
      "##lex": 2359,
      "##orm": 2360,
      "ant": 2361,
      "##yn": 2362,
      "along": 2363,
      "milit": 2364,
      "repe": 2365,
      "chief": 2366,
      "supply": 2367,
      "clim": 2368,
      "desp": 2369,
      "aver": 2370,
      "revenue": 2371,
      "##ends": 2372,
      "population": 2373,
      "stre": 2374,
      "madam": 2375,
      "lost": 2376,
      "happened": 2377,
      "views": 2378,
      "rise": 2379,
      "1993": 2380,
      "##ims": 2381,
      "houses": 2382,
      "published": 2383,
      "##att": 2384,
      "tim": 2385,
      "allowed": 2386,
      "1988": 2387,
      "##oses": 2388,
      "levels": 2389,
      "aspect": 2390,
      "climate": 2391,
      "urg": 2392,
      "lond": 2393,
      "goes": 2394,
      "volun": 2395,
      "extreme": 2396,
      "positive": 2397,
      "dil": 2398,
      "##aging": 2399,
      "div": 2400,
      "summ": 2401,
      "conduct": 2402,
      "##oud": 2403,
      "##ats": 2404,
      "##uel": 2405,
      "officers": 2406,
      "##ortun": 2407,
      "prison": 2408,
      "stated": 2409,
      "perform": 2410,
      "institutions": 2411,
      "pros": 2412,
      "reports": 2413,
      "wond": 2414,
      "##inary": 2415,
      "##erve": 2416,
      "light": 2417,
      "1996": 2418,
      "##ients": 2419,
      "ed": 2420,
      "fa": 2421,
      "inn": 2422,
      "london": 2423,
      "homes": 2424,
      "duty": 2425,
      "history": 2426,
      "patrick": 2427,
      "sl": 2428,
      "activities": 2429,
      "##itting": 2430,
      "kingdom": 2431,
      "officer": 2432,
      "afric": 2433,
      "##head": 2434,
      "congrat": 2435,
      "##arant": 2436,
      "##oy": 2437,
      "richard": 2438,
      "quebec": 2439,
      "chamber": 2440,
      "##uses": 2441,
      "##where": 2442,
      "sal": 2443,
      "##terday": 2444,
      "hours": 2445,
      "britain": 2446,
      "property": 2447,
      "1989": 2448,
      "pleased": 2449,
      "##ead": 2450,
      "delay": 2451,
      "subs": 2452,
      "##icle": 2453,
      "unfortun": 2454,
      "yesterday": 2455,
      "loss": 2456,
      "honour": 2457,
      "pen": 2458,
      "remember": 2459,
      "skills": 2460,
      "facilities": 2461,
      "##uals": 2462,
      "tas": 2463,
      "##person": 2464,
      "purs": 2465,
      "mac": 2466,
      "##lusion": 2467,
      "substantial": 2468,
      "challenges": 2469,
      "1995": 2470,
      "dat": 2471,
      "##ik": 2472,
      "huge": 2473,
      "wants": 2474,
      "worth": 2475,
      "top": 2476,
      "perm": 2477,
      "organiz": 2478,
      "treatment": 2479,
      "soon": 2480,
      "prem": 2481,
      "##aft": 2482,
      "departments": 2483,
      "carried": 2484,
      "prices": 2485,
      "reply": 2486,
      "adm": 2487,
      "##str": 2488,
      "##eric": 2489,
      "##lands": 2490,
      "##ina": 2491,
      "clos": 2492,
      "##acht": 2493,
      "register": 2494,
      "related": 2495,
      "##aly": 2496,
      "exact": 2497,
      "##abled": 2498,
      "percent": 2499,
      "average": 2500,
      "document": 2501,
      "mult": 2502,
      "comments": 2503,
      "1997": 2504,
      "recognise": 2505,
      "##over": 2506,
      "attack": 2507,
      "##ghan": 2508,
      "##ively": 2509,
      "numbers": 2510,
      "attempt": 2511,
      "som": 2512,
      "confidence": 2513,
      "profession": 2514,
      "everyone": 2515,
      "individuals": 2516,
      "mur": 2517,
      "win": 2518,
      "principle": 2519,
      "connect": 2520,
      "likely": 2521,
      "military": 2522,
      "uns": 2523,
      "##uary": 2524,
      "1994": 2525,
      "body": 2526,
      "cal": 2527,
      "##reh": 2528,
      "supplied": 2529,
      "##ugh": 2530,
      "##orrow": 2531,
      "americ": 2532,
      "confirm": 2533,
      "##uing": 2534,
      "december": 2535,
      "june": 2536,
      "guarant": 2537,
      "several": 2538,
      "though": 2539,
      "banks": 2540,
      "led": 2541,
      "##eness": 2542,
      "##ctions": 2543,
      "democratic": 2544,
      "framework": 2545,
      "front": 2546,
      "er": 2547,
      "provin": 2548,
      "1992": 2549,
      "##verty": 2550,
      "dang": 2551,
      "table": 2552,
      "poverty": 2553,
      "aud": 2554,
      "decided": 2555,
      "expert": 2556,
      "despite": 2557,
      "##gest": 2558,
      "gone": 2559,
      "snp": 2560,
      "reduction": 2561,
      "##rection": 2562,
      "flo": 2563,
      "idea": 2564,
      "encourage": 2565,
      "favour": 2566,
      "##ucing": 2567,
      "cab": 2568,
      "##sec": 2569,
      "mand": 2570,
      "ensuring": 2571,
      "lang": 2572,
      "minim": 2573,
      "mary": 2574,
      "nature": 2575,
      "steps": 2576,
      "taxpay": 2577,
      "officials": 2578,
      "passed": 2579,
      "instead": 2580,
      "join": 2581,
      "##utory": 2582,
      "dest": 2583,
      "probably": 2584,
      "##idents": 2585,
      "legisl": 2586,
      "##arily": 2587,
      "compl": 2588,
      "transfer": 2589,
      "##arian": 2590,
      "##ined": 2591,
      "collect": 2592,
      "ill": 2593,
      "bit": 2594,
      "##atever": 2595,
      "comment": 2596,
      "places": 2597,
      "##ets": 2598,
      "fundament": 2599,
      "##rew": 2600,
      "clar": 2601,
      "treas": 2602,
      "break": 2603,
      "cuts": 2604,
      "parts": 2605,
      "communic": 2606,
      "whatever": 2607,
      "manu": 2608,
      "quick": 2609,
      "##ude": 2610,
      "ways": 2611,
      "exch": 2612,
      "na": 2613,
      "discussion": 2614,
      "assemb": 2615,
      "orig": 2616,
      "##ands": 2617,
      "promot": 2618,
      "fo": 2619,
      "bod": 2620,
      "difficulties": 2621,
      "discussions": 2622,
      "undertak": 2623,
      "except": 2624,
      "gave": 2625,
      "remind": 2626,
      "assessment": 2627,
      "##mes": 2628,
      "##draw": 2629,
      "figure": 2630,
      "##ring": 2631,
      "##ler": 2632,
      "entitled": 2633,
      "charge": 2634,
      "decl": 2635,
      "affected": 2636,
      "whose": 2637,
      "event": 2638,
      "priority": 2639,
      "##of": 2640,
      "sel": 2641,
      "freed": 2642,
      "friends": 2643,
      "sept": 2644,
      "known": 2645,
      "langu": 2646,
      "##ublic": 2647,
      "##ommod": 2648,
      "norm": 2649,
      "relie": 2650,
      "happy": 2651,
      "creat": 2652,
      "withdraw": 2653,
      "mal": 2654,
      "january": 2655,
      "##lace": 2656,
      "someone": 2657,
      "agencies": 2658,
      "##igration": 2659,
      "chairperson": 2660,
      "directly": 2661,
      "extent": 2662,
      "oppos": 2663,
      "##ender": 2664,
      "opin": 2665,
      "teachers": 2666,
      "accommod": 2667,
      "supported": 2668,
      "using": 2669,
      "##aries": 2670,
      "manufact": 2671,
      "spoke": 2672,
      "representatives": 2673,
      "everything": 2674,
      "guid": 2675,
      "##ban": 2676,
      "apr": 2677,
      "enable": 2678,
      "paul": 2679,
      "1986": 2680,
      "custom": 2681,
      "freedom": 2682,
      "technology": 2683,
      "christ": 2684,
      "september": 2685,
      "fight": 2686,
      "##light": 2687,
      "san": 2688,
      "fire": 2689,
      "cross": 2690,
      "##inet": 2691,
      "wide": 2692,
      "relationship": 2693,
      "##ensions": 2694,
      "##istry": 2695,
      "##gn": 2696,
      "##hs": 2697,
      "##ilt": 2698,
      "super": 2699,
      "supplement": 2700,
      "putting": 2701,
      "excell": 2702,
      "wales": 2703,
      "inquiry": 2704,
      "brian": 2705,
      "wonder": 2706,
      "##bert": 2707,
      "balance": 2708,
      "fear": 2709,
      "##ipp": 2710,
      "republic": 2711,
      "bodies": 2712,
      "purch": 2713,
      "annual": 2714,
      "link": 2715,
      "1984": 2716,
      "organisation": 2717,
      "youth": 2718,
      "science": 2719,
      "association": 2720,
      "1985": 2721,
      "##ortion": 2722,
      "peter": 2723,
      "type": 2724,
      "solution": 2725,
      "experi": 2726,
      "death": 2727,
      "deep": 2728,
      "team": 2729,
      "sort": 2730,
      "##ibly": 2731,
      "confer": 2732,
      "thous": 2733,
      "000": 2734,
      "##la": 2735,
      "behind": 2736,
      "fisher": 2737,
      "compreh": 2738,
      "rad": 2739,
      "oct": 2740,
      "april": 2741,
      "notice": 2742,
      "ability": 2743,
      "expected": 2744,
      "argument": 2745,
      "partnership": 2746,
      "offer": 2747,
      "mess": 2748,
      "profit": 2749,
      "administration": 2750,
      "thom": 2751,
      "##ober": 2752,
      "applications": 2753,
      "electorate": 2754,
      "coup": 2755,
      "self": 2756,
      "tom": 2757,
      "consist": 2758,
      "considerable": 2759,
      "##itable": 2760,
      "initiative": 2761,
      "pal": 2762,
      "extremely": 2763,
      "##enge": 2764,
      "##ume": 2765,
      "##bour": 2766,
      "cabinet": 2767,
      "describ": 2768,
      "supporting": 2769,
      "environmental": 2770,
      "october": 2771,
      "dealt": 2772,
      "prec": 2773,
      "##enced": 2774,
      "reasonable": 2775,
      "allowance": 2776,
      "patients": 2777,
      "included": 2778,
      "##augh": 2779,
      "##ps": 2780,
      "exactly": 2781,
      "##to": 2782,
      "pack": 2783,
      "assembly": 2784,
      "rene": 2785,
      "courts": 2786,
      "programmes": 2787,
      "bench": 2788,
      "danger": 2789,
      "##nel": 2790,
      "joint": 2791,
      "australians": 2792,
      "sex": 2793,
      "white": 2794,
      "standard": 2795,
      "2020": 2796,
      "night": 2797,
      "aut": 2798,
      "tack": 2799,
      "enterprise": 2800,
      "july": 2801,
      "informed": 2802,
      "university": 2803,
      "##uclear": 2804,
      "proud": 2805,
      "##iff": 2806,
      "amb": 2807,
      "production": 2808,
      "wanted": 2809,
      "##anced": 2810,
      "difference": 2811,
      "1980": 2812,
      "##chan": 2813,
      "wes": 2814,
      "compens": 2815,
      "data": 2816,
      "conclud": 2817,
      "mil": 2818,
      "comb": 2819,
      "demon": 2820,
      "overall": 2821,
      "african": 2822,
      "gas": 2823,
      "reference": 2824,
      "emergency": 2825,
      "challenge": 2826,
      "bey": 2827,
      "##vember": 2828,
      "reading": 2829,
      "worked": 2830,
      "subsid": 2831,
      "nuclear": 2832,
      "grants": 2833,
      "properly": 2834,
      "november": 2835,
      "successful": 2836,
      "smith": 2837,
      "bills": 2838,
      "acknowledge": 2839,
      "##bon": 2840,
      "##itarian": 2841,
      "##erial": 2842,
      "elected": 2843,
      "coast": 2844,
      "tourism": 2845,
      "mechan": 2846,
      "comprehensive": 2847,
      "exerc": 2848,
      "##enda": 2849,
      "actions": 2850,
      "##ized": 2851,
      "statutory": 2852,
      "equality": 2853,
      "1983": 2854,
      "beyond": 2855,
      "page": 2856,
      "propose": 2857,
      "##estic": 2858,
      "##liance": 2859,
      "##arm": 2860,
      "traff": 2861,
      "introduce": 2862,
      "demonstr": 2863,
      "##ense": 2864,
      "letter": 2865,
      "altern": 2866,
      "visit": 2867,
      "sustainable": 2868,
      "##iated": 2869,
      "##ished": 2870,
      "employees": 2871,
      "##ires": 2872,
      "cause": 2873,
      "satisf": 2874,
      "mental": 2875,
      "critical": 2876,
      "reality": 2877,
      "waiting": 2878,
      "##uted": 2879,
      "##oken": 2880,
      "mass": 2881,
      "##ories": 2882,
      "##yal": 2883,
      "##dle": 2884,
      "restric": 2885,
      "modern": 2886,
      "avo": 2887,
      "intention": 2888,
      "vital": 2889,
      "sens": 2890,
      "representative": 2891,
      "oil": 2892,
      "natural": 2893,
      "veh": 2894,
      "miss": 2895,
      "spend": 2896,
      "##cal": 2897,
      "##bs": 2898,
      "remains": 2899,
      "created": 2900,
      "democracy": 2901,
      "requirements": 2902,
      "victims": 2903,
      "##going": 2904,
      "##has": 2905,
      "separ": 2906,
      "##istic": 2907,
      "anyone": 2908,
      "opinion": 2909,
      "announce": 2910,
      "obviously": 2911,
      "##iction": 2912,
      "fine": 2913,
      "status": 2914,
      "morning": 2915,
      "negotiations": 2916,
      "cod": 2917,
      "asking": 2918,
      "mcgr": 2919,
      "limited": 2920,
      "che": 2921,
      "failed": 2922,
      "1987": 2923,
      "ira": 2924,
      "jim": 2925,
      "takes": 2926,
      "coop": 2927,
      "heart": 2928,
      "nd": 2929,
      "rule": 2930,
      "bor": 2931,
      "effort": 2932,
      "limit": 2933,
      "treaty": 2934,
      "humanitarian": 2935,
      "conservatives": 2936,
      "relief": 2937,
      "built": 2938,
      "adequ": 2939,
      "il": 2940,
      "adver": 2941,
      "roads": 2942,
      "purposes": 2943,
      "direction": 2944,
      "leadership": 2945,
      "developing": 2946,
      "##wise": 2947,
      "commercial": 2948,
      "aim": 2949,
      "lady": 2950,
      "paying": 2951,
      "western": 2952,
      "rent": 2953,
      "products": 2954,
      "kenny": 2955,
      "item": 2956,
      "england": 2957,
      "domestic": 2958,
      "attr": 2959,
      "fitz": 2960,
      "english": 2961,
      "##ull": 2962,
      "sell": 2963,
      "opposite": 2964,
      "agenda": 2965,
      "##ones": 2966,
      "##ties": 2967,
      "##vey": 2968,
      "quot": 2969,
      "##iter": 2970,
      "commissioner": 2971,
      "innov": 2972,
      "pred": 2973,
      "unfortunately": 2974,
      "interesting": 2975,
      "finally": 2976,
      "sour": 2977,
      "mcgrath": 2978,
      "occup": 2979,
      "issued": 2980,
      "results": 2981,
      "increases": 2982,
      "sched": 2983,
      "##bru": 2984,
      "sav": 2985,
      "##ateful": 2986,
      "renew": 2987,
      "buy": 2988,
      "task": 2989,
      "frank": 2990,
      "tal": 2991,
      "critic": 2992,
      "reduced": 2993,
      "ahead": 2994,
      "##rain": 2995,
      "tur": 2996,
      "##que": 2997,
      "changed": 2998,
      "monitor": 2999,
      "minutes": 3000,
      "alone": 3001,
      "sad": 3002,
      "lower": 3003,
      "operations": 3004,
      "principles": 3005,
      "##lined": 3006,
      "thomas": 3007,
      "understanding": 3008,
      "book": 3009,
      "##more": 3010,
      "depend": 3011,
      "congratulate": 3012,
      "saw": 3013,
      "relating": 3014,
      "happening": 3015,
      "##itals": 3016,
      "completed": 3017,
      "continues": 3018,
      "fundamental": 3019,
      "interested": 3020,
      "##bruary": 3021,
      "indicated": 3022,
      "addressed": 3023,
      "lat": 3024,
      "lord": 3025,
      "cop": 3026,
      "construction": 3027,
      "grateful": 3028,
      "agricultural": 3029,
      "##ott": 3030,
      "completely": 3031,
      "regulation": 3032,
      "unless": 3033,
      "fuel": 3034,
      "##itude": 3035,
      "developed": 3036,
      "obt": 3037,
      "seeking": 3038,
      "export": 3039,
      "weap": 3040,
      "vul": 3041,
      "##rett": 3042,
      "##iam": 3043,
      "manner": 3044,
      "district": 3045,
      "orders": 3046,
      "##itch": 3047,
      "taxes": 3048,
      "media": 3049,
      "##aster": 3050,
      "appreciate": 3051,
      "nurs": 3052,
      "bringing": 3053,
      "1981": 3054,
      "february": 3055,
      "councils": 3056,
      "##ugg": 3057,
      "##unch": 3058,
      "gael": 3059,
      "##ony": 3060,
      "expressed": 3061,
      "claims": 3062,
      "thousands": 3063,
      "##standing": 3064,
      "generally": 3065,
      "##amon": 3066,
      "complain": 3067,
      "vulner": 3068,
      "enh": 3069,
      "growing": 3070,
      "minor": 3071,
      "approved": 3072,
      "minimum": 3073,
      "moved": 3074,
      "basic": 3075,
      "contact": 3076,
      "nhs": 3077,
      "convention": 3078,
      "##arks": 3079,
      "electric": 3080,
      "##yan": 3081,
      "hospitals": 3082,
      "quickly": 3083,
      "eamon": 3084,
      "disapp": 3085,
      "##amb": 3086,
      "##istics": 3087,
      "failure": 3088,
      "accommodation": 3089,
      "cow": 3090,
      "competition": 3091,
      "himself": 3092,
      "sitting": 3093,
      "emb": 3094,
      "park": 3095,
      "abuse": 3096,
      "fix": 3097,
      "achieved": 3098,
      "scr": 3099,
      "effectively": 3100,
      "speaking": 3101,
      "vac": 3102,
      "unit": 3103,
      "middle": 3104,
      "employers": 3105,
      "inj": 3106,
      "laws": 3107,
      "declar": 3108,
      "choice": 3109,
      "mrs": 3110,
      "seriously": 3111,
      "##ruption": 3112,
      "establishment": 3113,
      "##ops": 3114,
      "##iday": 3115,
      "regime": 3116,
      "obs": 3117,
      "continued": 3118,
      "cy": 3119,
      "advis": 3120,
      "suggested": 3121,
      "above": 3122,
      "complex": 3123,
      "committees": 3124,
      "study": 3125,
      "industries": 3126,
      "supports": 3127,
      "##lu": 3128,
      "language": 3129,
      "##ianna": 3130,
      "waste": 3131,
      "elections": 3132,
      "rob": 3133,
      "pensions": 3134,
      "##ush": 3135,
      "chairman": 3136,
      "knowledge": 3137,
      "secure": 3138,
      "perman": 3139,
      "fianna": 3140,
      "1982": 3141,
      "technical": 3142,
      "volunt": 3143,
      "border": 3144,
      "##read": 3145,
      "doct": 3146,
      "material": 3147,
      "conference": 3148,
      "commend": 3149,
      "##agr": 3150,
      "penal": 3151,
      "learned": 3152,
      "maxim": 3153,
      "acts": 3154,
      "advant": 3155,
      "shows": 3156,
      "activity": 3157,
      "contributions": 3158,
      "##ris": 3159,
      "accordance": 3160,
      "leav": 3161,
      "simple": 3162,
      "seven": 3163,
      "##omp": 3164,
      "kill": 3165,
      "##oral": 3166,
      "##ligh": 3167,
      "pressure": 3168,
      "involve": 3169,
      "discussed": 3170,
      "gives": 3171,
      "systems": 3172,
      "late": 3173,
      "##iver": 3174,
      "ongoing": 3175,
      "adopted": 3176,
      "explain": 3177,
      "taxation": 3178,
      "ministry": 3179,
      "operate": 3180,
      "foot": 3181,
      "brend": 3182,
      "iraq": 3183,
      "der": 3184,
      "employed": 3185,
      "temp": 3186,
      "events": 3187,
      "armed": 3188,
      "inspect": 3189,
      "somet": 3190,
      "airport": 3191,
      "entirely": 3192,
      "maintain": 3193,
      "eight": 3194,
      "produce": 3195,
      "brendan": 3196,
      "enforce": 3197,
      "accepted": 3198,
      "cle": 3199,
      "emphas": 3200,
      "please": 3201,
      "facilit": 3202,
      "inflation": 3203,
      "household": 3204,
      "article": 3205,
      "refuge": 3206,
      "delivery": 3207,
      "ul": 3208,
      "field": 3209,
      "##ibilities": 3210,
      "ng": 3211,
      "includes": 3212,
      "##llor": 3213,
      "##rim": 3214,
      "liberals": 3215,
      "site": 3216,
      "vulnerable": 3217,
      "##oph": 3218,
      "pie": 3219,
      "sport": 3220,
      "##itional": 3221,
      "sold": 3222,
      "reported": 3223,
      "prosec": 3224,
      "##ored": 3225,
      "corporation": 3226,
      "performance": 3227,
      "compensation": 3228,
      "royal": 3229,
      "alternative": 3230,
      "drugs": 3231,
      "sought": 3232,
      "mer": 3233,
      "sometimes": 3234,
      "##iet": 3235,
      "##ourn": 3236,
      "appointed": 3237,
      "##thod": 3238,
      "anal": 3239,
      "intervention": 3240,
      "##ival": 3241,
      "##inn": 3242,
      "mort": 3243,
      "phil": 3244,
      "applied": 3245,
      "##ealth": 3246,
      "andrew": 3247,
      "disability": 3248,
      "otherwise": 3249,
      "dise": 3250,
      "surpr": 3251,
      "##set": 3252,
      "alleg": 3253,
      "behav": 3254,
      "carbon": 3255,
      "cork": 3256,
      "doll": 3257,
      "forest": 3258,
      "##arr": 3259,
      "network": 3260,
      "procedure": 3261,
      "geor": 3262,
      "difficulty": 3263,
      "sup": 3264,
      "##ike": 3265,
      "scale": 3266,
      "goods": 3267,
      "bed": 3268,
      "##ancy": 3269,
      "specifically": 3270,
      "coalition": 3271,
      "continuing": 3272,
      "overse": 3273,
      "elig": 3274,
      "model": 3275,
      "intended": 3276,
      "charges": 3277,
      "occasion": 3278,
      "##de": 3279,
      "initiatives": 3280,
      "##istan": 3281,
      "##itten": 3282,
      "##van": 3283,
      "decide": 3284,
      "moving": 3285,
      "promote": 3286,
      "boards": 3287,
      "improvement": 3288,
      "hol": 3289,
      "remarks": 3290,
      "couple": 3291,
      "##icit": 3292,
      "unions": 3293,
      "ap": 3294,
      "conclusion": 3295,
      "##mine": 3296,
      "cov": 3297,
      "bear": 3298,
      "immigration": 3299,
      "##reg": 3300,
      "savings": 3301,
      "learn": 3302,
      "acqu": 3303,
      "vo": 3304,
      "excellent": 3305,
      "consequences": 3306,
      "brown": 3307,
      "introduction": 3308,
      "avoid": 3309,
      "ign": 3310,
      "partners": 3311,
      "##erald": 3312,
      "markets": 3313,
      "##agraph": 3314,
      "##ously": 3315,
      "##emic": 3316,
      "struct": 3317,
      "william": 3318,
      "effici": 3319,
      "anim": 3320,
      "##endum": 3321,
      "statements": 3322,
      "deleg": 3323,
      "leaders": 3324,
      "transpar": 3325,
      "chancellor": 3326,
      "regular": 3327,
      "guarantee": 3328,
      "black": 3329,
      "fre": 3330,
      "division": 3331,
      "aspects": 3332,
      "contribute": 3333,
      "statistics": 3334,
      "investigation": 3335,
      "stay": 3336,
      "palest": 3337,
      "enj": 3338,
      "immediately": 3339,
      "die": 3340,
      "brut": 3341,
      "##ades": 3342,
      "##itage": 3343,
      "##no": 3344,
      "attract": 3345,
      "sufficient": 3346,
      "centres": 3347,
      "approxim": 3348,
      "poll": 3349,
      "2021": 3350,
      "considering": 3351,
      "tribun": 3352,
      "ded": 3353,
      "##entions": 3354,
      "fisheries": 3355,
      "started": 3356,
      "voluntary": 3357,
      "agreements": 3358,
      "eth": 3359,
      "##holders": 3360,
      "##abilities": 3361,
      "designed": 3362,
      "sides": 3363,
      "##elt": 3364,
      "##ivity": 3365,
      "talked": 3366,
      "heritage": 3367,
      "satisfied": 3368,
      "##ster": 3369,
      "##graph": 3370,
      "##ron": 3371,
      "instance": 3372,
      "vir": 3373,
      "##uine": 3374,
      "ine": 3375,
      "terrorism": 3376,
      "weapons": 3377,
      "none": 3378,
      "serve": 3379,
      "facts": 3380,
      "afghan": 3381,
      "referendum": 3382,
      "fis": 3383,
      "permanent": 3384,
      "function": 3385,
      "written": 3386,
      "hop": 3387,
      "listen": 3388,
      "##ey": 3389,
      "beginning": 3390,
      "##ulated": 3391,
      "##don": 3392,
      "sir": 3393,
      "jack": 3394,
      "wind": 3395,
      "card": 3396,
      "code": 3397,
      "##gar": 3398,
      "meetings": 3399,
      "dur": 3400,
      "veter": 3401,
      "enda": 3402,
      "senior": 3403,
      "settlement": 3404,
      "urge": 3405,
      "requires": 3406,
      "##eria": 3407,
      "kel": 3408,
      "running": 3409,
      "earn": 3410,
      "##tim": 3411,
      "personnel": 3412,
      "recon": 3413,
      "##ha": 3414,
      "harm": 3415,
      "##eni": 3416,
      "caused": 3417,
      "rout": 3418,
      "##undred": 3419,
      "surely": 3420,
      "culture": 3421,
      "objective": 3422,
      "reached": 3423,
      "wait": 3424,
      "lib": 3425,
      "joe": 3426,
      "##illy": 3427,
      "paragraph": 3428,
      "quar": 3429,
      "hands": 3430,
      "cur": 3431,
      "draft": 3432,
      "expand": 3433,
      "remo": 3434,
      "pointed": 3435,
      "##hood": 3436,
      "facing": 3437,
      "everybody": 3438,
      "medic": 3439,
      "advance": 3440,
      "##overy": 3441,
      "anc": 3442,
      "stability": 3443,
      "firm": 3444,
      "behavi": 3445,
      "electricity": 3446,
      "delivered": 3447,
      "lev": 3448,
      "news": 3449,
      "legislative": 3450,
      "procedures": 3451,
      "illeg": 3452,
      "alan": 3453,
      "meant": 3454,
      "determined": 3455,
      "##int": 3456,
      "estimates": 3457,
      "wage": 3458,
      "neigh": 3459,
      "treasury": 3460,
      "intend": 3461,
      "approximately": 3462,
      "deg": 3463,
      "##urred": 3464,
      "hundred": 3465,
      "normal": 3466,
      "bern": 3467,
      "shown": 3468,
      "provinces": 3469,
      "##iveness": 3470,
      "assure": 3471,
      "intel": 3472,
      "##ging": 3473,
      "genuine": 3474,
      "setting": 3475,
      "advoc": 3476,
      "speed": 3477,
      "1979": 3478,
      "analys": 3479,
      "supplementary": 3480,
      "##cer": 3481,
      "##icles": 3482,
      "##icial": 3483,
      "jur": 3484,
      "glad": 3485,
      "mere": 3486,
      "method": 3487,
      "##val": 3488,
      "##idge": 3489,
      "stock": 3490,
      "previously": 3491,
      "exercise": 3492,
      "ourselves": 3493,
      "voted": 3494,
      "##itation": 3495,
      "unc": 3496,
      "nam": 3497,
      "constitutional": 3498,
      "##wealth": 3499,
      "bh": 3500,
      "implic": 3501,
      "institution": 3502,
      "equip": 3503,
      "implemented": 3504,
      "construct": 3505,
      "roll": 3506,
      "charter": 3507,
      "histor": 3508,
      "hy": 3509,
      "privile": 3510,
      "influ": 3511,
      "enorm": 3512,
      "identified": 3513,
      "equal": 3514,
      "truth": 3515,
      "commonwealth": 3516,
      "politics": 3517,
      "debates": 3518,
      "ship": 3519,
      "pup": 3520,
      "exempt": 3521,
      "behaviour": 3522,
      "dar": 3523,
      "strongly": 3524,
      "army": 3525,
      "##enders": 3526,
      "##ob": 3527,
      "allocation": 3528,
      "ryan": 3529,
      "##ipt": 3530,
      "offence": 3531,
      "wit": 3532,
      "promised": 3533,
      "ordinary": 3534,
      "participation": 3535,
      "ii": 3536,
      "island": 3537,
      "carefully": 3538,
      "recru": 3539,
      "pupil": 3540,
      "##ald": 3541,
      "##tenance": 3542,
      "described": 3543,
      "chec": 3544,
      "simon": 3545,
      "wall": 3546,
      "functions": 3547,
      "pret": 3548,
      "calls": 3549,
      "proportion": 3550,
      "hun": 3551,
      "responsibilities": 3552,
      "interject": 3553,
      "detailed": 3554,
      "creation": 3555,
      "borrow": 3556,
      "##anch": 3557,
      "fees": 3558,
      "worse": 3559,
      "improved": 3560,
      "allocated": 3561,
      "wider": 3562,
      "willing": 3563,
      "spir": 3564,
      "ones": 3565,
      "counter": 3566,
      "nos": 3567,
      "##phy": 3568,
      "engage": 3569,
      "george": 3570,
      "estimated": 3571,
      "produced": 3572,
      "##ground": 3573,
      "##that": 3574,
      "outcome": 3575,
      "taxpayers": 3576,
      "##ological": 3577,
      "round": 3578,
      "##attle": 3579,
      "##ye": 3580,
      "assets": 3581,
      "russ": 3582,
      "lines": 3583,
      "aug": 3584,
      "bernard": 3585,
      "recovery": 3586,
      "electoral": 3587,
      "examine": 3588,
      "advert": 3589,
      "murphy": 3590,
      "##action": 3591,
      "burden": 3592,
      "##enous": 3593,
      "##uff": 3594,
      "##pective": 3595,
      "##yes": 3596,
      "street": 3597,
      "extend": 3598,
      "##ife": 3599,
      "occasions": 3600,
      "##mond": 3601,
      "signed": 3602,
      "maintenance": 3603,
      "subsequ": 3604,
      "opposed": 3605,
      "flex": 3606,
      "##limin": 3607,
      "strategic": 3608,
      "reducing": 3609,
      "##hire": 3610,
      "ec": 3611,
      "stake": 3612,
      "registr": 3613,
      "connection": 3614,
      "placed": 3615,
      "phys": 3616,
      "cruc": 3617,
      "pleas": 3618,
      "fiscal": 3619,
      "recognised": 3620,
      "presented": 3621,
      "cooperation": 3622,
      "robert": 3623,
      "##lac": 3624,
      "reforms": 3625,
      "extended": 3626,
      "indig": 3627,
      "package": 3628,
      "##urch": 3629,
      "sus": 3630,
      "sectors": 3631,
      "adequate": 3632,
      "consumer": 3633,
      "requirement": 3634,
      "categ": 3635,
      "schedule": 3636,
      "educational": 3637,
      "unemployed": 3638,
      "message": 3639,
      "##advant": 3640,
      "##comes": 3641,
      "attend": 3642,
      "targets": 3643,
      "urgent": 3644,
      "mag": 3645,
      "##bu": 3646,
      "##ana": 3647,
      "disadvant": 3648,
      "pan": 3649,
      "resident": 3650,
      "maximum": 3651,
      "rein": 3652,
      "launch": 3653,
      "engaged": 3654,
      "##osing": 3655,
      "advantage": 3656,
      "offices": 3657,
      "acting": 3658,
      "##men": 3659,
      "happens": 3660,
      "touch": 3661,
      "practical": 3662,
      "strugg": 3663,
      "damage": 3664,
      "accountability": 3665,
      "residents": 3666,
      "crucial": 3667,
      "equipment": 3668,
      "tonight": 3669,
      "clin": 3670,
      "ultim": 3671,
      "clean": 3672,
      "unable": 3673,
      "movement": 3674,
      "##ogue": 3675,
      "sum": 3676,
      "indigenous": 3677,
      "appointment": 3678,
      "highest": 3679,
      "developments": 3680,
      "##der": 3681,
      "associated": 3682,
      "improving": 3683,
      "kil": 3684,
      "award": 3685,
      "mortg": 3686,
      "estimate": 3687,
      "hour": 3688,
      "witness": 3689,
      "looked": 3690,
      "##iste": 3691,
      "##entr": 3692,
      "##hib": 3693,
      "traffic": 3694,
      "mission": 3695,
      "reject": 3696,
      "tried": 3697,
      "tribute": 3698,
      "abol": 3699,
      "regions": 3700,
      "rid": 3701,
      "heav": 3702,
      "sea": 3703,
      "##comm": 3704,
      "##ma": 3705,
      "proceedings": 3706,
      "##nes": 3707,
      "leaving": 3708,
      "barrett": 3709,
      "ou": 3710,
      "agus": 3711,
      "leading": 3712,
      "follows": 3713,
      "meaning": 3714,
      "distrib": 3715,
      "accounts": 3716,
      "manag": 3717,
      "option": 3718,
      "effects": 3719,
      "creating": 3720,
      "relative": 3721,
      "sale": 3722,
      "funded": 3723,
      "sexual": 3724,
      "closely": 3725,
      "2023": 3726,
      "director": 3727,
      "##gow": 3728,
      "disappoint": 3729,
      "undertaken": 3730,
      "syr": 3731,
      "discrim": 3732,
      "licence": 3733,
      "retire": 3734,
      "save": 3735,
      "recall": 3736,
      "je": 3737,
      "##ta": 3738,
      "professional": 3739,
      "criteria": 3740,
      "##fect": 3741,
      "##keep": 3742,
      "enjoy": 3743,
      "contracts": 3744,
      "raising": 3745,
      "sound": 3746,
      "##like": 3747,
      "definition": 3748,
      "##bit": 3749,
      "sud": 3750,
      "arg": 3751,
      "##eless": 3752,
      "##oming": 3753,
      "##orry": 3754,
      "granted": 3755,
      "##orary": 3756,
      "##oe": 3757,
      "nearly": 3758,
      "prefer": 3759,
      "forced": 3760,
      "rat": 3761,
      "overseas": 3762,
      "host": 3763,
      "student": 3764,
      "improvements": 3765,
      "bruton": 3766,
      "##ef": 3767,
      "realise": 3768,
      "deficit": 3769,
      "juris": 3770,
      "survey": 3771,
      "amended": 3772,
      "walk": 3773,
      "original": 3774,
      "bound": 3775,
      "##ams": 3776,
      "territor": 3777,
      "##let": 3778,
      "##wa": 3779,
      "judge": 3780,
      "german": 3781,
      "watch": 3782,
      "easy": 3783,
      "##ien": 3784,
      "ought": 3785,
      "unfair": 3786,
      "##lying": 3787,
      "boy": 3788,
      "thinking": 3789,
      "lose": 3790,
      "##using": 3791,
      "##inated": 3792,
      "isr": 3793,
      "ang": 3794,
      "operating": 3795,
      "length": 3796,
      "offences": 3797,
      "consumers": 3798,
      "college": 3799,
      "incent": 3800,
      "surv": 3801,
      "##bur": 3802,
      "commitments": 3803,
      "august": 3804,
      "wages": 3805,
      "appears": 3806,
      "objectives": 3807,
      "track": 3808,
      "tribunal": 3809,
      "israel": 3810,
      "secondly": 3811,
      "submitted": 3812,
      "mcc": 3813,
      "club": 3814,
      "bul": 3815,
      "tony": 3816,
      "felt": 3817,
      "structure": 3818,
      "path": 3819,
      "##umb": 3820,
      "stress": 3821,
      "advised": 3822,
      "purchase": 3823,
      "1975": 3824,
      "myself": 3825,
      "enforcement": 3826,
      "possibility": 3827,
      "cand": 3828,
      "##ston": 3829,
      "susp": 3830,
      "entr": 3831,
      "##itim": 3832,
      "joan": 3833,
      "##cast": 3834,
      "priorities": 3835,
      "appar": 3836,
      "station": 3837,
      "gall": 3838,
      "##aud": 3839,
      "condition": 3840,
      "##ifying": 3841,
      "helping": 3842,
      "alex": 3843,
      "covered": 3844,
      "analysis": 3845,
      "treated": 3846,
      "##hol": 3847,
      "##ason": 3848,
      "typ": 3849,
      "session": 3850,
      "ball": 3851,
      "##ese": 3852,
      "jurisd": 3853,
      "##ization": 3854,
      "bure": 3855,
      "##put": 3856,
      "compared": 3857,
      "represents": 3858,
      "mandate": 3859,
      "glas": 3860,
      "piece": 3861,
      "options": 3862,
      "china": 3863,
      "##ensus": 3864,
      "degree": 3865,
      "##utin": 3866,
      "bureau": 3867,
      "obligations": 3868,
      "restrict": 3869,
      "arise": 3870,
      "appeals": 3871,
      "communications": 3872,
      "initial": 3873,
      "commons": 3874,
      "drawn": 3875,
      "rap": 3876,
      "highly": 3877,
      "crimes": 3878,
      "palestin": 3879,
      "benef": 3880,
      "independence": 3881,
      "mist": 3882,
      "##ift": 3883,
      "##hair": 3884,
      "anti": 3885,
      "participate": 3886,
      "commissioners": 3887,
      "confident": 3888,
      "voting": 3889,
      "rightly": 3890,
      "hearing": 3891,
      "disease": 3892,
      "base": 3893,
      "approval": 3894,
      "documents": 3895,
      "consent": 3896,
      "micheal": 3897,
      "##elines": 3898,
      "##vin": 3899,
      "followed": 3900,
      "served": 3901,
      "motor": 3902,
      "manufacturing": 3903,
      "innovation": 3904,
      "telev": 3905,
      "peoples": 3906,
      "anybody": 3907,
      "scrutin": 3908,
      "resource": 3909,
      "outlined": 3910,
      "petition": 3911,
      "emissions": 3912,
      "prosper": 3913,
      "enormous": 3914,
      "ready": 3915,
      "separate": 3916,
      "cash": 3917,
      "imag": 3918,
      "believes": 3919,
      "deliber": 3920,
      "suffering": 3921,
      "##ateral": 3922,
      "seeing": 3923,
      "organization": 3924,
      "offered": 3925,
      "pick": 3926,
      "##band": 3927,
      "##ots": 3928,
      "faced": 3929,
      "2022": 3930,
      "wealth": 3931,
      "perfect": 3932,
      "##well": 3933,
      "unsc": 3934,
      "nine": 3935,
      "announcement": 3936,
      "talks": 3937,
      "pleasure": 3938,
      "##resp": 3939,
      "highligh": 3940,
      "illegal": 3941,
      "fishing": 3942,
      "elsewhere": 3943,
      "##atter": 3944,
      "symp": 3945,
      "##ias": 3946,
      "urban": 3947,
      "duties": 3948,
      "attitude": 3949,
      "lands": 3950,
      "##mas": 3951,
      "##ls": 3952,
      "tackle": 3953,
      "acknowled": 3954,
      "learning": 3955,
      "plant": 3956,
      "engine": 3957,
      "prospect": 3958,
      "##erry": 3959,
      "aged": 3960,
      "mechanism": 3961,
      "barry": 3962,
      "glasgow": 3963,
      "seat": 3964,
      "dial": 3965,
      "mach": 3966,
      "extension": 3967,
      "regulatory": 3968,
      "generation": 3969,
      "precise": 3970,
      "1971": 3971,
      "flood": 3972,
      "##arch": 3973,
      "legitim": 3974,
      "forth": 3975,
      "##ett": 3976,
      "mob": 3977,
      "kept": 3978,
      "deals": 3979,
      "recognition": 3980,
      "##ming": 3981,
      "##umption": 3982,
      "##ature": 3983,
      "gets": 3984,
      "##rol": 3985,
      "towns": 3986,
      "contained": 3987,
      "sorry": 3988,
      "interp": 3989,
      "judg": 3990,
      "##ading": 3991,
      "profess": 3992,
      "programs": 3993,
      "##rent": 3994,
      "efficient": 3995,
      "subse": 3996,
      "##ping": 3997,
      "charles": 3998,
      "exception": 3999,
      "unac": 4000,
      "##lusive": 4001,
      "ps": 4002,
      "wishes": 4003,
      "replace": 4004,
      "totally": 4005,
      "excess": 4006,
      "listened": 4007,
      "##omatic": 4008,
      "candid": 4009,
      "television": 4010,
      "adult": 4011,
      "##lder": 4012,
      "certific": 4013,
      "protected": 4014,
      "##ped": 4015,
      "keeping": 4016,
      "practices": 4017,
      "addressing": 4018,
      "##ique": 4019,
      "imposed": 4020,
      "thus": 4021,
      "arts": 4022,
      "merely": 4023,
      "changing": 4024,
      "extraord": 4025,
      "##with": 4026,
      "##incial": 4027,
      "allowing": 4028,
      "concept": 4029,
      "##olution": 4030,
      "unp": 4031,
      "compr": 4032,
      "tna": 4033,
      "closed": 4034,
      "cancer": 4035,
      "send": 4036,
      "##gins": 4037,
      "##ilateral": 4038,
      "insert": 4039,
      "implications": 4040,
      "hse": 4041,
      "lay": 4042,
      "shared": 4043,
      "guidance": 4044,
      "##ertain": 4045,
      "##road": 4046,
      "recommendation": 4047,
      "politic": 4048,
      "afghanistan": 4049,
      "dig": 4050,
      "stra": 4051,
      "##uit": 4052,
      "spoken": 4053,
      "became": 4054,
      "tabled": 4055,
      "evening": 4056,
      "competitive": 4057,
      "##ables": 4058,
      "sul": 4059,
      "room": 4060,
      "efficiency": 4061,
      "spirit": 4062,
      "dun": 4063,
      "loan": 4064,
      "impress": 4065,
      "temporary": 4066,
      "noted": 4067,
      "##hern": 4068,
      "honourable": 4069,
      "instru": 4070,
      "holding": 4071,
      "proc": 4072,
      "##livan": 4073,
      "provincial": 4074,
      "active": 4075,
      "ut": 4076,
      "welcom": 4077,
      "drive": 4078,
      "mp": 4079,
      "shortly": 4080,
      "millions": 4081,
      "solutions": 4082,
      "release": 4083,
      "fill": 4084,
      "registered": 4085,
      "ho": 4086,
      "faith": 4087,
      "facility": 4088,
      "##bo": 4089,
      "element": 4090,
      "##field": 4091,
      "promise": 4092,
      "possibly": 4093,
      "collins": 4094,
      "veterans": 4095,
      "tnaiste": 4096,
      "guidelines": 4097,
      "strengthen": 4098,
      "##encing": 4099,
      "massive": 4100,
      "arguments": 4101,
      "jose": 4102,
      "ahern": 4103,
      "beg": 4104,
      "bloc": 4105,
      "anx": 4106,
      "reserv": 4107,
      "##new": 4108,
      "##uations": 4109,
      "suggestion": 4110,
      "ministerial": 4111,
      "patient": 4112,
      "forms": 4113,
      "flow": 4114,
      "da": 4115,
      "factors": 4116,
      "##els": 4117,
      "laid": 4118,
      "##unicip": 4119,
      "safegu": 4120,
      "requested": 4121,
      "greatest": 4122,
      "satisfact": 4123,
      "relig": 4124,
      "severe": 4125,
      "##ireacht": 4126,
      "administrative": 4127,
      "vast": 4128,
      "somebody": 4129,
      "employer": 4130,
      "examples": 4131,
      "municip": 4132,
      "prevention": 4133,
      "indicate": 4134,
      "summer": 4135,
      "floor": 4136,
      "remove": 4137,
      "vehicles": 4138,
      "wood": 4139,
      "##uable": 4140,
      "crown": 4141,
      "vision": 4142,
      "dangerous": 4143,
      "dollars": 4144,
      "applies": 4145,
      "concerning": 4146,
      "american": 4147,
      "##uting": 4148,
      "##vereign": 4149,
      "##iar": 4150,
      "disabled": 4151,
      "##build": 4152,
      "loans": 4153,
      "sovereign": 4154,
      "drop": 4155,
      "fitzg": 4156,
      "fulf": 4157,
      "processes": 4158,
      "consistent": 4159,
      "size": 4160,
      "honest": 4161,
      "tit": 4162,
      "ow": 4163,
      "monitoring": 4164,
      "listening": 4165,
      "delegation": 4166,
      "joseph": 4167,
      "ver": 4168,
      "sites": 4169,
      "fell": 4170,
      "cele": 4171,
      "islands": 4172,
      "membership": 4173,
      "##oles": 4174,
      "examination": 4175,
      "##itory": 4176,
      "rac": 4177,
      "eligible": 4178,
      "stands": 4179,
      "compliance": 4180,
      "alco": 4181,
      "marine": 4182,
      "scient": 4183,
      "##yl": 4184,
      "ownership": 4185,
      "gap": 4186,
      "ndp": 4187,
      "##adow": 4188,
      "ross": 4189,
      "##pir": 4190,
      "background": 4191,
      "buildings": 4192,
      "trial": 4193,
      "divid": 4194,
      "determination": 4195,
      "upd": 4196,
      "##sey": 4197,
      "##lements": 4198,
      "intellig": 4199,
      "alcohol": 4200,
      "exchange": 4201,
      "##orough": 4202,
      "zealanders": 4203,
      "##here": 4204,
      "subsection": 4205,
      "fort": 4206,
      "##ids": 4207,
      "trading": 4208,
      "##roy": 4209,
      "##iers": 4210,
      "celebr": 4211,
      "taxpayer": 4212,
      "opening": 4213,
      "commerce": 4214,
      "cultural": 4215,
      "constant": 4216,
      "older": 4217,
      "quarter": 4218,
      "tro": 4219,
      "matt": 4220,
      "radio": 4221,
      "america": 4222,
      "recommended": 4223,
      "values": 4224,
      "refused": 4225,
      "##ca": 4226,
      "elder": 4227,
      "rapid": 4228,
      "sections": 4229,
      "driving": 4230,
      "dan": 4231,
      "troub": 4232,
      "suspect": 4233,
      "##hen": 4234,
      "attor": 4235,
      "##acter": 4236,
      "units": 4237,
      "introducing": 4238,
      "arms": 4239,
      "weak": 4240,
      "burton": 4241,
      "source": 4242,
      "arch": 4243,
      "breach": 4244,
      "disag": 4245,
      "apart": 4246,
      "operational": 4247,
      "elimin": 4248,
      "pensioners": 4249,
      "eastern": 4250,
      "largest": 4251,
      "##spap": 4252,
      "gal": 4253,
      "unaccept": 4254,
      "##lause": 4255,
      "obligation": 4256,
      "added": 4257,
      "exports": 4258,
      "teacher": 4259,
      "tomorrow": 4260,
      "newspap": 4261,
      "exclud": 4262,
      "facilitate": 4263,
      "check": 4264,
      "useful": 4265,
      "levy": 4266,
      "hundreds": 4267,
      "pil": 4268,
      "dialogue": 4269,
      "significantly": 4270,
      "governance": 4271,
      "receiving": 4272,
      "determine": 4273,
      "draf": 4274,
      "##atherine": 4275,
      "sullivan": 4276,
      "integrity": 4277,
      "om": 4278,
      "secondary": 4279,
      "managed": 4280,
      "owners": 4281,
      "audit": 4282,
      "##place": 4283,
      "mus": 4284,
      "province": 4285,
      "quote": 4286,
      "wat": 4287,
      "calling": 4288,
      "fairly": 4289,
      "permission": 4290,
      "exchequ": 4291,
      "seam": 4292,
      "deploy": 4293,
      "condem": 4294,
      "##char": 4295,
      "mortgage": 4296,
      "##agan": 4297,
      "story": 4298,
      "exchequer": 4299,
      "cam": 4300,
      "territory": 4301,
      "registration": 4302,
      "becoming": 4303,
      "knew": 4304,
      "##kan": 4305,
      "sil": 4306,
      "interpret": 4307,
      "riding": 4308,
      "##mark": 4309,
      "gil": 4310,
      "century": 4311,
      "##oli": 4312,
      "hig": 4313,
      "grounds": 4314,
      "arising": 4315,
      "cities": 4316,
      "nobody": 4317,
      "sensible": 4318,
      "supposed": 4319,
      "scope": 4320,
      "##astic": 4321,
      "##shire": 4322,
      "pupils": 4323,
      "affordable": 4324,
      "relates": 4325,
      "repeat": 4326,
      "##ula": 4327,
      "owned": 4328,
      "senate": 4329,
      "space": 4330,
      "parent": 4331,
      "farming": 4332,
      "bir": 4333,
      "fitzgerald": 4334,
      "dedic": 4335,
      "nom": 4336,
      "wid": 4337,
      "forum": 4338,
      "higgins": 4339,
      "complaints": 4340,
      "attorney": 4341,
      "banking": 4342,
      "content": 4343,
      "transition": 4344,
      "french": 4345,
      "wil": 4346,
      "woman": 4347,
      "interrupt": 4348,
      "character": 4349,
      "doctors": 4350,
      "##aughter": 4351,
      "pun": 4352,
      "suffer": 4353,
      "##ograph": 4354,
      "virt": 4355,
      "lem": 4356,
      "imposs": 4357,
      "gir": 4358,
      "1972": 4359,
      "incred": 4360,
      "##avan": 4361,
      "answered": 4362,
      "##ck": 4363,
      "train": 4364,
      "influence": 4365,
      "##fr": 4366,
      "oireacht": 4367,
      "allows": 4368,
      "examined": 4369,
      "delivering": 4370,
      "pain": 4371,
      "afterno": 4372,
      "surp": 4373,
      "universal": 4374,
      "##ille": 4375,
      "hog": 4376,
      "##fe": 4377,
      "negative": 4378,
      "tool": 4379,
      "##alling": 4380,
      "1974": 4381,
      "church": 4382,
      "unacceptable": 4383,
      "equally": 4384,
      "accordingly": 4385,
      "oireachtas": 4386,
      "##omb": 4387,
      "##verse": 4388,
      "answers": 4389,
      "ken": 4390,
      "river": 4391,
      "origin": 4392,
      "friday": 4393,
      "transform": 4394,
      "commence": 4395,
      "##ych": 4396,
      "institute": 4397,
      "remaining": 4398,
      "cast": 4399,
      "experienced": 4400,
      "##urer": 4401,
      "cowen": 4402,
      "##kar": 4403,
      "organizations": 4404,
      "retirement": 4405,
      "judgment": 4406,
      "##akes": 4407,
      "transparency": 4408,
      "discussing": 4409,
      "1970": 4410,
      "##ipe": 4411,
      "##orn": 4412,
      "represented": 4413,
      "latest": 4414,
      "acad": 4415,
      "universities": 4416,
      "##lines": 4417,
      "teaching": 4418,
      "cyc": 4419,
      "##ble": 4420,
      "##hab": 4421,
      "ideas": 4422,
      "telling": 4423,
      "exists": 4424,
      "explan": 4425,
      "noel": 4426,
      "gender": 4427,
      "ultimately": 4428,
      "afternoon": 4429,
      "volunte": 4430,
      "principal": 4431,
      "##pat": 4432,
      "##illon": 4433,
      "manage": 4434,
      "grand": 4435,
      "bi": 4436,
      "extraordinary": 4437,
      "reass": 4438,
      "providers": 4439,
      "kn": 4440,
      "##ze": 4441,
      "impossible": 4442,
      "biggest": 4443,
      "##aught": 4444,
      "bott": 4445,
      "##isms": 4446,
      "log": 4447,
      "##lection": 4448,
      "repeated": 4449,
      "hill": 4450,
      "##care": 4451,
      "representations": 4452,
      "##theless": 4453,
      "occurred": 4454,
      "##edy": 4455,
      "receipt": 4456,
      "apolog": 4457,
      "drink": 4458,
      "dail": 4459,
      "protecting": 4460,
      "servants": 4461,
      "minority": 4462,
      "##house": 4463,
      "focused": 4464,
      "neighbour": 4465,
      "licens": 4466,
      "substit": 4467,
      "elements": 4468,
      "concentr": 4469,
      "arrangement": 4470,
      "outstanding": 4471,
      "passeng": 4472,
      "abroad": 4473,
      "incor": 4474,
      "deserve": 4475,
      "votes": 4476,
      "enhance": 4477,
      "adopt": 4478,
      "exceed": 4479,
      "reserve": 4480,
      "barr": 4481,
      "observ": 4482,
      "assurance": 4483,
      "retail": 4484,
      "representation": 4485,
      "concluded": 4486,
      "sou": 4487,
      "dism": 4488,
      "pand": 4489,
      "adjust": 4490,
      "surplus": 4491,
      "valuable": 4492,
      "necessarily": 4493,
      "##sels": 4494,
      "amounts": 4495,
      "accident": 4496,
      "##ansion": 4497,
      "recruit": 4498,
      "convin": 4499,
      "medium": 4500,
      "##uk": 4501,
      "tariff": 4502,
      "identify": 4503,
      "clare": 4504,
      "palestinian": 4505,
      "acceptable": 4506,
      "thanks": 4507,
      "blo": 4508,
      "##enty": 4509,
      "percentage": 4510,
      "refugees": 4511,
      "whip": 4512,
      "terrorist": 4513,
      "psych": 4514,
      "choose": 4515,
      "euro": 4516,
      "france": 4517,
      "attacks": 4518,
      "feed": 4519,
      "rising": 4520,
      "dispute": 4521,
      "dead": 4522,
      "speeches": 4523,
      "removed": 4524,
      "foundation": 4525,
      "unlike": 4526,
      "dip": 4527,
      "leo": 4528,
      "##down": 4529,
      "##iat": 4530,
      "defend": 4531,
      "discl": 4532,
      "conducted": 4533,
      "disabilities": 4534,
      "stakeholders": 4535,
      "##tacht": 4536,
      "deligh": 4537,
      "##enihan": 4538,
      "privat": 4539,
      "mitch": 4540,
      "##what": 4541,
      "##key": 4542,
      "seeks": 4543,
      "##wood": 4544,
      "sports": 4545,
      "forestry": 4546,
      "1978": 4547,
      "mori": 4548,
      "sets": 4549,
      "mattie": 4550,
      "bob": 4551,
      "##ream": 4552,
      "undertake": 4553,
      "peacekeep": 4554,
      "##hairle": 4555,
      "investments": 4556,
      "delighted": 4557,
      "milk": 4558,
      "proposes": 4559,
      "internal": 4560,
      "fraud": 4561,
      "worst": 4562,
      "consc": 4563,
      "##ested": 4564,
      "howlin": 4565,
      "##urb": 4566,
      "kevin": 4567,
      "elderly": 4568,
      "##stood": 4569,
      "##esh": 4570,
      "physical": 4571,
      "lemass": 4572,
      "adoption": 4573,
      "daily": 4574,
      "ukrain": 4575,
      "1953": 4576,
      "prohib": 4577,
      "vehicle": 4578,
      "redund": 4579,
      "increasingly": 4580,
      "helped": 4581,
      "##ower": 4582,
      "denis": 4583,
      "dillon": 4584,
      "##alities": 4585,
      "durkan": 4586,
      "##ogh": 4587,
      "resolve": 4588,
      "posts": 4589,
      "shadow": 4590,
      "farmer": 4591,
      "below": 4592,
      "forget": 4593,
      "homeless": 4594,
      "##idency": 4595,
      "referring": 4596,
      "antic": 4597,
      "van": 4598,
      "expansion": 4599,
      "encouraging": 4600,
      "slight": 4601,
      "risks": 4602,
      "interjections": 4603,
      "privilege": 4604,
      "##ya": 4605,
      "kelly": 4606,
      "teleph": 4607,
      "carrying": 4608,
      "worry": 4609,
      "catch": 4610,
      "apprent": 4611,
      "visited": 4612,
      "seamus": 4613,
      "arab": 4614,
      "sympath": 4615,
      "lyn": 4616,
      "##erick": 4617,
      "mine": 4618,
      "##riage": 4619,
      "fee": 4620,
      "cheap": 4621,
      "##mental": 4622,
      "achieving": 4623,
      "stephen": 4624,
      "grad": 4625,
      "stations": 4626,
      "voice": 4627,
      "speakers": 4628,
      "explo": 4629,
      "consensus": 4630,
      "experts": 4631,
      "firms": 4632,
      "scrutiny": 4633,
      "core": 4634,
      "##oring": 4635,
      "calc": 4636,
      "fixed": 4637,
      "succeed": 4638,
      "residential": 4639,
      "##dp": 4640,
      "fewer": 4641,
      "causes": 4642,
      "superann": 4643,
      "remark": 4644,
      "mother": 4645,
      "decade": 4646,
      "directive": 4647,
      "incomes": 4648,
      "hot": 4649,
      "shop": 4650,
      "varad": 4651,
      "##orse": 4652,
      "##iring": 4653,
      "assistant": 4654,
      "door": 4655,
      "demands": 4656,
      "##ancing": 4657,
      "neither": 4658,
      "varadkar": 4659,
      "charged": 4660,
      "##pet": 4661,
      "convers": 4662,
      "##ses": 4663,
      "outcomes": 4664,
      "hit": 4665,
      "notes": 4666,
      "sanctions": 4667,
      "regret": 4668,
      "helpful": 4669,
      "##olly": 4670,
      "ru": 4671,
      "1966": 4672,
      "ba": 4673,
      "hall": 4674,
      "han": 4675,
      "maintained": 4676,
      "attach": 4677,
      "mitchell": 4678,
      "1968": 4679,
      "involving": 4680,
      "pad": 4681,
      "argue": 4682,
      "released": 4683,
      "situations": 4684,
      "actual": 4685,
      "##esty": 4686,
      "spread": 4687,
      "judicial": 4688,
      "productivity": 4689,
      "broadcast": 4690,
      "controll": 4691,
      "enact": 4692,
      "welcomed": 4693,
      "series": 4694,
      "##cing": 4695,
      "##ifications": 4696,
      "##abb": 4697,
      "vacc": 4698,
      "tend": 4699,
      "refers": 4700,
      "divers": 4701,
      "professor": 4702,
      "jurisdiction": 4703,
      "advisory": 4704,
      "uncertain": 4705,
      "suitable": 4706,
      "straight": 4707,
      "finding": 4708,
      "corporate": 4709,
      "records": 4710,
      "deeply": 4711,
      "flan": 4712,
      "involvement": 4713,
      "closure": 4714,
      "discrimination": 4715,
      "afr": 4716,
      "constructive": 4717,
      "tough": 4718,
      "tenants": 4719,
      "obtain": 4720,
      "christmas": 4721,
      "block": 4722,
      "anticip": 4723,
      "adjourn": 4724,
      "passing": 4725,
      "fast": 4726,
      "bon": 4727,
      "##anim": 4728,
      "maybe": 4729,
      "rose": 4730,
      "flanagan": 4731,
      "conclude": 4732,
      "hogan": 4733,
      "promoting": 4734,
      "traditional": 4735,
      "pandemic": 4736,
      "phase": 4737,
      "dele": 4738,
      "##ulations": 4739,
      "legitimate": 4740,
      "fif": 4741,
      "intelligence": 4742,
      "offenders": 4743,
      "integrated": 4744,
      "nav": 4745,
      "implementing": 4746,
      "gold": 4747,
      "comhairle": 4748,
      "vill": 4749,
      "advise": 4750,
      "broken": 4751,
      "##ffe": 4752,
      "turned": 4753,
      "truly": 4754,
      "##ictions": 4755,
      "catherine": 4756,
      "tun": 4757,
      "diss": 4758,
      "certificate": 4759,
      "##ester": 4760,
      "distin": 4761,
      "hal": 4762,
      "dipl": 4763,
      "##off": 4764,
      "##ault": 4765,
      "gain": 4766,
      "premises": 4767,
      "collective": 4768,
      "ring": 4769,
      "eval": 4770,
      "##owd": 4771,
      "1969": 4772,
      "expertise": 4773,
      "lu": 4774,
      "victor": 4775,
      "double": 4776,
      "##uckland": 4777,
      "disagree": 4778,
      "surr": 4779,
      "afraid": 4780,
      "promotion": 4781,
      "##ario": 4782,
      "##hips": 4783,
      "desire": 4784,
      "##cedent": 4785,
      "processing": 4786,
      "promises": 4787,
      "submit": 4788,
      "limerick": 4789,
      "carers": 4790,
      "securing": 4791,
      "estate": 4792,
      "namely": 4793,
      "mount": 4794,
      "##icking": 4795,
      "##adh": 4796,
      "superannuation": 4797,
      "names": 4798,
      "reiter": 4799,
      "##okes": 4800,
      "nurses": 4801,
      "submissions": 4802,
      "cutting": 4803,
      "slow": 4804,
      "##low": 4805,
      "germany": 4806,
      "railway": 4807,
      "wonderful": 4808,
      "gross": 4809,
      "##rees": 4810,
      "copy": 4811,
      "yor": 4812,
      "careful": 4813,
      "##adequ": 4814,
      "forg": 4815,
      "covid": 4816,
      "##necess": 4817,
      "love": 4818,
      "limits": 4819,
      "reporting": 4820,
      "budgets": 4821,
      "rh": 4822,
      "pretty": 4823,
      "##ero": 4824,
      "customs": 4825,
      "advanced": 4826,
      "sund": 4827,
      "##lan": 4828,
      "##donald": 4829,
      "##uous": 4830,
      "targeted": 4831,
      "aggr": 4832,
      "auckland": 4833,
      "1976": 4834,
      "vat": 4835,
      "##ternal": 4836,
      "dog": 4837,
      "##laced": 4838,
      "planned": 4839,
      "becomes": 4840,
      "discret": 4841,
      "brex": 4842,
      "gar": 4843,
      "benches": 4844,
      "unanim": 4845,
      "won": 4846,
      "pursue": 4847,
      "##ral": 4848,
      "et": 4849,
      "strike": 4850,
      "decades": 4851,
      "##irable": 4852,
      "quinn": 4853,
      "debated": 4854,
      "ruling": 4855,
      "retr": 4856,
      "valid": 4857,
      "##eney": 4858,
      "contains": 4859,
      "belief": 4860,
      "producers": 4861,
      "apprentices": 4862,
      "push": 4863,
      "suffered": 4864,
      "inadequ": 4865,
      "presence": 4866,
      "cars": 4867,
      "policing": 4868,
      "##enses": 4869,
      "depr": 4870,
      "##usion": 4871,
      "customers": 4872,
      "lit": 4873,
      "heads": 4874,
      "smaller": 4875,
      "understood": 4876,
      "engagement": 4877,
      "##ining": 4878,
      "objection": 4879,
      "wrote": 4880,
      "unique": 4881,
      "##uls": 4882,
      "##ua": 4883,
      "lob": 4884,
      "whereby": 4885,
      "extensive": 4886,
      "profits": 4887,
      "##iary": 4888,
      "thinks": 4889,
      "imagine": 4890,
      "title": 4891,
      "superv": 4892,
      "publication": 4893,
      "coord": 4894,
      "chris": 4895,
      "civilians": 4896,
      "relatively": 4897,
      "aimed": 4898,
      "holiday": 4899,
      "starting": 4900,
      "precisely": 4901,
      "awar": 4902,
      "inclusive": 4903,
      "allowances": 4904,
      "testing": 4905,
      "brings": 4906,
      "declaration": 4907,
      "prede": 4908,
      "##burgh": 4909,
      "politicians": 4910,
      "conservation": 4911,
      "unnecess": 4912,
      "1952": 4913,
      "competit": 4914,
      "serving": 4915,
      "qualified": 4916,
      "##eli": 4917,
      "lawy": 4918,
      "webs": 4919,
      "fourth": 4920,
      "gerry": 4921,
      "mps": 4922,
      "##onan": 4923,
      "##icted": 4924,
      "awareness": 4925,
      "dim": 4926,
      "##agh": 4927,
      "peaceful": 4928,
      "consol": 4929,
      "cos": 4930,
      "workforce": 4931,
      "brexit": 4932,
      "frequ": 4933,
      "impose": 4934,
      "cas": 4935,
      "saving": 4936,
      "flexibility": 4937,
      "##bc": 4938,
      "discretion": 4939,
      "appointments": 4940,
      "consequence": 4941,
      "playing": 4942,
      "pict": 4943,
      "reconcil": 4944,
      "mut": 4945,
      "animals": 4946,
      "fighting": 4947,
      "cattle": 4948,
      "goal": 4949,
      "route": 4950,
      "squ": 4951,
      "pound": 4952,
      "mining": 4953,
      "ham": 4954,
      "equival": 4955,
      "prosperity": 4956,
      "showed": 4957,
      "played": 4958,
      "accur": 4959,
      "destroy": 4960,
      "galway": 4961,
      "##erous": 4962,
      "bol": 4963,
      "##foli": 4964,
      "expenses": 4965,
      "households": 4966,
      "dispos": 4967,
      "hus": 4968,
      "administer": 4969,
      "premium": 4970,
      "ireann": 4971,
      "##rary": 4972,
      "##respond": 4973,
      "portfoli": 4974,
      "clarify": 4975,
      "somewhat": 4976,
      "gaeltacht": 4977,
      "##anda": 4978,
      "undertaking": 4979,
      "##ole": 4980,
      "memor": 4981,
      "search": 4982,
      "solid": 4983,
      "nursing": 4984,
      "closing": 4985,
      "box": 4986,
      "surprised": 4987,
      "interruption": 4988,
      "digital": 4989,
      "##uctions": 4990,
      "correspond": 4991,
      "procure": 4992,
      "spons": 4993,
      "##lam": 4994,
      "mul": 4995,
      "##fort": 4996,
      "invite": 4997,
      "awa": 4998,
      "##lon": 4999,
      "##iven": 5000,
      "external": 5001,
      "2024": 5002,
      "structures": 5003,
      "inev": 5004,
      "predecess": 5005,
      "conflicts": 5006,
      "cavan": 5007,
      "##ancies": 5008,
      "oppose": 5009,
      "daly": 5010,
      "chann": 5011,
      "liter": 5012,
      "1967": 5013,
      "items": 5014,
      "ju": 5015,
      "largely": 5016,
      "sentence": 5017,
      "##coming": 5018,
      "ki": 5019,
      "aside": 5020,
      "##ela": 5021,
      "##etary": 5022,
      "perfectly": 5023,
      "looks": 5024,
      "lou": 5025,
      "##ball": 5026,
      "voc": 5027,
      "applause": 5028,
      "applicants": 5029,
      "bay": 5030,
      "recip": 5031,
      "types": 5032,
      "nevertheless": 5033,
      "auditor": 5034,
      "courses": 5035,
      "factor": 5036,
      "horr": 5037,
      "minute": 5038,
      "##dd": 5039,
      "##my": 5040,
      "apparently": 5041,
      "iran": 5042,
      "steel": 5043,
      "##ama": 5044,
      "##endous": 5045,
      "economies": 5046,
      "sales": 5047,
      "hur": 5048,
      "pharm": 5049,
      "larger": 5050,
      "prisoners": 5051,
      "shatter": 5052,
      "expensive": 5053,
      "##sell": 5054,
      "encouraged": 5055,
      "inher": 5056,
      "disadvantaged": 5057,
      "welsh": 5058,
      "alliance": 5059,
      "accomp": 5060,
      "sole": 5061,
      "manif": 5062,
      "##ador": 5063,
      "gun": 5064,
      "deem": 5065,
      "envis": 5066,
      "jap": 5067,
      "##orig": 5068,
      "positions": 5069,
      "landl": 5070,
      "sharing": 5071,
      "##iations": 5072,
      "workplace": 5073,
      "dair": 5074,
      "##chna": 5075,
      "urgency": 5076,
      "fal": 5077,
      "formal": 5078,
      "unre": 5079,
      "consolid": 5080,
      "birth": 5081,
      "ende": 5082,
      "capt": 5083,
      "peacekeeping": 5084,
      "##cill": 5085,
      "desper": 5086,
      "inequ": 5087,
      "representing": 5088,
      "absence": 5089,
      "match": 5090,
      "occur": 5091,
      "attended": 5092,
      "##agn": 5093,
      "accountable": 5094,
      "southern": 5095,
      "willie": 5096,
      "restrictions": 5097,
      "sources": 5098,
      "losses": 5099,
      "contrary": 5100,
      "treasurer": 5101,
      "##room": 5102,
      "japan": 5103,
      "cu": 5104,
      "subsidy": 5105,
      "clauses": 5106,
      "##umed": 5107,
      "practition": 5108,
      "write": 5109,
      "investing": 5110,
      "syria": 5111,
      "bureaucr": 5112,
      "sac": 5113,
      "dere": 5114,
      "termin": 5115,
      "judges": 5116,
      "lynch": 5117,
      "collab": 5118,
      "##inate": 5119,
      "##rant": 5120,
      "aborig": 5121,
      "incident": 5122,
      "territories": 5123,
      "trem": 5124,
      "ferg": 5125,
      "##orters": 5126,
      "lock": 5127,
      "highlighted": 5128,
      "sochna": 5129,
      "##building": 5130,
      "lie": 5131,
      "citizenship": 5132,
      "corruption": 5133,
      "anne": 5134,
      "##abling": 5135,
      "##bury": 5136,
      "existence": 5137,
      "councill": 5138,
      "combat": 5139,
      "upgr": 5140,
      "1962": 5141,
      "launched": 5142,
      "penalty": 5143,
      "beef": 5144,
      "consultations": 5145,
      "sick": 5146,
      "##lor": 5147,
      "federation": 5148,
      "landlord": 5149,
      "overs": 5150,
      "studies": 5151,
      "worker": 5152,
      "resolutions": 5153,
      "noonan": 5154,
      "##ows": 5155,
      "##eed": 5156,
      "establishing": 5157,
      "god": 5158,
      "##ception": 5159,
      "heavy": 5160,
      "##back": 5161,
      "##isons": 5162,
      "admit": 5163,
      "animal": 5164,
      "plat": 5165,
      "papers": 5166,
      "greatly": 5167,
      "decline": 5168,
      "invested": 5169,
      "criticism": 5170,
      "##umn": 5171,
      "intends": 5172,
      "summit": 5173,
      "troops": 5174,
      "weather": 5175,
      "confirmed": 5176,
      "##igned": 5177,
      "telephone": 5178,
      "gilmore": 5179,
      "religious": 5180,
      "definite": 5181,
      "##ishing": 5182,
      "presidency": 5183,
      "##era": 5184,
      "interim": 5185,
      "##erties": 5186,
      "perpet": 5187,
      "capable": 5188,
      "fairness": 5189,
      "strengthening": 5190,
      "girls": 5191,
      "pac": 5192,
      "forec": 5193,
      "cull": 5194,
      "##oking": 5195,
      "properties": 5196,
      "queens": 5197,
      "debating": 5198,
      "##minster": 5199,
      "furthermore": 5200,
      "panel": 5201,
      "discover": 5202,
      "maintaining": 5203,
      "enterprises": 5204,
      "ali": 5205,
      "##etic": 5206,
      "courage": 5207,
      "rang": 5208,
      "##olved": 5209,
      "completion": 5210,
      "##ola": 5211,
      "broadband": 5212,
      "equity": 5213,
      "resulted": 5214,
      "##craft": 5215,
      "sunday": 5216,
      "##oned": 5217,
      "regards": 5218,
      "distribution": 5219,
      "hugh": 5220,
      "equivalent": 5221,
      "unfortunate": 5222,
      "##ori": 5223,
      "prove": 5224,
      "spring": 5225,
      "franc": 5226,
      "reb": 5227,
      "##ocol": 5228,
      "tob": 5229,
      "killed": 5230,
      "concess": 5231,
      "frustr": 5232,
      "easier": 5233,
      "website": 5234,
      "trouble": 5235,
      "deaths": 5236,
      "democrats": 5237,
      "manifest": 5238,
      "wed": 5239,
      "monetary": 5240,
      "##aut": 5241,
      "##iel": 5242,
      "interfer": 5243,
      "cat": 5244,
      "bottom": 5245,
      "##nell": 5246,
      "##licit": 5247,
      "reve": 5248,
      "pilot": 5249,
      "writing": 5250,
      "bail": 5251,
      "dischar": 5252,
      "margar": 5253,
      "stood": 5254,
      "marriage": 5255,
      "began": 5256,
      "subsequently": 5257,
      "rely": 5258,
      "wild": 5259,
      "worried": 5260,
      "aboriginal": 5261,
      "streets": 5262,
      "##ipping": 5263,
      "##works": 5264,
      "##gal": 5265,
      "shock": 5266,
      "dign": 5267,
      "keen": 5268,
      "recognize": 5269,
      "anth": 5270,
      "assume": 5271,
      "mond": 5272,
      "##riers": 5273,
      "contributed": 5274,
      "##ieties": 5275,
      "liability": 5276,
      "portfolio": 5277,
      "##itte": 5278,
      "recruitment": 5279,
      "civilian": 5280,
      "stages": 5281,
      "relate": 5282,
      "constituencies": 5283,
      "partner": 5284,
      "mechanisms": 5285,
      "employee": 5286,
      "crimin": 5287,
      "1963": 5288,
      "lowest": 5289,
      "online": 5290,
      "renewable": 5291,
      "treacy": 5292,
      "counties": 5293,
      "tu": 5294,
      "ves": 5295,
      "resolved": 5296,
      "rehab": 5297,
      "spokes": 5298,
      "##imh": 5299,
      "##ylum": 5300,
      "cease": 5301,
      "allegations": 5302,
      "##ville": 5303,
      "asylum": 5304,
      "supplies": 5305,
      "##irk": 5306,
      "location": 5307,
      "disaster": 5308,
      "1977": 5309,
      "traged": 5310,
      "text": 5311,
      "##dney": 5312,
      "transferred": 5313,
      "indication": 5314,
      "procurement": 5315,
      "protest": 5316,
      "historic": 5317,
      "persu": 5318,
      "decre": 5319,
      "declared": 5320,
      "named": 5321,
      "thres": 5322,
      "defined": 5323,
      "briefing": 5324,
      "##lant": 5325,
      "boyd": 5326,
      "internet": 5327,
      "scientific": 5328,
      "dependent": 5329,
      "pollution": 5330,
      "usual": 5331,
      "compuls": 5332,
      "##ara": 5333,
      "chem": 5334,
      "born": 5335,
      "rabb": 5336,
      "##ague": 5337,
      "briefly": 5338,
      "lies": 5339,
      "monday": 5340,
      "##tedly": 5341,
      "shame": 5342,
      "grave": 5343,
      "albert": 5344,
      "cath": 5345,
      "threats": 5346,
      "decent": 5347,
      "manager": 5348,
      "narr": 5349,
      "##igan": 5350,
      "supreme": 5351,
      "comply": 5352,
      "returned": 5353,
      "regardless": 5354,
      "westminster": 5355,
      "prin": 5356,
      "margaret": 5357,
      "aircraft": 5358,
      "entry": 5359,
      "threshold": 5360,
      "doh": 5361,
      "##osure": 5362,
      "1950": 5363,
      "err": 5364,
      "generations": 5365,
      "progressive": 5366,
      "forecast": 5367,
      "##patrick": 5368,
      "prescrib": 5369,
      "multip": 5370,
      "##inburgh": 5371,
      "adams": 5372,
      "cope": 5373,
      "achievement": 5374,
      "edinburgh": 5375,
      "reilly": 5376,
      "##urers": 5377,
      "feeling": 5378,
      "sydney": 5379,
      "##aded": 5380,
      "financing": 5381,
      "argued": 5382,
      "ep": 5383,
      "##annon": 5384,
      "convinced": 5385,
      "suggests": 5386,
      "1973": 5387,
      "qualify": 5388,
      "widely": 5389,
      "licences": 5390,
      "sadly": 5391,
      "anxious": 5392,
      "outline": 5393,
      "scand": 5394,
      "explained": 5395,
      "winter": 5396,
      "queensland": 5397,
      "##crip": 5398,
      "sem": 5399,
      "recession": 5400,
      "rehabilit": 5401,
      "dram": 5402,
      "advertising": 5403,
      "incorp": 5404,
      "dairy": 5405,
      "regarded": 5406,
      "doherty": 5407,
      "applicant": 5408,
      "##ka": 5409,
      "##abil": 5410,
      "journ": 5411,
      "##izing": 5412,
      "fitzpatrick": 5413,
      "subsequent": 5414,
      "##iders": 5415,
      "wheat": 5416,
      "neil": 5417,
      "obst": 5418,
      "##uter": 5419,
      "organised": 5420,
      "aband": 5421,
      "proposing": 5422,
      "lenihan": 5423,
      "died": 5424,
      "branch": 5425,
      "##how": 5426,
      "##iced": 5427,
      "bond": 5428,
      "deserv": 5429,
      "borders": 5430,
      "involves": 5431,
      "believed": 5432,
      "terrible": 5433,
      "findings": 5434,
      "shares": 5435,
      "inadequate": 5436,
      "investigate": 5437,
      "ukraine": 5438,
      "##eds": 5439,
      "earth": 5440,
      "blood": 5441,
      "dedicated": 5442,
      "directors": 5443,
      "##agg": 5444,
      "surround": 5445,
      "kids": 5446,
      "picture": 5447,
      "install": 5448,
      "goals": 5449,
      "claimed": 5450,
      "##hoe": 5451,
      "fault": 5452,
      "gdp": 5453,
      "quant": 5454,
      "##yle": 5455,
      "category": 5456,
      "gather": 5457,
      "instruct": 5458,
      "sudan": 5459,
      "father": 5460,
      "mail": 5461,
      "lords": 5462,
      "##illing": 5463,
      "discip": 5464,
      "##pection": 5465,
      "blame": 5466,
      "##osis": 5467,
      "communication": 5468,
      "salary": 5469,
      "unnecessary": 5470,
      "##ursday": 5471,
      "highlight": 5472,
      "contain": 5473,
      "owner": 5474,
      "bid": 5475,
      "##aled": 5476,
      "adjournment": 5477,
      "##lock": 5478,
      "byr": 5479,
      "##iors": 5480,
      "scar": 5481,
      "suggesting": 5482,
      "protocol": 5483,
      "mel": 5484,
      "oversight": 5485,
      "safeguard": 5486,
      "platform": 5487,
      "gh": 5488,
      "russia": 5489,
      "guard": 5490,
      "wallace": 5491,
      "isol": 5492,
      "violent": 5493,
      "dramatic": 5494,
      "hayes": 5495,
      "retain": 5496,
      "1935": 5497,
      "asset": 5498,
      "nick": 5499,
      "pear": 5500,
      "fortun": 5501,
      "explanation": 5502,
      "citizen": 5503,
      "disappointed": 5504,
      "driven": 5505,
      "colleges": 5506,
      "stronger": 5507,
      "reviewed": 5508,
      "coveney": 5509,
      "illness": 5510,
      "entitlement": 5511,
      "powerful": 5512,
      "##ries": 5513,
      "##right": 5514,
      "recover": 5515,
      "stor": 5516,
      "command": 5517,
      "restore": 5518,
      "disposal": 5519,
      "seanad": 5520,
      "jer": 5521,
      "refugee": 5522,
      "submission": 5523,
      "byrne": 5524,
      "tremendous": 5525,
      "##emy": 5526,
      "whereas": 5527,
      "easily": 5528,
      "senator": 5529,
      "##ilton": 5530,
      "governing": 5531,
      "thursday": 5532,
      "1933": 5533,
      "personally": 5534,
      "admitted": 5535,
      "acknowledged": 5536,
      "1949": 5537,
      "ont": 5538,
      "howard": 5539,
      "aer": 5540,
      "wife": 5541,
      "devast": 5542,
      "repay": 5543,
      "alter": 5544,
      "fost": 5545,
      "entered": 5546,
      "gains": 5547,
      "compon": 5548,
      "vers": 5549,
      "publicly": 5550,
      "##raeli": 5551,
      "minds": 5552,
      "bab": 5553,
      "ended": 5554,
      "desmond": 5555,
      "perspective": 5556,
      "opened": 5557,
      "journal": 5558,
      "ot": 5559,
      "##others": 5560,
      "rabbitte": 5561,
      "drivers": 5562,
      "expense": 5563,
      "effectiveness": 5564,
      "ren": 5565,
      "tackling": 5566,
      "warm": 5567,
      "haugh": 5568,
      "shannon": 5569,
      "zero": 5570,
      "broadcasting": 5571,
      "##bours": 5572,
      "##inery": 5573,
      "inclusion": 5574,
      "liam": 5575,
      "necessity": 5576,
      "obtained": 5577,
      "arbit": 5578,
      "trained": 5579,
      "##entee": 5580,
      "##aint": 5581,
      "bos": 5582,
      "marketing": 5583,
      "reput": 5584,
      "fergus": 5585,
      "solve": 5586,
      "condemn": 5587,
      "false": 5588,
      "cullen": 5589,
      "1936": 5590,
      "plus": 5591,
      "undermin": 5592,
      "reflected": 5593,
      "aspir": 5594,
      "actively": 5595,
      "penalties": 5596,
      "destruction": 5597,
      "game": 5598,
      "motions": 5599,
      "pursu": 5600,
      "twice": 5601,
      "sanction": 5602,
      "##itious": 5603,
      "haughey": 5604,
      "fly": 5605,
      "chap": 5606,
      "amongst": 5607,
      "recorded": 5608,
      "deemed": 5609,
      "israeli": 5610,
      "##uesday": 5611,
      "automatic": 5612,
      "hards": 5613,
      "##ront": 5614,
      "season": 5615,
      "selling": 5616,
      "demonstrated": 5617,
      "race": 5618,
      "##gill": 5619,
      "fulfil": 5620,
      "payable": 5621,
      "##anga": 5622,
      "delays": 5623,
      "trag": 5624,
      "puts": 5625,
      "assessed": 5626,
      "##uate": 5627,
      "substitute": 5628,
      "kerry": 5629,
      "seniors": 5630,
      "valley": 5631,
      "victim": 5632,
      "remov": 5633,
      "##rey": 5634,
      "##overs": 5635,
      "passage": 5636,
      "robust": 5637,
      "stim": 5638,
      "borough": 5639,
      "denied": 5640,
      "##ahy": 5641,
      "career": 5642,
      "1961": 5643,
      "operators": 5644,
      "beds": 5645,
      "##cription": 5646,
      "##gl": 5647,
      "acute": 5648,
      "##uds": 5649,
      "sorts": 5650,
      "anthony": 5651,
      "intervene": 5652,
      "tuesday": 5653,
      "bridge": 5654,
      "suic": 5655,
      "##ologies": 5656,
      "kenn": 5657,
      "borrowing": 5658,
      "##awa": 5659,
      "vocational": 5660,
      "##va": 5661,
      "permit": 5662,
      "sand": 5663,
      "comprom": 5664,
      "balanced": 5665,
      "sovereignty": 5666,
      "##eries": 5667,
      "##ulating": 5668,
      "mainly": 5669,
      "depos": 5670,
      "pock": 5671,
      "complic": 5672,
      "importantly": 5673,
      "##ex": 5674,
      "##kes": 5675,
      "maori": 5676,
      "##ae": 5677,
      "inspection": 5678,
      "eye": 5679,
      "mistake": 5680,
      "##ocks": 5681,
      "sher": 5682,
      "normally": 5683,
      "insist": 5684,
      "pressures": 5685,
      "integration": 5686,
      "healy": 5687,
      "usually": 5688,
      "1951": 5689,
      "##yc": 5690,
      "satisfactory": 5691,
      "thorough": 5692,
      "substantially": 5693,
      "passion": 5694,
      "offers": 5695,
      "revised": 5696,
      "healthy": 5697,
      "aims": 5698,
      "tobac": 5699,
      "inquiries": 5700,
      "##oto": 5701,
      "slightly": 5702,
      "certainty": 5703,
      "uncertainty": 5704,
      "reconciliation": 5705,
      "broader": 5706,
      "ky": 5707,
      "pled": 5708,
      "losing": 5709,
      "reductions": 5710,
      "sinc": 5711,
      "investigations": 5712,
      "##ulous": 5713,
      "directed": 5714,
      "phr": 5715,
      "methods": 5716,
      "hamilton": 5717,
      "tradition": 5718,
      "##nic": 5719,
      "tory": 5720,
      "##xford": 5721,
      "kee": 5722,
      "champ": 5723,
      "weekend": 5724,
      "aust": 5725,
      "##mot": 5726,
      "tobacco": 5727,
      "interview": 5728,
      "##ung": 5729,
      "salaries": 5730,
      "demonstrate": 5731,
      "specified": 5732,
      "failing": 5733,
      "dignity": 5734,
      "burn": 5735,
      "suggestions": 5736,
      "kos": 5737,
      "input": 5738,
      "##vor": 5739,
      "##lers": 5740,
      "##hr": 5741,
      "ending": 5742,
      "lists": 5743,
      "strict": 5744,
      "removal": 5745,
      "letters": 5746,
      "##ashion": 5747,
      "consulted": 5748,
      "dismiss": 5749,
      "struggling": 5750,
      "relationships": 5751,
      "##lif": 5752,
      "##och": 5753,
      "amaz": 5754,
      "football": 5755,
      "shel": 5756,
      "lessons": 5757,
      "kinds": 5758,
      "exped": 5759,
      "emphasis": 5760,
      "pacific": 5761,
      "1956": 5762,
      "russian": 5763,
      "adap": 5764,
      "caol": 5765,
      "rational": 5766,
      "showing": 5767,
      "belong": 5768,
      "apologise": 5769,
      "kore": 5770,
      "1965": 5771,
      "operated": 5772,
      "brid": 5773,
      "##mon": 5774,
      "mandatory": 5775,
      "disgr": 5776,
      "recognises": 5777,
      "quota": 5778,
      "collection": 5779,
      "cooper": 5780,
      "##igor": 5781,
      "##fast": 5782,
      "anywhere": 5783,
      "expired": 5784,
      "##usal": 5785,
      "update": 5786,
      "identity": 5787,
      "licensing": 5788,
      "reflects": 5789,
      "##arth": 5790,
      "##withstanding": 5791,
      "mayo": 5792,
      "exemption": 5793,
      "gst": 5794,
      "alleged": 5795,
      "ports": 5796,
      "##pping": 5797,
      "##vent": 5798,
      "##airi": 5799,
      "fashion": 5800,
      "##ationally": 5801,
      "##wide": 5802,
      "appalling": 5803,
      "finances": 5804,
      "doctor": 5805,
      "farms": 5806,
      "formula": 5807,
      "##ishment": 5808,
      "kw": 5809,
      "fant": 5810,
      "frankly": 5811,
      "struggle": 5812,
      "knowing": 5813,
      "users": 5814,
      "##cus": 5815,
      "reli": 5816,
      "lam": 5817,
      "tragedy": 5818,
      "##ai": 5819,
      "timely": 5820,
      "detention": 5821,
      "omb": 5822,
      "kild": 5823,
      "count": 5824,
      "assured": 5825,
      "ran": 5826,
      "divided": 5827,
      "kosov": 5828,
      "##cher": 5829,
      "constituent": 5830,
      "##osen": 5831,
      "essentially": 5832,
      "weight": 5833,
      "leis": 5834,
      "trafficking": 5835,
      "cards": 5836,
      "prisons": 5837,
      "numerous": 5838,
      "causing": 5839,
      "notwithstanding": 5840,
      "regularly": 5841,
      "toler": 5842,
      "sensitive": 5843,
      "scre": 5844,
      "qualifications": 5845,
      "availability": 5846,
      "##greg": 5847,
      "quoted": 5848,
      "transparent": 5849,
      "classes": 5850,
      "incentive": 5851,
      "engineering": 5852,
      "ontario": 5853,
      "fallen": 5854,
      "eventually": 5855,
      "governor": 5856,
      "choices": 5857,
      "miles": 5858,
      "listed": 5859,
      "liqu": 5860,
      "accused": 5861,
      "fem": 5862,
      "##orter": 5863,
      "structural": 5864,
      "##lusions": 5865,
      "statute": 5866,
      "stream": 5867,
      "1934": 5868,
      "sacr": 5869,
      "consultants": 5870,
      "mix": 5871,
      "##nt": 5872,
      "sudden": 5873,
      "##aking": 5874,
      "nons": 5875,
      "awarded": 5876,
      "endeavour": 5877,
      "##icts": 5878,
      "##ette": 5879,
      "jour": 5880,
      "differences": 5881,
      "##rete": 5882,
      "##udd": 5883,
      "library": 5884,
      "primarily": 5885,
      "earnings": 5886,
      "potentially": 5887,
      "##bridge": 5888,
      "stories": 5889,
      "cape": 5890,
      "index": 5891,
      "candidates": 5892,
      "ian": 5893,
      "##unction": 5894,
      "##igation": 5895,
      "joined": 5896,
      "sincere": 5897,
      "nato": 5898,
      "withdrawn": 5899,
      "controlled": 5900,
      "proved": 5901,
      "desirable": 5902,
      "meaningful": 5903,
      "preparation": 5904,
      "societies": 5905,
      "impacts": 5906,
      "##wer": 5907,
      "competitiveness": 5908,
      "successfully": 5909,
      "requests": 5910,
      "##icing": 5911,
      "clarity": 5912,
      "books": 5913,
      "##ipped": 5914,
      "##ingu": 5915,
      "1924": 5916,
      "reaching": 5917,
      "jones": 5918,
      "substance": 5919,
      "justify": 5920,
      "vet": 5921,
      "##shore": 5922,
      "electron": 5923,
      "ll": 5924,
      "##igrants": 5925,
      "boost": 5926,
      "wilson": 5927,
      "variety": 5928,
      "##rog": 5929,
      "##oda": 5930,
      "multi": 5931,
      "comfort": 5932,
      "disgrace": 5933,
      "raises": 5934,
      "##aghan": 5935,
      "machinery": 5936,
      "ber": 5937,
      "reiterate": 5938,
      "mic": 5939,
      "##athan": 5940,
      "considers": 5941,
      "spect": 5942,
      "gerard": 5943,
      "tests": 5944,
      "designated": 5945,
      "ambass": 5946,
      "##onsider": 5947,
      "##uries": 5948,
      "interpretation": 5949,
      "schedul": 5950,
      "consistently": 5951,
      "sun": 5952,
      "generous": 5953,
      "mack": 5954,
      "innoc": 5955,
      "suppose": 5956,
      "withdrawal": 5957,
      "mcdonald": 5958,
      "prepare": 5959,
      "murder": 5960,
      "weekly": 5961,
      "preserv": 5962,
      "##fall": 5963,
      "##wart": 5964,
      "materials": 5965,
      "optim": 5966,
      "rejected": 5967,
      "chemical": 5968,
      "##ington": 5969,
      "affects": 5970,
      "continent": 5971,
      "cycle": 5972,
      "##anna": 5973,
      "lt": 5974,
      "dwell": 5975,
      "oli": 5976,
      "ruairi": 5977,
      "professionals": 5978,
      "somehow": 5979,
      "kennedy": 5980,
      "moral": 5981,
      "flag": 5982,
      "##ithe": 5983,
      "##ingham": 5984,
      "legacy": 5985,
      "##ax": 5986,
      "eligibility": 5987,
      "instances": 5988,
      "ombuds": 5989,
      "fat": 5990,
      "falling": 5991,
      "instrument": 5992,
      "burke": 5993,
      "battle": 5994,
      "##lihood": 5995,
      "compe": 5996,
      "interventions": 5997,
      "1960": 5998,
      "neglect": 5999,
      "producing": 6000,
      "trend": 6001,
      "##iti": 6002,
      "##hi": 6003,
      "predecessor": 6004,
      "nc": 6005,
      "##dy": 6006,
      "ray": 6007,
      "originally": 6008,
      "investors": 6009,
      "cao": 6010,
      "internationally": 6011,
      "thereby": 6012,
      "##ennan": 6013,
      "prosecution": 6014,
      "##ask": 6015,
      "incomp": 6016,
      "linked": 6017,
      "waters": 6018,
      "##ully": 6019,
      "hardship": 6020,
      "chosen": 6021,
      "strategies": 6022,
      "privatisation": 6023,
      "1946": 6024,
      "grah": 6025,
      "##chester": 6026,
      "specialist": 6027,
      "##whel": 6028,
      "presiding": 6029,
      "illustr": 6030,
      "incidents": 6031,
      "pursuant": 6032,
      "newspapers": 6033,
      "ok": 6034,
      "ath": 6035,
      "enhanced": 6036,
      "kosovo": 6037,
      "factory": 6038,
      "##aker": 6039,
      "##oa": 6040,
      "intim": 6041,
      "shortage": 6042,
      "##isan": 6043,
      "caught": 6044,
      "misle": 6045,
      "mick": 6046,
      "trip": 6047,
      "band": 6048,
      "technologies": 6049,
      "controls": 6050,
      "concrete": 6051,
      "##ulum": 6052,
      "missing": 6053,
      "mobile": 6054,
      "hoped": 6055,
      "##unt": 6056,
      "compulsory": 6057,
      "undoub": 6058,
      "##active": 6059,
      "invited": 6060,
      "dollar": 6061,
      "##ilty": 6062,
      "##ige": 6063,
      "strik": 6064,
      "son": 6065,
      "managers": 6066,
      "##law": 6067,
      "##itably": 6068,
      "ruth": 6069,
      "rehabilitation": 6070,
      "tools": 6071,
      "resist": 6072,
      "os": 6073,
      "remote": 6074,
      "##iling": 6075,
      "lod": 6076,
      "deceased": 6077,
      "contrast": 6078,
      "overwhel": 6079,
      "browne": 6080,
      "stamp": 6081,
      "eec": 6082,
      "1928": 6083,
      "criminals": 6084,
      "##bre": 6085,
      "donegal": 6086,
      "dental": 6087,
      "clinical": 6088,
      "##olit": 6089,
      "fellow": 6090,
      "barriers": 6091,
      "incentives": 6092,
      "married": 6093,
      "keeffe": 6094,
      "kildare": 6095,
      "repair": 6096,
      "volume": 6097,
      "##orations": 6098,
      "1964": 6099,
      "1958": 6100,
      "util": 6101,
      "combined": 6102,
      "##20": 6103,
      "adjour": 6104,
      "caoimh": 6105,
      "acquis": 6106,
      "impression": 6107,
      "acce": 6108,
      "caoimhgh": 6109,
      "mol": 6110,
      "staffing": 6111,
      "proof": 6112,
      "##while": 6113,
      "finish": 6114,
      "1941": 6115,
      "##pped": 6116,
      "##inese": 6117,
      "sho": 6118,
      "offering": 6119,
      "soldiers": 6120,
      "located": 6121,
      "##iment": 6122,
      "scandal": 6123,
      "si": 6124,
      "consumption": 6125,
      "undermine": 6126,
      "arrest": 6127,
      "departmental": 6128,
      "deny": 6129,
      "skilled": 6130,
      "advocate": 6131,
      "ethnic": 6132,
      "affecting": 6133,
      "##uity": 6134,
      "remed": 6135,
      "edward": 6136,
      "clock": 6137,
      "convey": 6138,
      "soft": 6139,
      "wides": 6140,
      "agrees": 6141,
      "##urity": 6142,
      "##pread": 6143,
      "cler": 6144,
      "dou": 6145,
      "1959": 6146,
      "gaz": 6147,
      "aviation": 6148,
      "bigger": 6149,
      "links": 6150,
      "##ecd": 6151,
      "ignored": 6152,
      "cosgr": 6153,
      "narrow": 6154,
      "witnesses": 6155,
      "widespread": 6156,
      "leads": 6157,
      "lasting": 6158,
      "incredibly": 6159,
      "chinese": 6160,
      "##arians": 6161,
      "contributing": 6162,
      "pattern": 6163,
      "nich": 6164,
      "refuse": 6165,
      "petrol": 6166,
      "swe": 6167,
      "conscious": 6168,
      "##oted": 6169,
      "sums": 6170,
      "##vert": 6171,
      "##sa": 6172,
      "##xic": 6173,
      "##ites": 6174,
      "returns": 6175,
      "sar": 6176,
      "spl": 6177,
      "india": 6178,
      "unif": 6179,
      "etc": 6180,
      "appeared": 6181,
      "brien": 6182,
      "diagn": 6183,
      "##ape": 6184,
      "innovative": 6185,
      "warrant": 6186,
      "fifth": 6187,
      "badly": 6188,
      "utter": 6189,
      "familiar": 6190,
      "##rem": 6191,
      "attempts": 6192,
      "travelling": 6193,
      "##atures": 6194,
      "reputation": 6195,
      "nice": 6196,
      "alig": 6197,
      "assert": 6198,
      "##under": 6199,
      "somal": 6200,
      "productive": 6201,
      "detect": 6202,
      "##isa": 6203,
      "bhf": 6204,
      "##ker": 6205,
      "bomb": 6206,
      "arrived": 6207,
      "caoimhghin": 6208,
      "suicide": 6209,
      "turning": 6210,
      "caolain": 6211,
      "surve": 6212,
      "adverse": 6213,
      "beaut": 6214,
      "##ois": 6215,
      "brennan": 6216,
      "games": 6217,
      "conclusions": 6218,
      "##do": 6219,
      "closer": 6220,
      "pool": 6221,
      "underp": 6222,
      "sentences": 6223,
      "moneys": 6224,
      "##nesday": 6225,
      "municipalities": 6226,
      "##ional": 6227,
      "drain": 6228,
      "outset": 6229,
      "nonsense": 6230,
      "##jud": 6231,
      "jon": 6232,
      "partnerships": 6233,
      "##ello": 6234,
      "viable": 6235,
      "budgetary": 6236,
      "##communic": 6237,
      "adjourned": 6238,
      "privacy": 6239,
      "resume": 6240,
      "##anged": 6241,
      "mike": 6242,
      "bbc": 6243,
      "##can": 6244,
      "grat": 6245,
      "applying": 6246,
      "##mans": 6247,
      "popular": 6248,
      "##appropriate": 6249,
      "##olic": 6250,
      "contemp": 6251,
      "stewart": 6252,
      "guilty": 6253,
      "ros": 6254,
      "pure": 6255,
      "imports": 6256,
      "territorial": 6257,
      "##rep": 6258,
      "fishermen": 6259,
      "visits": 6260,
      "cum": 6261,
      "reasonably": 6262,
      "extending": 6263,
      "##izes": 6264,
      "enth": 6265,
      "harris": 6266,
      "1947": 6267,
      "bosn": 6268,
      "prospects": 6269,
      "outr": 6270,
      "fle": 6271,
      "brough": 6272,
      "charlie": 6273,
      "gp": 6274,
      "regulator": 6275,
      "billy": 6276,
      "stable": 6277,
      "##tery": 6278,
      "subsidies": 6279,
      "constantly": 6280,
      "output": 6281,
      "curric": 6282,
      "ombudsman": 6283,
      "fer": 6284,
      "tender": 6285,
      "delete": 6286,
      "unity": 6287,
      "migration": 6288,
      "transitional": 6289,
      "ther": 6290,
      "aids": 6291,
      "cold": 6292,
      "complaint": 6293,
      "##cs": 6294,
      "wednesday": 6295,
      "gib": 6296,
      "sight": 6297,
      "virtually": 6298,
      "conven": 6299,
      "emerging": 6300,
      "passengers": 6301,
      "padra": 6302,
      "##lining": 6303,
      "1948": 6304,
      "##irect": 6305,
      "##hes": 6306,
      "feet": 6307,
      "finian": 6308,
      "flexible": 6309,
      "tor": 6310,
      "##kin": 6311,
      "basically": 6312,
      "##kins": 6313,
      "harbour": 6314,
      "victoria": 6315,
      "adults": 6316,
      "disarm": 6317,
      "seemed": 6318,
      "priorit": 6319,
      "unpre": 6320,
      "defe": 6321,
      "locally": 6322,
      "neighbours": 6323,
      "phone": 6324,
      "cater": 6325,
      "perpetr": 6326,
      "undoubtedly": 6327,
      "volunteers": 6328,
      "ignore": 6329,
      "gang": 6330,
      "throw": 6331,
      "intent": 6332,
      "##look": 6333,
      "stopped": 6334,
      "ltd": 6335,
      "york": 6336,
      "secured": 6337,
      "stan": 6338,
      "1937": 6339,
      "##berts": 6340,
      "adequately": 6341,
      "inspector": 6342,
      "hen": 6343,
      "inside": 6344,
      "airports": 6345,
      "forgot": 6346,
      "##inations": 6347,
      "responses": 6348,
      "##actions": 6349,
      "##isc": 6350,
      "gree": 6351,
      "mutual": 6352,
      "excluded": 6353,
      "mah": 6354,
      "academic": 6355,
      "50": 6356,
      "pm": 6357,
      "compete": 6358,
      "interference": 6359,
      "##ulu": 6360,
      "imper": 6361,
      "responded": 6362,
      "wals": 6363,
      "costello": 6364,
      "participants": 6365,
      "challenging": 6366,
      "expression": 6367,
      "languages": 6368,
      "enabling": 6369,
      "assault": 6370,
      "entitlements": 6371,
      "##just": 6372,
      "commenced": 6373,
      "moreover": 6374,
      "##onic": 6375,
      "alongside": 6376,
      "lived": 6377,
      "charities": 6378,
      "rapidly": 6379,
      "respected": 6380,
      "domin": 6381,
      "preventing": 6382,
      "tay": 6383,
      "pig": 6384,
      "##rison": 6385,
      "##aser": 6386,
      "computer": 6387,
      "queen": 6388,
      "surg": 6389,
      "##iciary": 6390,
      "luc": 6391,
      "ment": 6392,
      "bes": 6393,
      "meat": 6394,
      "genuinely": 6395,
      "managing": 6396,
      "enthus": 6397,
      "arises": 6398,
      "grown": 6399,
      "fantastic": 6400,
      "historical": 6401,
      "defer": 6402,
      "##stream": 6403,
      "##ression": 6404,
      "ambassador": 6405,
      "##govern": 6406,
      "##asters": 6407,
      "cun": 6408,
      "##ays": 6409,
      "roberts": 6410,
      "resulting": 6411,
      "controvers": 6412,
      "tight": 6413,
      "scen": 6414,
      "stabil": 6415,
      "acceler": 6416,
      "##med": 6417,
      "seats": 6418,
      "experiences": 6419,
      "guaranteed": 6420,
      "inappropriate": 6421,
      "ott": 6422,
      "##iable": 6423,
      "bert": 6424,
      "selected": 6425,
      "sinn": 6426,
      "##worth": 6427,
      "africans": 6428,
      "forthcoming": 6429,
      "mit": 6430,
      "rush": 6431,
      "breakdown": 6432,
      "##lev": 6433,
      "infect": 6434,
      "thirdly": 6435,
      "tragic": 6436,
      "faces": 6437,
      "associations": 6438,
      "##itect": 6439,
      "syrian": 6440,
      "suppli": 6441,
      "appreciation": 6442,
      "pipe": 6443,
      "1932": 6444,
      "remarkable": 6445,
      "##pro": 6446,
      "radical": 6447,
      "exceptional": 6448,
      "profound": 6449,
      "somewhere": 6450,
      "##apse": 6451,
      "disadvantage": 6452,
      "sympathy": 6453,
      "candidate": 6454,
      "operative": 6455,
      "annivers": 6456,
      "bulk": 6457,
      "warning": 6458,
      "brad": 6459,
      "##pool": 6460,
      "woods": 6461,
      "phrase": 6462,
      "spain": 6463,
      "rock": 6464,
      "##row": 6465,
      "negotiating": 6466,
      "newspaper": 6467,
      "architect": 6468,
      "resc": 6469,
      "##urally": 6470,
      "seo": 6471,
      "harney": 6472,
      "connected": 6473,
      "confusion": 6474,
      "collected": 6475,
      "ben": 6476,
      "calle": 6477,
      "mayor": 6478,
      "display": 6479,
      "negotiated": 6480,
      "##cedented": 6481,
      "gamb": 6482,
      "wise": 6483,
      "remun": 6484,
      "operates": 6485,
      "lawyers": 6486,
      "considerably": 6487,
      "aber": 6488,
      "##arity": 6489,
      "rank": 6490,
      "overcome": 6491,
      "deliberately": 6492,
      "practitioners": 6493,
      "##antly": 6494,
      "hopes": 6495,
      "iii": 6496,
      "1931": 6497,
      "blind": 6498,
      "passport": 6499,
      "capability": 6500,
      "##stone": 6501,
      "##urning": 6502,
      "##kers": 6503,
      "dermot": 6504,
      "species": 6505,
      "telecommunic": 6506,
      "rus": 6507,
      "emphasise": 6508,
      "overwhelming": 6509,
      "distingu": 6510,
      "luck": 6511,
      "##roc": 6512,
      "disturb": 6513,
      "1955": 6514,
      "mcgill": 6515,
      "unprecedented": 6516,
      "frances": 6517,
      "participating": 6518,
      "shift": 6519,
      "rents": 6520,
      "repeatedly": 6521,
      "struck": 6522,
      "##opo": 6523,
      "alarm": 6524,
      "diversity": 6525,
      "channel": 6526,
      "##ifies": 6527,
      "occupied": 6528,
      "obliged": 6529,
      "accurate": 6530,
      "##etor": 6531,
      "##mar": 6532,
      "helen": 6533,
      "considerations": 6534,
      "distress": 6535,
      "prevail": 6536,
      "periods": 6537,
      "##omet": 6538,
      "replacement": 6539,
      "categories": 6540,
      "##orton": 6541,
      "sustained": 6542,
      "colon": 6543,
      "corporations": 6544,
      "justified": 6545,
      "hide": 6546,
      "##sk": 6547,
      "disord": 6548,
      "marg": 6549,
      "clubs": 6550,
      "##bourne": 6551,
      "offshore": 6552,
      "bilateral": 6553,
      "tells": 6554,
      "trevor": 6555,
      "anniversary": 6556,
      "missed": 6557,
      "##lantic": 6558,
      "reconst": 6559,
      "electronic": 6560,
      "amp": 6561,
      "##organ": 6562,
      "advisers": 6563,
      "##aring": 6564,
      "bog": 6565,
      "sugar": 6566,
      "##cape": 6567,
      "ly": 6568,
      "##atis": 6569,
      "achievements": 6570,
      "persist": 6571,
      "batt": 6572,
      "reconsider": 6573,
      "solic": 6574,
      "##abe": 6575,
      "disputes": 6576,
      "broughan": 6577,
      "hardly": 6578,
      "compli": 6579,
      "mcgilligan": 6580,
      "1939": 6581,
      "pearse": 6582,
      "cloth": 6583,
      "annum": 6584,
      "acted": 6585,
      "donnell": 6586,
      "unanimous": 6587,
      "significance": 6588,
      "latter": 6589,
      "injury": 6590,
      "##ona": 6591,
      "flaw": 6592,
      "acres": 6593,
      "jam": 6594,
      "##idh": 6595,
      "possession": 6596,
      "##ilst": 6597,
      "contrad": 6598,
      "attending": 6599,
      "spar": 6600,
      "##rum": 6601,
      "lind": 6602,
      "dont": 6603,
      "deciding": 6604,
      "##arms": 6605,
      "conviction": 6606,
      "instruments": 6607,
      "constrain": 6608,
      "holders": 6609,
      "shane": 6610,
      "provisional": 6611,
      "iv": 6612,
      "ell": 6613,
      "peters": 6614,
      "manufacturers": 6615,
      "voters": 6616,
      "##odaigh": 6617,
      "snodaigh": 6618,
      "deterior": 6619,
      "assessments": 6620,
      "declare": 6621,
      "blue": 6622,
      "johnson": 6623,
      "nationals": 6624,
      "visa": 6625,
      "helps": 6626,
      "fresh": 6627,
      "ships": 6628,
      "pra": 6629,
      "##emen": 6630,
      "negotiate": 6631,
      "arre": 6632,
      "thats": 6633,
      "waterford": 6634,
      "##olm": 6635,
      "handed": 6636,
      "bertie": 6637,
      "##vance": 6638,
      "##pper": 6639,
      "matern": 6640,
      "oce": 6641,
      "restruct": 6642,
      "proposition": 6643,
      "imported": 6644,
      "disappear": 6645,
      "##imb": 6646,
      "music": 6647,
      "surrounding": 6648,
      "investigated": 6649,
      "murr": 6650,
      "reverse": 6651,
      "whilst": 6652,
      "tick": 6653,
      "teams": 6654,
      "drafting": 6655,
      "blow": 6656,
      "fought": 6657,
      "recre": 6658,
      "sli": 6659,
      "daniel": 6660,
      "currency": 6661,
      "##urances": 6662,
      "frequently": 6663,
      "requiring": 6664,
      "innocent": 6665,
      "curriculum": 6666,
      "##50": 6667,
      "kirk": 6668,
      "urgently": 6669,
      "assisted": 6670,
      "councillors": 6671,
      "welcomes": 6672,
      "##ga": 6673,
      "100": 6674,
      "cuiv": 6675,
      "rough": 6676,
      "sov": 6677,
      "parliamentarians": 6678,
      "firmly": 6679,
      "abolition": 6680,
      "attached": 6681,
      "alban": 6682,
      "##asion": 6683,
      "macentee": 6684,
      "evaluation": 6685,
      "arrears": 6686,
      "pursued": 6687,
      "camer": 6688,
      "##olas": 6689,
      "congest": 6690,
      "marit": 6691,
      "returning": 6692,
      "gord": 6693,
      "female": 6694,
      "ridic": 6695,
      "##yr": 6696,
      "##uil": 6697,
      "##ato": 6698,
      "transm": 6699,
      "##icks": 6700,
      "sheep": 6701,
      "accompan": 6702,
      "span": 6703,
      "violations": 6704,
      "diplomatic": 6705,
      "prejud": 6706,
      "interruptions": 6707,
      "rare": 6708,
      "##wan": 6709,
      "##ander": 6710,
      "buying": 6711,
      "unh": 6712,
      "incredible": 6713,
      "ottawa": 6714,
      "depends": 6715,
      "driver": 6716,
      "vessels": 6717,
      "commod": 6718,
      "tourist": 6719,
      "accessible": 6720,
      "inspectors": 6721,
      "endorse": 6722,
      "##elling": 6723,
      "lease": 6724,
      "fing": 6725,
      "revolution": 6726,
      "covers": 6727,
      "valuation": 6728,
      "timet": 6729,
      "##illed": 6730,
      "##ns": 6731,
      "##za": 6732,
      "hyp": 6733,
      "disarmament": 6734,
      "geograph": 6735,
      "institutional": 6736,
      "remit": 6737,
      "envisaged": 6738,
      "ruled": 6739,
      "neut": 6740,
      "##econom": 6741,
      "ballot": 6742,
      "preparing": 6743,
      "dict": 6744,
      "bell": 6745,
      "##oul": 6746,
      "commencement": 6747,
      "surprise": 6748,
      "junior": 6749,
      "homelessness": 6750,
      "ceann": 6751,
      "##da": 6752,
      "##andum": 6753,
      "##log": 6754,
      "negotiation": 6755,
      "unw": 6756,
      "examining": 6757,
      "passenger": 6758,
      "shut": 6759,
      "magn": 6760,
      "telecommunications": 6761,
      "evident": 6762,
      "fs": 6763,
      "safeguards": 6764,
      "pill": 6765,
      "yield": 6766,
      "muse": 6767,
      "detr": 6768,
      "devolved": 6769,
      "reaction": 6770,
      "appropr": 6771,
      "occupation": 6772,
      "##adic": 6773,
      "tenant": 6774,
      "entities": 6775,
      "##turn": 6776,
      "manchester": 6777,
      "disclosure": 6778,
      "convicted": 6779,
      "fundamentally": 6780,
      "coverage": 6781,
      "mall": 6782,
      "approve": 6783,
      "creates": 6784,
      "drawing": 6785,
      "pounds": 6786,
      "trusts": 6787,
      "sending": 6788,
      "##asc": 6789,
      "ida": 6790,
      "multiple": 6791,
      "andrews": 6792,
      "redundancy": 6793,
      "##leen": 6794,
      "visitors": 6795,
      "hanlon": 6796,
      "missions": 6797,
      "ward": 6798,
      "liable": 6799,
      "transf": 6800,
      "##ivation": 6801,
      "devolution": 6802,
      "realised": 6803,
      "journey": 6804,
      "acquisition": 6805,
      "##iles": 6806,
      "sacrif": 6807,
      "solicitor": 6808,
      "rae": 6809,
      "oh": 6810,
      "via": 6811,
      "memorandum": 6812,
      "##borough": 6813,
      "escal": 6814,
      "##othian": 6815,
      "falls": 6816,
      "rod": 6817,
      "##isin": 6818,
      "fife": 6819,
      "replaced": 6820,
      "repeal": 6821,
      "bought": 6822,
      "##iful": 6823,
      "##ala": 6824,
      "bearing": 6825,
      "responding": 6826,
      "flem": 6827,
      "pursuing": 6828,
      "##urice": 6829,
      "##zi": 6830,
      "hes": 6831,
      "lobby": 6832,
      "comparison": 6833,
      "topic": 6834,
      "injust": 6835,
      "soviet": 6836,
      "manifesto": 6837,
      "satur": 6838,
      "boys": 6839,
      "nic": 6840,
      "loved": 6841,
      "oecd": 6842,
      "smoking": 6843,
      "fab": 6844,
      "##ipper": 6845,
      "mont": 6846,
      "rory": 6847,
      "prescribed": 6848,
      "recipients": 6849,
      "preced": 6850,
      "cosgrave": 6851,
      "walsh": 6852,
      "##vest": 6853,
      "equitable": 6854,
      "##ede": 6855,
      "incorpor": 6856,
      "##cuse": 6857,
      "speaks": 6858,
      "##ores": 6859,
      "##quar": 6860,
      "drafted": 6861,
      "bosnia": 6862,
      "chapter": 6863,
      "jonathan": 6864,
      "wherever": 6865,
      "dimin": 6866,
      "1942": 6867,
      "casual": 6868,
      "processed": 6869,
      "complement": 6870,
      "exploitation": 6871,
      "museum": 6872,
      "lending": 6873,
      "definitely": 6874,
      "maritime": 6875,
      "guess": 6876,
      "removing": 6877,
      "preserve": 6878,
      "haw": 6879,
      "village": 6880,
      "deserves": 6881,
      "marginal": 6882,
      "solidarity": 6883,
      "notified": 6884,
      "eliminate": 6885,
      "odd": 6886,
      "excuse": 6887,
      "habit": 6888,
      "saved": 6889,
      "##gy": 6890,
      "##engus": 6891,
      "engaging": 6892,
      "knock": 6893,
      "timor": 6894,
      "aengus": 6895,
      "eyes": 6896,
      "realistic": 6897,
      "initiated": 6898,
      "similarly": 6899,
      "childcare": 6900,
      "##ws": 6901,
      "emot": 6902,
      "##ussels": 6903,
      "multilateral": 6904,
      "liquid": 6905,
      "fleming": 6906,
      "bush": 6907,
      "renewal": 6908,
      "friendly": 6909,
      "leaves": 6910,
      "##prene": 6911,
      "permitted": 6912,
      "##ena": 6913,
      "consequently": 6914,
      "conj": 6915,
      "outrage": 6916,
      "medicines": 6917,
      "league": 6918,
      "##win": 6919,
      "incurred": 6920,
      "reaff": 6921,
      "##inating": 6922,
      "determining": 6923,
      "adapt": 6924,
      "valera": 6925,
      "zone": 6926,
      "legally": 6927,
      "entre": 6928,
      "correctly": 6929,
      "foster": 6930,
      "transformation": 6931,
      "##prop": 6932,
      "credibility": 6933,
      "reviews": 6934,
      "naugh": 6935,
      "rhetor": 6936,
      "asia": 6937,
      "vent": 6938,
      "expectations": 6939,
      "excise": 6940,
      "describe": 6941,
      "1925": 6942,
      "barg": 6943,
      "graham": 6944,
      "irre": 6945,
      "coastal": 6946,
      "lottery": 6947,
      "birm": 6948,
      "rub": 6949,
      "rc": 6950,
      "birmingham": 6951,
      "aberde": 6952,
      "tariffs": 6953,
      "excessive": 6954,
      "##cy": 6955,
      "entreprene": 6956,
      "lad": 6957,
      "grie": 6958,
      "ideal": 6959,
      "stagg": 6960,
      "furn": 6961,
      "ends": 6962,
      "metrop": 6963,
      "wholly": 6964,
      "##soever": 6965,
      "suffici": 6966,
      "advertise": 6967,
      "connor": 6968,
      "winn": 6969,
      "postal": 6970,
      "modest": 6971,
      "entering": 6972,
      "sees": 6973,
      "suspended": 6974,
      "brussels": 6975,
      "##urd": 6976,
      "##uated": 6977,
      "indicates": 6978,
      "cough": 6979,
      "awards": 6980,
      "selection": 6981,
      "allocations": 6982,
      "complicated": 6983,
      "respects": 6984,
      "cann": 6985,
      "inevitably": 6986,
      "hughes": 6987,
      "##lated": 6988,
      "brand": 6989,
      "uses": 6990,
      "theres": 6991,
      "cul": 6992,
      "murray": 6993,
      "portion": 6994,
      "risen": 6995,
      "file": 6996,
      "enfor": 6997,
      "feels": 6998,
      "regrett": 6999,
      "sustainability": 7000,
      "threatened": 7001,
      "pays": 7002,
      "ambul": 7003,
      "locations": 7004,
      "reck": 7005,
      "##ureen": 7006,
      "redress": 7007,
      "pregn": 7008,
      "commissioned": 7009,
      "dara": 7010,
      "understands": 7011,
      "destroyed": 7012,
      "donogh": 7013,
      "authorised": 7014,
      "chain": 7015,
      "##erb": 7016,
      "maureen": 7017,
      "finished": 7018,
      "intentions": 7019,
      "arbitr": 7020,
      "##acks": 7021,
      "pak": 7022,
      "correspondence": 7023,
      "##olk": 7024,
      "approaches": 7025,
      "##utor": 7026,
      "cau": 7027,
      "leban": 7028,
      "firearms": 7029,
      "saturday": 7030,
      "turf": 7031,
      "remuneration": 7032,
      "##olitan": 7033,
      "sake": 7034,
      "##hl": 7035,
      "bris": 7036,
      "existed": 7037,
      "francis": 7038,
      "tested": 7039,
      "breaking": 7040,
      "enacted": 7041,
      "##arrass": 7042,
      "##unk": 7043,
      "##inge": 7044,
      "korea": 7045,
      "whatsoever": 7046,
      "##roll": 7047,
      "##ding": 7048,
      "viet": 7049,
      "parks": 7050,
      "##uba": 7051,
      "celebrate": 7052,
      "resil": 7053,
      "atlantic": 7054,
      "shops": 7055,
      "reconstruction": 7056,
      "embarrass": 7057,
      "diseases": 7058,
      "confidential": 7059,
      "twenty": 7060,
      "##apped": 7061,
      "##rid": 7062,
      "distinct": 7063,
      "taylor": 7064,
      "subjects": 7065,
      "ech": 7066,
      "ku": 7067,
      "nationally": 7068,
      "merits": 7069,
      "bow": 7070,
      "rom": 7071,
      "misleading": 7072,
      "clark": 7073,
      "devastating": 7074,
      "earning": 7075,
      "reminded": 7076,
      "husband": 7077,
      "firstly": 7078,
      "damien": 7079,
      "heavily": 7080,
      "allev": 7081,
      "##economic": 7082,
      "##aire": 7083,
      "padraig": 7084,
      "landlords": 7085,
      "signs": 7086,
      "dick": 7087,
      "component": 7088,
      "broadly": 7089,
      "ineff": 7090,
      "eradic": 7091,
      "inequality": 7092,
      "discovered": 7093,
      "##assion": 7094,
      "noise": 7095,
      "poorest": 7096,
      "bhfuil": 7097,
      "##retch": 7098,
      "deployment": 7099,
      "##time": 7100,
      "bind": 7101,
      "tipper": 7102,
      "##respons": 7103,
      "vice": 7104,
      "experiencing": 7105,
      "##che": 7106,
      "demp": 7107,
      "plain": 7108,
      "##gen": 7109,
      "coff": 7110,
      "##ti": 7111,
      "columb": 7112,
      "tipperary": 7113,
      "mir": 7114,
      "distinction": 7115,
      "routes": 7116,
      "pride": 7117,
      "collaboration": 7118,
      "maid": 7119,
      "naughten": 7120,
      "##together": 7121,
      "gill": 7122,
      "rental": 7123,
      "expects": 7124,
      "intensive": 7125,
      "districts": 7126,
      "jean": 7127,
      "1929": 7128,
      "butter": 7129,
      "dempsey": 7130,
      "mcd": 7131,
      "greg": 7132,
      "summary": 7133,
      "reserves": 7134,
      "boundaries": 7135,
      "##urring": 7136,
      "accidents": 7137,
      "contractors": 7138,
      "recognized": 7139,
      "compell": 7140,
      "anticipated": 7141,
      "billions": 7142,
      "oral": 7143,
      "robertson": 7144,
      "railways": 7145,
      "breat": 7146,
      "cha": 7147,
      "##aine": 7148,
      "norton": 7149,
      "restructuring": 7150,
      "##will": 7151,
      "ka": 7152,
      "forgotten": 7153,
      "pul": 7154,
      "assurances": 7155,
      "liver": 7156,
      "ensures": 7157,
      "receives": 7158,
      "##state": 7159,
      "feature": 7160,
      "ram": 7161,
      "adam": 7162,
      "expanded": 7163,
      "congo": 7164,
      "metropolitan": 7165,
      "parental": 7166,
      "retention": 7167,
      "plenty": 7168,
      "enjoyed": 7169,
      "wis": 7170,
      "gordon": 7171,
      "##mer": 7172,
      "beneficial": 7173,
      "shipping": 7174,
      "reflection": 7175,
      "supervision": 7176,
      "##ho": 7177,
      "fool": 7178,
      "wexford": 7179,
      "##ij": 7180,
      "tully": 7181,
      "intellect": 7182,
      "enrol": 7183,
      "dump": 7184,
      "delayed": 7185,
      "ambitious": 7186,
      "prud": 7187,
      "##ingly": 7188,
      "coin": 7189,
      "gerald": 7190,
      "##iatric": 7191,
      "formed": 7192,
      "film": 7193,
      "react": 7194,
      "##alled": 7195,
      "##lel": 7196,
      "morris": 7197,
      "merg": 7198,
      "exposed": 7199,
      "christian": 7200,
      "addresses": 7201,
      "philos": 7202,
      "dropped": 7203,
      "allen": 7204,
      "coron": 7205,
      "indirect": 7206,
      "caring": 7207,
      "##illion": 7208,
      "les": 7209,
      "gaza": 7210,
      "administered": 7211,
      "##ked": 7212,
      "mulc": 7213,
      "partly": 7214,
      "underlying": 7215,
      "error": 7216,
      "rescue": 7217,
      "apparent": 7218,
      "shortall": 7219,
      "##acon": 7220,
      "meets": 7221,
      "enables": 7222,
      "tonnes": 7223,
      "indones": 7224,
      "islam": 7225,
      "roles": 7226,
      "altogether": 7227,
      "##fire": 7228,
      "watching": 7229,
      "acquired": 7230,
      "mistakes": 7231,
      "agents": 7232,
      "pockets": 7233,
      "childhood": 7234,
      "medicare": 7235,
      "##lar": 7236,
      "meantime": 7237,
      "settlements": 7238,
      "substantive": 7239,
      "bruce": 7240,
      "annually": 7241,
      "uniform": 7242,
      "sam": 7243,
      "pending": 7244,
      "##wi": 7245,
      "param": 7246,
      "##icious": 7247,
      "fleet": 7248,
      "clarification": 7249,
      "successive": 7250,
      "aspirations": 7251,
      "horse": 7252,
      "cheann": 7253,
      "lifet": 7254,
      "initially": 7255,
      "breed": 7256,
      "survive": 7257,
      "nicholas": 7258,
      "stone": 7259,
      "1923": 7260,
      "ordered": 7261,
      "rudd": 7262,
      "##tered": 7263,
      "drainage": 7264,
      "maternity": 7265,
      "conting": 7266,
      "surviv": 7267,
      "corner": 7268,
      "immense": 7269,
      "whenever": 7270,
      "customer": 7271,
      "unlikely": 7272,
      "imf": 7273,
      "##wick": 7274,
      "fails": 7275,
      "rhetoric": 7276,
      "networks": 7277,
      "ash": 7278,
      "griff": 7279,
      "drinking": 7280,
      "map": 7281,
      "satisfy": 7282,
      "nie": 7283,
      "mothers": 7284,
      "##fin": 7285,
      "1926": 7286,
      "shape": 7287,
      "underpin": 7288,
      "justification": 7289,
      "coughlan": 7290,
      "tel": 7291,
      "diplom": 7292,
      "##lets": 7293,
      "cell": 7294,
      "generate": 7295,
      "assisting": 7296,
      "joy": 7297,
      "rcmp": 7298,
      "medicine": 7299,
      "ridiculous": 7300,
      "surprising": 7301,
      "restricted": 7302,
      "##ox": 7303,
      "greenhouse": 7304,
      "##ips": 7305,
      "checks": 7306,
      "autumn": 7307,
      "conjunction": 7308,
      "entity": 7309,
      "##bro": 7310,
      "hat": 7311,
      "qub": 7312,
      "regulated": 7313,
      "concentrate": 7314,
      "embr": 7315,
      "##ita": 7316,
      "solely": 7317,
      "cancell": 7318,
      "guarantees": 7319,
      "qubco": 7320,
      "compromise": 7321,
      "deprived": 7322,
      "ours": 7323,
      "bread": 7324,
      "qubcois": 7325,
      "nur": 7326,
      "expanding": 7327,
      "nl": 7328,
      "square": 7329,
      "geoff": 7330,
      "lew": 7331,
      "libya": 7332,
      "faster": 7333,
      "kid": 7334,
      "hoc": 7335,
      "##iant": 7336,
      "reluct": 7337,
      "midlands": 7338,
      "inner": 7339,
      "jac": 7340,
      "majesty": 7341,
      "suddenly": 7342,
      "recyc": 7343,
      "trains": 7344,
      "attractive": 7345,
      "visiting": 7346,
      "advantages": 7347,
      "counterpart": 7348,
      "runs": 7349,
      "anom": 7350,
      "calleary": 7351,
      "charity": 7352,
      "collapse": 7353,
      "plants": 7354,
      "attendance": 7355,
      "hiv": 7356,
      "presentation": 7357,
      "prompt": 7358,
      "anyway": 7359,
      "conversation": 7360,
      "ofthe": 7361,
      "##lim": 7362,
      "somalia": 7363,
      "heat": 7364,
      "dowd": 7365,
      "philosoph": 7366,
      "tan": 7367,
      "corn": 7368,
      "juli": 7369,
      "resumed": 7370,
      "concession": 7371,
      "flooding": 7372,
      "asks": 7373,
      "pace": 7374,
      "uphold": 7375,
      "prosecutions": 7376,
      "finds": 7377,
      "slee": 7378,
      "pas": 7379,
      "sporting": 7380,
      "bureaucracy": 7381,
      "por": 7382,
      "therap": 7383,
      "haz": 7384,
      "##kenny": 7385,
      "guide": 7386,
      "abb": 7387,
      "##ourke": 7388,
      "##rell": 7389,
      "bally": 7390,
      "regen": 7391,
      "congress": 7392,
      "reward": 7393,
      "malley": 7394,
      "pakistan": 7395,
      "proceeding": 7396,
      "damaging": 7397,
      "##see": 7398,
      "##lymp": 7399,
      "paral": 7400,
      "terrorists": 7401,
      "highlands": 7402,
      "inval": 7403,
      "projected": 7404,
      "##asy": 7405,
      "##igg": 7406,
      "frag": 7407,
      "greens": 7408,
      "consultant": 7409,
      "##amh": 7410,
      "hunt": 7411,
      "mainstream": 7412,
      "##dale": 7413,
      "surgery": 7414,
      "credits": 7415,
      "distance": 7416,
      "cunning": 7417,
      "##ds": 7418,
      "compare": 7419,
      "store": 7420,
      "jurisdictions": 7421,
      "freedoms": 7422,
      "monopo": 7423,
      "voices": 7424,
      "pieces": 7425,
      "olymp": 7426,
      "merit": 7427,
      "transportation": 7428,
      "imperative": 7429,
      "stating": 7430,
      "premier": 7431,
      "hopefully": 7432,
      "chose": 7433,
      "1954": 7434,
      "strange": 7435,
      "murd": 7436,
      "rot": 7437,
      "stocks": 7438,
      "extrem": 7439,
      "##aming": 7440,
      "##bell": 7441,
      "naturally": 7442,
      "economics": 7443,
      "suit": 7444,
      "remained": 7445,
      "retired": 7446,
      "resign": 7447,
      "monaghan": 7448,
      "gps": 7449,
      "##iled": 7450,
      "provider": 7451,
      "##isen": 7452,
      "settled": 7453,
      "memory": 7454,
      "lia": 7455,
      "timetable": 7456,
      "ratio": 7457,
      "pier": 7458,
      "dock": 7459,
      "##entral": 7460,
      "revealed": 7461,
      "lifetime": 7462,
      "1927": 7463,
      "stick": 7464,
      "abolish": 7465,
      "classroom": 7466,
      "kelle": 7467,
      "loch": 7468,
      "injuries": 7469,
      "00": 7470,
      "##uces": 7471,
      "purely": 7472,
      "caucus": 7473,
      "fields": 7474,
      "handling": 7475,
      "kelleher": 7476,
      "transfers": 7477,
      "scheduled": 7478,
      "tang": 7479,
      "vide": 7480,
      "backb": 7481,
      "debts": 7482,
      "##ux": 7483,
      "root": 7484,
      "rating": 7485,
      "stanley": 7486,
      "sweet": 7487,
      "judiciary": 7488,
      "toward": 7489,
      "storage": 7490,
      "livelihood": 7491,
      "##via": 7492,
      "1945": 7493,
      "depending": 7494,
      "1944": 7495,
      "explicit": 7496,
      "commun": 7497,
      "factories": 7498,
      "##iest": 7499,
      "empower": 7500,
      "chun": 7501,
      "accepting": 7502,
      "hearings": 7503,
      "discharge": 7504,
      "empty": 7505,
      "##uma": 7506,
      "pricing": 7507,
      "proven": 7508,
      "##si": 7509,
      "adding": 7510,
      "municipal": 7511,
      "ster": 7512,
      "clients": 7513,
      "empow": 7514,
      "filled": 7515,
      "##kind": 7516,
      "arrive": 7517,
      "mulcahy": 7518,
      "neighbourhood": 7519,
      "vary": 7520,
      "theme": 7521,
      "##atisfact": 7522,
      "gray": 7523,
      "sut": 7524,
      "##aney": 7525,
      "pressing": 7526,
      "injured": 7527,
      "benn": 7528,
      "fruit": 7529,
      "row": 7530,
      "gallery": 7531,
      "wording": 7532,
      "##itud": 7533,
      "strengthened": 7534,
      "boland": 7535,
      "hang": 7536,
      "doors": 7537,
      "readily": 7538,
      "younger": 7539,
      "constraints": 7540,
      "nu": 7541,
      "dark": 7542,
      "##which": 7543,
      "petitioners": 7544,
      "sufficiently": 7545,
      "attrib": 7546,
      "generated": 7547,
      "wake": 7548,
      "bankrupt": 7549,
      "donoghue": 7550,
      "du": 7551,
      "safer": 7552,
      "crow": 7553,
      "penr": 7554,
      "signing": 7555,
      "decrease": 7556,
      "winston": 7557,
      "accounting": 7558,
      "estates": 7559,
      "reassure": 7560,
      "500": 7561,
      "interf": 7562,
      "prevented": 7563,
      "morrison": 7564,
      "retained": 7565,
      "rip": 7566,
      "kar": 7567,
      "protections": 7568,
      "deployed": 7569,
      "discour": 7570,
      "##burn": 7571,
      "##elle": 7572,
      "dyn": 7573,
      "spanish": 7574,
      "decentral": 7575,
      "tact": 7576,
      "amending": 7577,
      "irrespons": 7578,
      "##manship": 7579,
      "dund": 7580,
      "champion": 7581,
      "heating": 7582,
      "##aces": 7583,
      "##inational": 7584,
      "##agher": 7585,
      "buses": 7586,
      "healthcare": 7587,
      "##acies": 7588,
      "##conn": 7589,
      "abolished": 7590,
      "##lifer": 7591,
      "thoughts": 7592,
      "irres": 7593,
      "unus": 7594,
      "amazing": 7595,
      "incap": 7596,
      "transp": 7597,
      "compassion": 7598,
      "unreason": 7599,
      "desperate": 7600,
      "obstac": 7601,
      "tasman": 7602,
      "##uming": 7603,
      "covering": 7604,
      "mouth": 7605,
      "thousand": 7606,
      "beautiful": 7607,
      "harder": 7608,
      "cheaper": 7609,
      "precedent": 7610,
      "tab": 7611,
      "##cel": 7612,
      "articles": 7613,
      "constitute": 7614,
      "electr": 7615,
      "appla": 7616,
      "kh": 7617,
      "##ata": 7618,
      "intimid": 7619,
      "##ocation": 7620,
      "endors": 7621,
      "##owell": 7622,
      "tam": 7623,
      "marked": 7624,
      "switch": 7625,
      "simplif": 7626,
      "##ulf": 7627,
      "contributory": 7628,
      "resort": 7629,
      "##11": 7630,
      "supporters": 7631,
      "##onom": 7632,
      "warned": 7633,
      "deposit": 7634,
      "supportive": 7635,
      "awaiting": 7636,
      "dynam": 7637,
      "feas": 7638,
      "dup": 7639,
      "admission": 7640,
      "conce": 7641,
      "peak": 7642,
      "##glas": 7643,
      "columbia": 7644,
      "moves": 7645,
      "fears": 7646,
      "excellence": 7647,
      "stuff": 7648,
      "##cript": 7649,
      "##break": 7650,
      "##but": 7651,
      "recess": 7652,
      "##osh": 7653,
      "residence": 7654,
      "franch": 7655,
      "confront": 7656,
      "asc": 7657,
      "sooner": 7658,
      "echo": 7659,
      "wanting": 7660,
      "anxiety": 7661,
      "prolifer": 7662,
      "moore": 7663,
      "ultimate": 7664,
      "##onsist": 7665,
      "peacebuilding": 7666,
      "##umph": 7667,
      "atm": 7668,
      "##ounded": 7669,
      "deport": 7670,
      "lothian": 7671,
      "palestine": 7672,
      "holds": 7673,
      "smart": 7674,
      "disreg": 7675,
      "cry": 7676,
      "congratulations": 7677,
      "theat": 7678,
      "fines": 7679,
      "refusal": 7680,
      "acceptance": 7681,
      "##ainment": 7682,
      "gallagher": 7683,
      "roisin": 7684,
      "surf": 7685,
      "screening": 7686,
      "##ode": 7687,
      "tape": 7688,
      "correction": 7689,
      "carter": 7690,
      "sentencing": 7691,
      "olds": 7692,
      "##eg": 7693,
      "diverse": 7694,
      "##proportion": 7695,
      "purchased": 7696,
      "##isive": 7697,
      "strikes": 7698,
      "wal": 7699,
      "exclusion": 7700,
      "dear": 7701,
      "freight": 7702,
      "kath": 7703,
      "demonstrates": 7704,
      "melbourne": 7705,
      "toll": 7706,
      "disorder": 7707,
      "era": 7708,
      "castle": 7709,
      "refund": 7710,
      "##adar": 7711,
      "roger": 7712,
      "emm": 7713,
      "##udic": 7714,
      "##parthe": 7715,
      "disproportion": 7716,
      "spite": 7717,
      "spot": 7718,
      "coordination": 7719,
      "irrespective": 7720,
      "worthy": 7721,
      "embark": 7722,
      "incompet": 7723,
      "benefited": 7724,
      "buck": 7725,
      "##ino": 7726,
      "drag": 7727,
      "##partheid": 7728,
      "dated": 7729,
      "custody": 7730,
      "stem": 7731,
      "borne": 7732,
      "dates": 7733,
      "define": 7734,
      "retros": 7735,
      "suppliers": 7736,
      "cruel": 7737,
      "##incent": 7738,
      "attempted": 7739,
      "hind": 7740,
      "claiming": 7741,
      "##nam": 7742,
      "douglas": 7743,
      "ambulance": 7744,
      "beat": 7745,
      "##ken": 7746,
      "pages": 7747,
      "injustice": 7748,
      "sister": 7749,
      "flat": 7750,
      "doubled": 7751,
      "colley": 7752,
      "reviewing": 7753,
      "worrying": 7754,
      "documentation": 7755,
      "notion": 7756,
      "norman": 7757,
      "liverpool": 7758,
      "finalised": 7759,
      "apartheid": 7760,
      "heath": 7761,
      "practically": 7762,
      "##itudes": 7763,
      "appropriately": 7764,
      "ranging": 7765,
      "alternatives": 7766,
      "scotlands": 7767,
      "focusing": 7768,
      "##ba": 7769,
      "malc": 7770,
      "##ireless": 7771,
      "##ilge": 7772,
      "sharp": 7773,
      "##being": 7774,
      "##night": 7775,
      "nut": 7776,
      "##igate": 7777,
      "revenues": 7778,
      "connolly": 7779,
      "secretar": 7780,
      "nama": 7781,
      "economically": 7782,
      "boat": 7783,
      "irelands": 7784,
      "morgan": 7785,
      "proceeds": 7786,
      "witnessed": 7787,
      "steve": 7788,
      "allies": 7789,
      "starts": 7790,
      "wheel": 7791,
      "enabled": 7792,
      "remedy": 7793,
      "alberta": 7794,
      "iraqi": 7795,
      "headquar": 7796,
      "divide": 7797,
      "players": 7798,
      "liz": 7799,
      "politically": 7800,
      "arth": 7801,
      "##essed": 7802,
      "diab": 7803,
      "inconsist": 7804,
      "dea": 7805,
      "americans": 7806,
      "seekers": 7807,
      "ah": 7808,
      "##pass": 7809,
      "displaced": 7810,
      "mens": 7811,
      "load": 7812,
      "reaffirm": 7813,
      "cig": 7814,
      "keith": 7815,
      "cree": 7816,
      "continuous": 7817,
      "discipline": 7818,
      "confron": 7819,
      "licensed": 7820,
      "satisfaction": 7821,
      "revers": 7822,
      "turkey": 7823,
      "dogs": 7824,
      "##omen": 7825,
      "inevitable": 7826,
      "##ushing": 7827,
      "##try": 7828,
      "male": 7829,
      "fraser": 7830,
      "desperately": 7831,
      "disappointing": 7832,
      "gate": 7833,
      "upper": 7834,
      "rebate": 7835,
      "rape": 7836,
      "predict": 7837,
      "apology": 7838,
      "credible": 7839,
      "flour": 7840,
      "proliferation": 7841,
      "actors": 7842,
      "baby": 7843,
      "partisan": 7844,
      "##life": 7845,
      "functioning": 7846,
      "1938": 7847,
      "applaud": 7848,
      "connell": 7849,
      "coher": 7850,
      "leak": 7851,
      "automatically": 7852,
      "parliaments": 7853,
      "challenged": 7854,
      "##stitution": 7855,
      "quiet": 7856,
      "arose": 7857,
      "ga": 7858,
      "observed": 7859,
      "census": 7860,
      "heading": 7861,
      "hate": 7862,
      "creative": 7863,
      "##water": 7864,
      "punishment": 7865,
      "##aling": 7866,
      "logic": 7867,
      "democrat": 7868,
      "vaccine": 7869,
      "rain": 7870,
      "##oked": 7871,
      "thrown": 7872,
      "fion": 7873,
      "gene": 7874,
      "reliable": 7875,
      "bright": 7876,
      "peadar": 7877,
      "offender": 7878,
      "claimants": 7879,
      "adjustment": 7880,
      "dangers": 7881,
      "acquire": 7882,
      "stretch": 7883,
      "hor": 7884,
      "overd": 7885,
      "corish": 7886,
      "lee": 7887,
      "invitation": 7888,
      "warn": 7889,
      "impris": 7890,
      "molloy": 7891,
      "quarters": 7892,
      "touched": 7893,
      "jimmy": 7894,
      "##nn": 7895,
      "##rel": 7896,
      "blaney": 7897,
      "lect": 7898,
      "cup": 7899,
      "creed": 7900,
      "humanity": 7901,
      "impart": 7902,
      "##olds": 7903,
      "##10": 7904,
      "likes": 7905,
      "dream": 7906,
      "##oi": 7907,
      "applicable": 7908,
      "malcolm": 7909,
      "1930": 7910,
      "##geon": 7911,
      "##cap": 7912,
      "##aka": 7913,
      "imprisonment": 7914,
      "indian": 7915,
      "sadd": 7916,
      "couples": 7917,
      "telegraph": 7918,
      "continuation": 7919,
      "registry": 7920,
      "recognising": 7921,
      "##une": 7922,
      "sixth": 7923,
      "shot": 7924,
      "plays": 7925,
      "##irty": 7926,
      "posed": 7927,
      "philip": 7928,
      "boats": 7929,
      "insult": 7930,
      "counsell": 7931,
      "##acc": 7932,
      "inland": 7933,
      "##castle": 7934,
      "mu": 7935,
      "intellectual": 7936,
      "contacted": 7937,
      "upgrade": 7938,
      "abandoned": 7939,
      "owing": 7940,
      "identification": 7941,
      "wars": 7942,
      "weapon": 7943,
      "signal": 7944,
      "arisen": 7945,
      "spectrum": 7946,
      "treaties": 7947,
      "fores": 7948,
      "thirds": 7949,
      "prelimin": 7950,
      "##ques": 7951,
      "braz": 7952,
      "unjust": 7953,
      "yorks": 7954,
      "tasks": 7955,
      "qualifying": 7956,
      "severely": 7957,
      "dies": 7958,
      "imb": 7959,
      "disregard": 7960,
      "laughter": 7961,
      "aberdeen": 7962,
      "##wich": 7963,
      "##hill": 7964,
      "charging": 7965,
      "apprenticeships": 7966,
      "dent": 7967,
      "announcements": 7968,
      "wisdom": 7969,
      "villages": 7970,
      "petro": 7971,
      "##gam": 7972,
      "tens": 7973,
      "##car": 7974,
      "inherited": 7975,
      "arguing": 7976,
      "##erity": 7977,
      "burd": 7978,
      "ling": 7979,
      "dramatically": 7980,
      "intens": 7981,
      "survivors": 7982,
      "kilomet": 7983,
      "##gov": 7984,
      "shif": 7985,
      "insuff": 7986,
      "interjecting": 7987,
      "bish": 7988,
      "esb": 7989,
      "##icable": 7990,
      "ellis": 7991,
      "liv": 7992,
      "##church": 7993,
      "willingness": 7994,
      "regulate": 7995,
      "##ennis": 7996,
      "bobby": 7997,
      "occupational": 7998,
      "respective": 7999,
      "disrupt": 8000,
      "developers": 8001,
      "preliminary": 8002,
      "lawyer": 8003,
      "perth": 8004,
      "##stown": 8005,
      "ratepay": 8006,
      "##uthi": 8007,
      "fishery": 8008,
      "mcdowell": 8009,
      "catholic": 8010,
      "robin": 8011,
      "##holder": 8012,
      "neighbouring": 8013,
      "grade": 8014,
      "bag": 8015,
      "relevance": 8016,
      "partial": 8017,
      "lift": 8018,
      "cyn": 8019,
      "##ouses": 8020,
      "##allow": 8021,
      "restoration": 8022,
      "nowhere": 8023,
      "##aund": 8024,
      "attempting": 8025,
      "headquarters": 8026,
      "trends": 8027,
      "davies": 8028,
      "volunteer": 8029,
      "penrose": 8030,
      "##point": 8031,
      "granting": 8032,
      "begun": 8033,
      "hom": 8034,
      "##zen": 8035,
      "##ari": 8036,
      "##erted": 8037,
      "essence": 8038,
      "silence": 8039,
      "ko": 8040,
      "##gence": 8041,
      "congestion": 8042,
      "hotel": 8043,
      "qualification": 8044,
      "##anton": 8045,
      "killing": 8046,
      "tories": 8047,
      "insol": 8048,
      "competent": 8049,
      "oliver": 8050,
      "40": 8051,
      "##afin": 8052,
      "modernisation": 8053,
      "reads": 8054,
      "solicit": 8055,
      "rented": 8056,
      "jail": 8057,
      "egg": 8058,
      "##mouth": 8059,
      "cs": 8060,
      "explore": 8061,
      "millenn": 8062,
      "##eline": 8063,
      "##mac": 8064,
      "consequential": 8065,
      "herself": 8066,
      "##sth": 8067,
      "##utical": 8068,
      "imposing": 8069,
      "obtaining": 8070,
      "##iny": 8071,
      "##ighters": 8072,
      "##igorous": 8073,
      "##forward": 8074,
      "renewed": 8075,
      "slaughter": 8076,
      "grain": 8077,
      "##committ": 8078,
      "depth": 8079,
      "loyal": 8080,
      "pipeline": 8081,
      "##late": 8082,
      "respectively": 8083,
      "hanafin": 8084,
      "rourke": 8085,
      "consolidation": 8086,
      "italy": 8087,
      "campaigns": 8088,
      "opinions": 8089,
      "ard": 8090,
      "native": 8091,
      "counsel": 8092,
      "serves": 8093,
      "failures": 8094,
      "affirm": 8095,
      "kathleen": 8096,
      "##laim": 8097,
      "lots": 8098,
      "tort": 8099,
      "distinguished": 8100,
      "ordination": 8101,
      "samp": 8102,
      "ip": 8103,
      "lobb": 8104,
      "highway": 8105,
      "trees": 8106,
      "assigned": 8107,
      "backed": 8108,
      "##iciaries": 8109,
      "##sex": 8110,
      "donations": 8111,
      "craw": 8112,
      "chaired": 8113,
      "outbreak": 8114,
      "earned": 8115,
      "cigar": 8116,
      "##have": 8117,
      "##anges": 8118,
      "grey": 8119,
      "harass": 8120,
      "##umber": 8121,
      "presum": 8122,
      "##say": 8123,
      "shareholders": 8124,
      "calculated": 8125,
      "regeneration": 8126,
      "lebanon": 8127,
      "socio": 8128,
      "cad": 8129,
      "##aidh": 8130,
      "unreasonable": 8131,
      "encouragement": 8132,
      "##loqu": 8133,
      "opposing": 8134,
      "##ica": 8135,
      "campbell": 8136,
      "tert": 8137,
      "busy": 8138,
      "##kom": 8139,
      "competing": 8140,
      "participated": 8141,
      "meath": 8142,
      "confined": 8143,
      "gained": 8144,
      "##orative": 8145,
      "##ibre": 8146,
      "##oir": 8147,
      "honoured": 8148,
      "micro": 8149,
      "##utors": 8150,
      "tertiary": 8151,
      "amal": 8152,
      "contempt": 8153,
      "talent": 8154,
      "##ky": 8155,
      "handic": 8156,
      "##ini": 8157,
      "exercised": 8158,
      "systematic": 8159,
      "hire": 8160,
      "##ii": 8161,
      "multinational": 8162,
      "literacy": 8163,
      "commem": 8164,
      "phen": 8165,
      "obser": 8166,
      "##oting": 8167,
      "washing": 8168,
      "permits": 8169,
      "gaps": 8170,
      "dono": 8171,
      "rect": 8172,
      "##wing": 8173,
      "atmosp": 8174,
      "smugg": 8175,
      "ethics": 8176,
      "efficiently": 8177,
      "##ipts": 8178,
      "overr": 8179,
      "cameron": 8180,
      "combination": 8181,
      "##pers": 8182,
      "incon": 8183,
      "rivers": 8184,
      "transactions": 8185,
      "##30": 8186,
      "assumption": 8187,
      "ncop": 8188,
      "formally": 8189,
      "noticed": 8190,
      "imposition": 8191,
      "newly": 8192,
      "symb": 8193,
      "nig": 8194,
      "occurs": 8195,
      "helic": 8196,
      "unusual": 8197,
      "compliment": 8198,
      "circulated": 8199,
      "gc": 8200,
      "donohoe": 8201,
      "deliberate": 8202,
      "ye": 8203,
      "rig": 8204,
      "rand": 8205,
      "semi": 8206,
      "helicop": 8207,
      "scientists": 8208,
      "beneficiaries": 8209,
      "##leum": 8210,
      "presume": 8211,
      "fortunate": 8212,
      "mck": 8213,
      "pray": 8214,
      "harper": 8215,
      "jobsee": 8216,
      "jump": 8217,
      "kilkenny": 8218,
      "breast": 8219,
      "raw": 8220,
      "kehoe": 8221,
      "alexander": 8222,
      "##dc": 8223,
      "##child": 8224,
      "pledge": 8225,
      "##bl": 8226,
      "looph": 8227,
      "wildlife": 8228,
      "sah": 8229,
      "cypr": 8230,
      "cer": 8231,
      "informal": 8232,
      "holidays": 8233,
      "##erate": 8234,
      "hansard": 8235,
      "bonus": 8236,
      "mallard": 8237,
      "gambling": 8238,
      "1940": 8239,
      "anglo": 8240,
      "tempt": 8241,
      "didn": 8242,
      "lux": 8243,
      "fairer": 8244,
      "##hu": 8245,
      "groc": 8246,
      "organized": 8247,
      "prohibition": 8248,
      "flynn": 8249,
      "targeting": 8250,
      "##lyde": 8251,
      "ambition": 8252,
      "jeremy": 8253,
      "donald": 8254,
      "entert": 8255,
      "afri": 8256,
      "identifying": 8257,
      "conver": 8258,
      "##ook": 8259,
      "dereg": 8260,
      "hub": 8261,
      "promoted": 8262,
      "salmon": 8263,
      "##gry": 8264,
      "cohes": 8265,
      "religion": 8266,
      "reorgan": 8267,
      "wholes": 8268,
      "postp": 8269,
      "commissions": 8270,
      "deliberations": 8271,
      "yemen": 8272,
      "1943": 8273,
      "millennium": 8274,
      "fert": 8275,
      "everywhere": 8276,
      "circular": 8277,
      "expressing": 8278,
      "worldwide": 8279,
      "yorkshire": 8280,
      "resigned": 8281,
      "feargh": 8282,
      "straightforward": 8283,
      "##would": 8284,
      "criticised": 8285,
      "hence": 8286,
      "weakness": 8287,
      "##amed": 8288,
      "references": 8289,
      "paris": 8290,
      "privileges": 8291,
      "##istical": 8292,
      "chairmanship": 8293,
      "persuade": 8294,
      "binding": 8295,
      "tv": 8296,
      "vacancies": 8297,
      "master": 8298,
      "petitions": 8299,
      "mun": 8300,
      "ped": 8301,
      "eric": 8302,
      "maurice": 8303,
      "##imbab": 8304,
      "##oo": 8305,
      "closures": 8306,
      "##govina": 8307,
      "trustees": 8308,
      "complexity": 8309,
      "favourable": 8310,
      "insp": 8311,
      "crises": 8312,
      "presumably": 8313,
      "height": 8314,
      "##onto": 8315,
      "sized": 8316,
      "bang": 8317,
      "irresponsible": 8318,
      "##yth": 8319,
      "##gypt": 8320,
      "restrain": 8321,
      "description": 8322,
      "fest": 8323,
      "holdings": 8324,
      "##uates": 8325,
      "arthur": 8326,
      "emerged": 8327,
      "cie": 8328,
      "abuses": 8329,
      "greece": 8330,
      "eli": 8331,
      "##ny": 8332,
      "##opard": 8333,
      "zimbab": 8334,
      "herze": 8335,
      "phot": 8336,
      "##any": 8337,
      "populations": 8338,
      "##oning": 8339,
      "mile": 8340,
      "insec": 8341,
      "##opher": 8342,
      "jury": 8343,
      "harmon": 8344,
      "egypt": 8345,
      "doesn": 8346,
      "disastr": 8347,
      "russell": 8348,
      "ons": 8349,
      "##hear": 8350,
      "approached": 8351,
      "associate": 8352,
      "##neth": 8353,
      "##ligo": 8354,
      "purchasing": 8355,
      "pull": 8356,
      "sponsors": 8357,
      "bargaining": 8358,
      "monthly": 8359,
      "eat": 8360,
      "albanese": 8361,
      "pushed": 8362,
      "incorporated": 8363,
      "aggression": 8364,
      "consulting": 8365,
      "legislate": 8366,
      "subjected": 8367,
      "collectively": 8368,
      "sewer": 8369,
      "laugh": 8370,
      "dying": 8371,
      "profile": 8372,
      "doo": 8373,
      "adviser": 8374,
      "##ais": 8375,
      "herzegovina": 8376,
      "highlights": 8377,
      "ange": 8378,
      "sligo": 8379,
      "christchurch": 8380,
      "accommodate": 8381,
      "##fund": 8382,
      "##acted": 8383,
      "gentlemen": 8384,
      "##oil": 8385,
      "gulf": 8386,
      "insufficient": 8387,
      "rolling": 8388,
      "navy": 8389,
      "##contr": 8390,
      "arranged": 8391,
      "dor": 8392,
      "guine": 8393,
      "impartial": 8394,
      "zimbabwe": 8395,
      "misunder": 8396,
      "clinic": 8397,
      "flu": 8398,
      "##pton": 8399,
      "letting": 8400,
      "entrepreneurs": 8401,
      "swed": 8402,
      "daughter": 8403,
      "##uters": 8404,
      "enshr": 8405,
      "amalgam": 8406,
      "##orb": 8407,
      "relatives": 8408,
      "max": 8409,
      "version": 8410,
      "belfast": 8411,
      "##represent": 8412,
      "##fa": 8413,
      "leas": 8414,
      "monopoly": 8415,
      "corry": 8416,
      "explos": 8417,
      "derek": 8418,
      "vested": 8419,
      "solicitors": 8420,
      "ciar": 8421,
      "##anny": 8422,
      "costing": 8423,
      "unders": 8424,
      "##after": 8425,
      "continually": 8426,
      "parking": 8427,
      "diabet": 8428,
      "grass": 8429,
      "defect": 8430,
      "rt": 8431,
      "trials": 8432,
      "##aceutical": 8433,
      "distributed": 8434,
      "serb": 8435,
      "drew": 8436,
      "literally": 8437,
      "ict": 8438,
      "wellbeing": 8439,
      "financially": 8440,
      "models": 8441,
      "##this": 8442,
      "hoping": 8443,
      "hect": 8444,
      "appreciated": 8445,
      "certificates": 8446,
      "mortgages": 8447,
      "irr": 8448,
      "saint": 8449,
      "advances": 8450,
      "colonial": 8451,
      "##ingle": 8452,
      "interfere": 8453,
      "ensured": 8454,
      "dispatch": 8455,
      "##gue": 8456,
      "evil": 8457,
      "owen": 8458,
      "concessions": 8459,
      "owe": 8460,
      "indul": 8461,
      "unm": 8462,
      "merc": 8463,
      "embass": 8464,
      "presidential": 8465,
      "palestinians": 8466,
      "indonesia": 8467,
      "mobility": 8468,
      "ease": 8469,
      "fiona": 8470,
      "wors": 8471,
      "lesson": 8472,
      "ri": 8473,
      "colomb": 8474,
      "perce": 8475,
      "wool": 8476,
      "enhancing": 8477,
      "refusing": 8478,
      "##illance": 8479,
      "procedural": 8480,
      "reyn": 8481,
      "##akh": 8482,
      "benchers": 8483,
      "motiv": 8484,
      "##fur": 8485,
      "isolation": 8486,
      "mines": 8487,
      "petroleum": 8488,
      "ice": 8489,
      "condol": 8490,
      "bath": 8491,
      "##inform": 8492,
      "trades": 8493,
      "autism": 8494,
      "absurd": 8495,
      "sask": 8496,
      "amen": 8497,
      "frustration": 8498,
      "gorm": 8499,
      "newcastle": 8500,
      "settle": 8501,
      "##pa": 8502,
      "propag": 8503,
      "laund": 8504,
      "keating": 8505,
      "technological": 8506,
      "secretariat": 8507,
      "tribunals": 8508,
      "brother": 8509,
      "surveillance": 8510,
      "##committee": 8511,
      "##ym": 8512,
      "keeps": 8513,
      "##12": 8514,
      "pushing": 8515,
      "##lav": 8516,
      "reynolds": 8517,
      "##zz": 8518,
      "avoidance": 8519,
      "charitable": 8520,
      "##vens": 8521,
      "spin": 8522,
      "##chal": 8523,
      "hamm": 8524,
      "afterwards": 8525,
      "disastrous": 8526,
      "pharmaceutical": 8527,
      "dedication": 8528,
      "laogh": 8529,
      "placing": 8530,
      "substances": 8531,
      "spell": 8532,
      "eloqu": 8533,
      "veto": 8534,
      "atmosphere": 8535,
      "shortages": 8536,
      "mensah": 8537,
      "hurt": 8538,
      "livest": 8539,
      "features": 8540,
      "sweetman": 8541,
      "deadline": 8542,
      "##oon": 8543,
      "gormley": 8544,
      "lucky": 8545,
      "jeopard": 8546,
      "laoghaire": 8547,
      "realize": 8548,
      "##wr": 8549,
      "issuing": 8550,
      "backlog": 8551,
      "tail": 8552,
      "marsh": 8553,
      "cook": 8554,
      "##19": 8555,
      "prosperous": 8556,
      "isolated": 8557,
      "supermark": 8558,
      "dish": 8559,
      "rend": 8560,
      "math": 8561,
      "wished": 8562,
      "##eme": 8563,
      "tourists": 8564,
      "angus": 8565,
      "wealthy": 8566,
      "livestock": 8567,
      "mcle": 8568,
      "##ray": 8569,
      "attitudes": 8570,
      "conscience": 8571,
      "utterly": 8572,
      "worthwhile": 8573,
      "##power": 8574,
      "email": 8575,
      "##irms": 8576,
      "##gent": 8577,
      "##yei": 8578,
      "vig": 8579,
      "fearghail": 8580,
      "pretend": 8581,
      "refurb": 8582,
      "##usted": 8583,
      "capabilities": 8584,
      "merch": 8585,
      "wick": 8586,
      "performing": 8587,
      "restored": 8588,
      "freely": 8589,
      "machine": 8590,
      "councillor": 8591,
      "taught": 8592,
      "austin": 8593,
      "competence": 8594,
      "catastr": 8595,
      "##oys": 8596,
      "cra": 8597,
      "paschal": 8598,
      "receipts": 8599,
      "copies": 8600,
      "davin": 8601,
      "stanton": 8602,
      "hamp": 8603,
      "video": 8604,
      "blair": 8605,
      "hypocr": 8606,
      "divor": 8607,
      "controversial": 8608,
      "##essions": 8609,
      "communicate": 8610,
      "costly": 8611,
      "##bish": 8612,
      "lake": 8613,
      "survival": 8614,
      "lodged": 8615,
      "whips": 8616,
      "##oms": 8617,
      "routine": 8618,
      "fuels": 8619,
      "marks": 8620,
      "acknowledges": 8621,
      "henry": 8622,
      "rw": 8623,
      "swan": 8624,
      "gratitude": 8625,
      "##common": 8626,
      "##mr": 8627,
      "spokesman": 8628,
      "del": 8629,
      "hyd": 8630,
      "##inarily": 8631,
      "bird": 8632,
      "planet": 8633,
      "##ighter": 8634,
      "christopher": 8635,
      "##acent": 8636,
      "grew": 8637,
      "mixed": 8638,
      "ceasefire": 8639,
      "aeg": 8640,
      "##nelly": 8641,
      "diabetes": 8642,
      "ts": 8643,
      "minded": 8644,
      "poorer": 8645,
      "austerity": 8646,
      "brave": 8647,
      "cunningham": 8648,
      "consistency": 8649,
      "aegis": 8650,
      "joining": 8651,
      "mobil": 8652,
      "60": 8653,
      "hugely": 8654,
      "virtue": 8655,
      "naval": 8656,
      "donnelly": 8657,
      "##lusively": 8658,
      "replac": 8659,
      "toronto": 8660,
      "split": 8661,
      "abbott": 8662,
      "cyber": 8663,
      "assessing": 8664,
      "shortfall": 8665,
      "wing": 8666,
      "devoted": 8667,
      "earliest": 8668,
      "answering": 8669,
      "##inner": 8670,
      "##vency": 8671,
      "abused": 8672,
      "incorrect": 8673,
      "##umes": 8674,
      "colour": 8675,
      "##estim": 8676,
      "measured": 8677,
      "##stra": 8678,
      "analy": 8679,
      "##itis": 8680,
      "timing": 8681,
      "##icultural": 8682,
      "praise": 8683,
      "sincerely": 8684,
      "journalists": 8685,
      "nt": 8686,
      "##25": 8687,
      "parallel": 8688,
      "roy": 8689,
      "nel": 8690,
      "thoroughly": 8691,
      "enlar": 8692,
      "berc": 8693,
      "walking": 8694,
      "valued": 8695,
      "##connect": 8696,
      "##rence": 8697,
      "clothing": 8698,
      "bercow": 8699,
      "##lights": 8700,
      "boundary": 8701,
      "racial": 8702,
      "kick": 8703,
      "misuse": 8704,
      "inspections": 8705,
      "updated": 8706,
      "##book": 8707,
      "gear": 8708,
      "barrier": 8709,
      "##aki": 8710,
      "inject": 8711,
      "arrested": 8712,
      "occurring": 8713,
      "preferred": 8714,
      "liabilities": 8715,
      "abortion": 8716,
      "enthusias": 8717,
      "utmost": 8718,
      "shocking": 8719,
      "sid": 8720,
      "condemned": 8721,
      "emer": 8722,
      "user": 8723,
      "autonom": 8724,
      "continu": 8725,
      "conversations": 8726,
      "exemptions": 8727,
      "expectation": 8728,
      "aggress": 8729,
      "mbe": 8730,
      "memorial": 8731,
      "lone": 8732,
      "##qual": 8733,
      "taxi": 8734,
      "ratepayers": 8735,
      "1957": 8736,
      "##ura": 8737,
      "divisions": 8738,
      "carr": 8739,
      "stu": 8740,
      "enthusiasm": 8741,
      "objections": 8742,
      "notices": 8743,
      "guinea": 8744,
      "##ouch": 8745,
      "conducting": 8746,
      "accompanied": 8747,
      "philosophy": 8748,
      "migr": 8749,
      "##aves": 8750,
      "criticise": 8751,
      "soil": 8752,
      "sponsored": 8753,
      "duplic": 8754,
      "##iates": 8755,
      "lough": 8756,
      "reinfor": 8757,
      "thatcher": 8758,
      "advocacy": 8759,
      "picked": 8760,
      "timber": 8761,
      "iron": 8762,
      "bonds": 8763,
      "demanding": 8764,
      "racing": 8765,
      "phenomen": 8766,
      "deputys": 8767,
      "##ares": 8768,
      "bradford": 8769,
      "confused": 8770,
      "corrid": 8771,
      "governmental": 8772,
      "bio": 8773,
      "dooley": 8774,
      "imbal": 8775,
      "psychological": 8776,
      "europ": 8777,
      "penny": 8778,
      "##eded": 8779,
      "attacked": 8780,
      "##apsed": 8781,
      "curt": 8782,
      "publicity": 8783,
      "stimul": 8784,
      "handled": 8785,
      "exceeding": 8786,
      "succeeded": 8787,
      "adher": 8788,
      "vanc": 8789,
      "roof": 8790,
      "redundant": 8791,
      "mb": 8792,
      "constitutes": 8793,
      "##irt": 8794,
      "convictions": 8795,
      "leary": 8796,
      "differently": 8797,
      "##held": 8798,
      "founded": 8799,
      "##ania": 8800,
      "sherlock": 8801,
      "elab": 8802,
      "smoke": 8803,
      "##inct": 8804,
      "onto": 8805,
      "haiti": 8806,
      "##outs": 8807,
      "countryside": 8808,
      "datab": 8809,
      "practitioner": 8810,
      "comparable": 8811,
      "##ainn": 8812,
      "##igel": 8813,
      "lewis": 8814,
      "fabric": 8815,
      "##athers": 8816,
      "separation": 8817,
      "liberty": 8818,
      "neutral": 8819,
      "noble": 8820,
      "tall": 8821,
      "jenny": 8822,
      "##arl": 8823,
      "brazil": 8824,
      "tunnel": 8825,
      "assumed": 8826,
      "rises": 8827,
      "positively": 8828,
      "overdue": 8829,
      "brady": 8830,
      "realities": 8831,
      "##aken": 8832,
      "##ashed": 8833,
      "mas": 8834,
      "##link": 8835,
      "jackson": 8836,
      "typical": 8837,
      "islamic": 8838,
      "breaches": 8839,
      "incidence": 8840,
      "##otic": 8841,
      "flight": 8842,
      "nigel": 8843,
      "burdens": 8844,
      "excellency": 8845,
      "restriction": 8846,
      "viability": 8847,
      "damaged": 8848,
      "mans": 8849,
      "##illan": 8850,
      "anticipate": 8851,
      "pose": 8852,
      "column": 8853,
      "disgraceful": 8854,
      "bennett": 8855,
      "##itz": 8856,
      "resilience": 8857,
      "widow": 8858,
      "reop": 8859,
      "repairs": 8860,
      "accomplish": 8861,
      "wellington": 8862,
      "schol": 8863,
      "devices": 8864,
      "rug": 8865,
      "chur": 8866,
      "weve": 8867,
      "style": 8868,
      "roscommon": 8869,
      "encoun": 8870,
      "tier": 8871,
      "teen": 8872,
      "threatening": 8873,
      "sewerage": 8874,
      "garret": 8875,
      "impressed": 8876,
      "##minent": 8877,
      "acre": 8878,
      "awful": 8879,
      "illicit": 8880,
      "swift": 8881,
      "##avours": 8882,
      "##osa": 8883,
      "mcm": 8884,
      "loud": 8885,
      "autom": 8886,
      "##clause": 8887,
      "doyle": 8888,
      "magistr": 8889,
      "counterparts": 8890,
      "portug": 8891,
      "pointing": 8892,
      "##real": 8893,
      "stuart": 8894,
      "alive": 8895,
      "bare": 8896,
      "hors": 8897,
      "macdonald": 8898,
      "stead": 8899,
      "dilig": 8900,
      "unequ": 8901,
      "offensive": 8902,
      "artic": 8903,
      "independently": 8904,
      "deferred": 8905,
      "counselling": 8906,
      "troy": 8907,
      "gay": 8908,
      "##coe": 8909,
      "omit": 8910,
      "iain": 8911,
      "widows": 8912,
      "enforced": 8913,
      "##grad": 8914,
      "quantity": 8915,
      "dual": 8916,
      "inability": 8917,
      "aus": 8918,
      "reckless": 8919,
      "tied": 8920,
      "offset": 8921,
      "kenneth": 8922,
      "deenihan": 8923,
      "drought": 8924,
      "exclude": 8925,
      "barn": 8926,
      "##iments": 8927,
      "unlaw": 8928,
      "meals": 8929,
      "##inter": 8930,
      "defic": 8931,
      "bishop": 8932,
      "jamie": 8933,
[...]
